{
  "version": "1.0",
  "truncation": null,
  "padding": null,
  "added_tokens": [
    {
      "id": 0,
      "content": "<|endoftext|>",
      "single_word": false,
      "lstrip": false,
      "rstrip": false,
      "normalized": false,
      "special": true
    },
    {
      "id": 1,
      "content": "<|endofturn|>",
      "single_word": false,
      "lstrip": false,
      "rstrip": false,
      "normalized": false,
      "special": true
    },
    {
      "id": 2,
      "content": "<|bos|>",
      "single_word": false,
      "lstrip": false,
      "rstrip": false,
      "normalized": false,
      "special": true
    },
    {
      "id": 3,
      "content": "<|eos|>",
      "single_word": false,
      "lstrip": false,
      "rstrip": false,
      "normalized": false,
      "special": true
    },
    {
      "id": 4,
      "content": "<|user|>",
      "single_word": false,
      "lstrip": false,
      "rstrip": false,
      "normalized": false,
      "special": true
    },
    {
      "id": 5,
      "content": "<|assistant|>",
      "single_word": false,
      "lstrip": false,
      "rstrip": false,
      "normalized": false,
      "special": true
    },
    {
      "id": 6,
      "content": "<|system|>",
      "single_word": false,
      "lstrip": false,
      "rstrip": false,
      "normalized": false,
      "special": true
    },
    {
      "id": 7,
      "content": "<|pad|>",
      "single_word": false,
      "lstrip": false,
      "rstrip": false,
      "normalized": false,
      "special": true
    },
    {
      "id": 8,
      "content": "<|unk|>",
      "single_word": false,
      "lstrip": false,
      "rstrip": false,
      "normalized": false,
      "special": true
    }
  ],
  "normalizer": {
    "type": "Sequence",
    "normalizers": [
      {
        "type": "NFD"
      },
      {
        "type": "StripAccents"
      }
    ]
  },
  "pre_tokenizer": {
    "type": "ByteLevel",
    "add_prefix_space": false,
    "trim_offsets": true,
    "use_regex": true
  },
  "post_processor": {
    "type": "TemplateProcessing",
    "single": [
      {
        "SpecialToken": {
          "id": "<|bos|>",
          "type_id": 0
        }
      },
      {
        "Sequence": {
          "id": "A",
          "type_id": 0
        }
      },
      {
        "SpecialToken": {
          "id": "<|eos|>",
          "type_id": 0
        }
      }
    ],
    "pair": [
      {
        "SpecialToken": {
          "id": "<|bos|>",
          "type_id": 0
        }
      },
      {
        "Sequence": {
          "id": "A",
          "type_id": 0
        }
      },
      {
        "SpecialToken": {
          "id": "<|eos|>",
          "type_id": 0
        }
      },
      {
        "SpecialToken": {
          "id": "<|bos|>",
          "type_id": 0
        }
      },
      {
        "Sequence": {
          "id": "B",
          "type_id": 0
        }
      },
      {
        "SpecialToken": {
          "id": "<|eos|>",
          "type_id": 0
        }
      }
    ],
    "special_tokens": {
      "<|bos|>": {
        "id": "<|bos|>",
        "ids": [
          2
        ],
        "tokens": [
          "<|bos|>"
        ]
      },
      "<|eos|>": {
        "id": "<|eos|>",
        "ids": [
          3
        ],
        "tokens": [
          "<|eos|>"
        ]
      }
    }
  },
  "decoder": {
    "type": "ByteLevel",
    "add_prefix_space": true,
    "trim_offsets": true,
    "use_regex": true
  },
  "model": {
    "type": "BPE",
    "dropout": null,
    "unk_token": "<|unk|>",
    "continuing_subword_prefix": null,
    "end_of_word_suffix": null,
    "fuse_unk": false,
    "byte_fallback": false,
    "ignore_merges": false,
    "vocab": {
      "<|endoftext|>": 0,
      "<|endofturn|>": 1,
      "<|bos|>": 2,
      "<|eos|>": 3,
      "<|user|>": 4,
      "<|assistant|>": 5,
      "<|system|>": 6,
      "<|pad|>": 7,
      "<|unk|>": 8,
      "!": 9,
      "\"": 10,
      "#": 11,
      "$": 12,
      "%": 13,
      "&": 14,
      "'": 15,
      "(": 16,
      ")": 17,
      "*": 18,
      "+": 19,
      ",": 20,
      "-": 21,
      ".": 22,
      "/": 23,
      "0": 24,
      "1": 25,
      "2": 26,
      "3": 27,
      "4": 28,
      "5": 29,
      "6": 30,
      "7": 31,
      "8": 32,
      "9": 33,
      ":": 34,
      ";": 35,
      "<": 36,
      "=": 37,
      ">": 38,
      "?": 39,
      "@": 40,
      "A": 41,
      "B": 42,
      "C": 43,
      "D": 44,
      "E": 45,
      "F": 46,
      "G": 47,
      "H": 48,
      "I": 49,
      "J": 50,
      "K": 51,
      "L": 52,
      "M": 53,
      "N": 54,
      "O": 55,
      "P": 56,
      "Q": 57,
      "R": 58,
      "S": 59,
      "T": 60,
      "U": 61,
      "V": 62,
      "W": 63,
      "X": 64,
      "Y": 65,
      "Z": 66,
      "[": 67,
      "\\": 68,
      "]": 69,
      "^": 70,
      "_": 71,
      "`": 72,
      "a": 73,
      "b": 74,
      "c": 75,
      "d": 76,
      "e": 77,
      "f": 78,
      "g": 79,
      "h": 80,
      "i": 81,
      "j": 82,
      "k": 83,
      "l": 84,
      "m": 85,
      "n": 86,
      "o": 87,
      "p": 88,
      "q": 89,
      "r": 90,
      "s": 91,
      "t": 92,
      "u": 93,
      "v": 94,
      "w": 95,
      "x": 96,
      "y": 97,
      "z": 98,
      "{": 99,
      "|": 100,
      "}": 101,
      "~": 102,
      "¡": 103,
      "¢": 104,
      "£": 105,
      "¤": 106,
      "¥": 107,
      "¦": 108,
      "§": 109,
      "¨": 110,
      "©": 111,
      "ª": 112,
      "«": 113,
      "¬": 114,
      "®": 115,
      "¯": 116,
      "°": 117,
      "±": 118,
      "²": 119,
      "³": 120,
      "´": 121,
      "µ": 122,
      "¶": 123,
      "·": 124,
      "¸": 125,
      "¹": 126,
      "º": 127,
      "»": 128,
      "¼": 129,
      "½": 130,
      "¾": 131,
      "¿": 132,
      "Â": 133,
      "Ã": 134,
      "Ä": 135,
      "Å": 136,
      "Æ": 137,
      "Ç": 138,
      "È": 139,
      "É": 140,
      "Ê": 141,
      "Ë": 142,
      "Í": 143,
      "Î": 144,
      "Ï": 145,
      "Ð": 146,
      "Ñ": 147,
      "Ò": 148,
      "Ó": 149,
      "Ô": 150,
      "Õ": 151,
      "Ö": 152,
      "×": 153,
      "Ø": 154,
      "Ù": 155,
      "Ú": 156,
      "Û": 157,
      "Ü": 158,
      "Ý": 159,
      "Þ": 160,
      "ß": 161,
      "à": 162,
      "á": 163,
      "â": 164,
      "ã": 165,
      "ä": 166,
      "å": 167,
      "æ": 168,
      "ç": 169,
      "è": 170,
      "é": 171,
      "ê": 172,
      "ï": 173,
      "ð": 174,
      "ĉ": 175,
      "Ċ": 176,
      "č": 177,
      "Ġ": 178,
      "Ģ": 179,
      "ģ": 180,
      "Ĥ": 181,
      "ĥ": 182,
      "Ħ": 183,
      "ħ": 184,
      "Ĩ": 185,
      "ĩ": 186,
      "Ī": 187,
      "ī": 188,
      "Ĭ": 189,
      "ĭ": 190,
      "Į": 191,
      "į": 192,
      "İ": 193,
      "ı": 194,
      "Ĳ": 195,
      "ĳ": 196,
      "Ĵ": 197,
      "ĵ": 198,
      "Ķ": 199,
      "ķ": 200,
      "ĸ": 201,
      "Ĺ": 202,
      "ĺ": 203,
      "Ļ": 204,
      "ļ": 205,
      "Ľ": 206,
      "ľ": 207,
      "Ŀ": 208,
      "ŀ": 209,
      "Ł": 210,
      "ł": 211,
      "Ń": 212,
      "Ġt": 213,
      "Ġa": 214,
      "he": 215,
      "in": 216,
      "er": 217,
      "on": 218,
      "Ġthe": 219,
      "or": 220,
      "nd": 221,
      "re": 222,
      "Ġs": 223,
      "at": 224,
      "Ġo": 225,
      "is": 226,
      "ed": 227,
      "es": 228,
      "an": 229,
      "Ġw": 230,
      "en": 231,
      "al": 232,
      "it": 233,
      "Ġc": 234,
      "ar": 235,
      "Ġof": 236,
      "Ġin": 237,
      "Ġf": 238,
      "Ġand": 239,
      "Ġp": 240,
      "ic": 241,
      "Ġb": 242,
      "as": 243,
      "ing": 244,
      "ion": 245,
      "ro": 246,
      "Ġm": 247,
      "Ġto": 248,
      "le": 249,
      "Ġd": 250,
      "ou": 251,
      "ĠS": 252,
      "ent": 253,
      "Ġh": 254,
      "Ġ1": 255,
      "il": 256,
      "ĠA": 257,
      "ĠT": 258,
      "ĠC": 259,
      "om": 260,
      "ct": 261,
      "st": 262,
      "Ġis": 263,
      "el": 264,
      "am": 265,
      "Ġre": 266,
      "Ġl": 267,
      "ol": 268,
      "et": 269,
      "Ġe": 270,
      "ĠM": 271,
      "Ġn": 272,
      "Ġwas": 273,
      "ĠI": 274,
      "Ġ(": 275,
      "us": 276,
      "ation": 277,
      "ĠB": 278,
      "iv": 279,
      "Ġfor": 280,
      "ad": 281,
      "ur": 282,
      "ĠH": 283,
      "ch": 284,
      "Ġth": 285,
      "id": 286,
      "ly": 287,
      "ce": 288,
      "ĠP": 289,
      "im": 290,
      "Ġ2": 291,
      "ig": 292,
      "Ġ19": 293,
      "Ġas": 294,
      "Ġg": 295,
      "ow": 296,
      "ir": 297,
      "Ġon": 298,
      "ay": 299,
      "ĠThe": 300,
      "ot": 301,
      "ut": 302,
      "ers": 303,
      "Ġst": 304,
      "ra": 305,
      "ist": 306,
      "ĠR": 307,
      "em": 308,
      "Ġbe": 309,
      "ĠL": 310,
      "un": 311,
      "ul": 312,
      "ĠD": 313,
      "ĠW": 314,
      "her": 315,
      "Ġan": 316,
      "ĠF": 317,
      "ith": 318,
      "ter": 319,
      "ĠN": 320,
      "th": 321,
      "Ġby": 322,
      "ĠE": 323,
      "and": 324,
      "ĠG": 325,
      "Ġwith": 326,
      "Ġ20": 327,
      "Ġpro": 328,
      "ver": 329,
      "Ġal": 330,
      "ag": 331,
      "os": 332,
      "est": 333,
      "Ġwh": 334,
      "Ġcon": 335,
      "Ġor": 336,
      "op": 337,
      "um": 338,
      "Ġit": 339,
      "ĠJ": 340,
      "rom": 341,
      "Ġhe": 342,
      "ies": 343,
      "ess": 344,
      "Ġcom": 345,
      "oc": 346,
      "pe": 347,
      "'s": 348,
      "Ġthat": 349,
      "ate": 350,
      "od": 351,
      "if": 352,
      "ity": 353,
      "ber": 354,
      "ac": 355,
      "Ġv": 356,
      "Ġfrom": 357,
      "Ġare": 358,
      "res": 359,
      "ri": 360,
      "ain": 361,
      "Ġde": 362,
      "ĠU": 363,
      "ud": 364,
      "av": 365,
      "art": 366,
      "Ġat": 367,
      "ian": 368,
      "ĠO": 369,
      "ab": 370,
      "ort": 371,
      "Ġse": 372,
      "all": 373,
      "up": 374,
      "ill": 375,
      "ction": 376,
      "nt": 377,
      "ial": 378,
      "ia": 379,
      "Ġ\"": 380,
      "ew": 381,
      "ant": 382,
      "ak": 383,
      "ard": 384,
      "Ġr": 385,
      "ub": 386,
      "ical": 387,
      "qu": 388,
      "ich": 389,
      "ive": 390,
      "ated": 391,
      "ld": 392,
      "The": 393,
      "mer": 394,
      "Ġpl": 395,
      "Ġex": 396,
      "ary": 397,
      "igh": 398,
      "se": 399,
      "Ġy": 400,
      "ĠSt": 401,
      "ap": 402,
      "ĠHe": 403,
      "Ġhis": 404,
      "ment": 405,
      "ip": 406,
      "our": 407,
      "ĠIt": 408,
      "ĠK": 409,
      "âĢ": 410,
      "cl": 411,
      "Ġus": 412,
      "og": 413,
      "ov": 414,
      "ge": 415,
      "Ġk": 416,
      "Ġch": 417,
      "ish": 418,
      "ĠIn": 419,
      "ure": 420,
      "ine": 421,
      "ug": 422,
      "du": 423,
      "ast": 424,
      "ame": 425,
      "und": 426,
      "ell": 427,
      "ong": 428,
      "so": 429,
      "Ġle": 430,
      "Ġ200": 431,
      "ore": 432,
      "ost": 433,
      "ust": 434,
      "Ġwhich": 435,
      "Ġcomp": 436,
      "ther": 437,
      "ire": 438,
      "ĠCh": 439,
      "âĢĵ": 440,
      "own": 441,
      "ork": 442,
      "rit": 443,
      "Ġalso": 444,
      "),": 445,
      "ord": 446,
      "are": 447,
      "ĠUn": 448,
      "ran": 449,
      "Ġsh": 450,
      "ep": 451,
      "Ġcan": 452,
      "pl": 453,
      "ear": 454,
      "erv": 455,
      "ĠV": 456,
      "ight": 457,
      "00": 458,
      "ect": 459,
      "Ġhas": 460,
      "ous": 461,
      "Ġ201": 462,
      "iz": 463,
      "ok": 464,
      "per": 465,
      "port": 466,
      "ry": 467,
      "ue": 468,
      "cc": 469,
      "ount": 470,
      "ican": 471,
      "orn": 472,
      "ide": 473,
      "ign": 474,
      "ff": 475,
      "ome": 476,
      "ions": 477,
      "ie": 478,
      "Ġun": 479,
      "Ġte": 480,
      "age": 481,
      "Ġits": 482,
      "Ġ18": 483,
      "ave": 484,
      "te": 485,
      "ere": 486,
      "ass": 487,
      "Ġsu": 488,
      "Ġro": 489,
      "ations": 490,
      "ates": 491,
      "Ġplay": 492,
      "orm": 493,
      "Ġpart": 494,
      "land": 495,
      "irst": 496,
      "ice": 497,
      "clud": 498,
      "Ġkn": 499,
      "ational": 500,
      "Ġcl": 501,
      "ĠAmer": 502,
      "ater": 503,
      "Ġap": 504,
      "tern": 505,
      "ited": 506,
      "Ġ3": 507,
      ").": 508,
      "ult": 509,
      "ory": 510,
      "Ġcont": 511,
      "Ġtheir": 512,
      "ens": 513,
      "Ġar": 514,
      "ally": 515,
      "ime": 516,
      "Ġinclud": 517,
      "ack": 518,
      "ence": 519,
      "Ġ199": 520,
      "Ġim": 521,
      "Ġnot": 522,
      "Ġwhe": 523,
      "Ġwho": 524,
      "ember": 525,
      "any": 526,
      "out": 527,
      "Ġad": 528,
      "pt": 529,
      "Ġone": 530,
      "Ġwere": 531,
      "erm": 532,
      "ang": 533,
      "ict": 534,
      "Ġfirst": 535,
      "Ġab": 536,
      "ng": 537,
      "ition": 538,
      "Ġother": 539,
      "ark": 540,
      "act": 541,
      "ru": 542,
      "ond": 543,
      "ey": 544,
      "ound": 545,
      "fer": 546,
      "Ġhave": 547,
      "hed": 548,
      "ree": 549,
      "ach": 550,
      "to": 551,
      "ĠTh": 552,
      "ib": 553,
      "ĠY": 554,
      "over": 555,
      "aw": 556,
      "low": 557,
      "ĠAmerican": 558,
      "Ġen": 559,
      "Ġres": 560,
      "fter": 561,
      "ubl": 562,
      "Ġknown": 563,
      "orld": 564,
      "vel": 565,
      "wo": 566,
      "ance": 567,
      "19": 568,
      "ress": 569,
      "Ġher": 570,
      "Ġj": 571,
      "Ġserv": 572,
      "Ġcomm": 573,
      "ph": 574,
      "Ġbut": 575,
      "Ġspe": 576,
      "les": 577,
      "ily": 578,
      "amp": 579,
      "ec": 580,
      "Ġsc": 581,
      "ace": 582,
      "Ġbec": 583,
      "ents": 584,
      "form": 585,
      "ik": 586,
      "uring": 587,
      "ics": 588,
      "Ġwe": 589,
      "we": 590,
      "ces": 591,
      "ely": 592,
      "ugh": 593,
      "able": 594,
      "Ġwork": 595,
      "ĠNew": 596,
      "ile": 597,
      "Ġ198": 598,
      "ĠAl": 599,
      "Ġhad": 600,
      "Ġdes": 601,
      "Ġthis": 602,
      "ook": 603,
      "Ġsp": 604,
      "ased": 605,
      "wn": 606,
      "Ġrec": 607,
      "ors": 608,
      "Ġused": 609,
      "ilm": 610,
      "ons": 611,
      "gh": 612,
      "Ġyou": 613,
      "Ġdis": 614,
      "Ġele": 615,
      "ivers": 616,
      "ob": 617,
      "ick": 618,
      "ĠUnited": 619,
      "Ġper": 620,
      "Ġbeen": 621,
      "Ġund": 622,
      "red": 623,
      "ck": 624,
      "ood": 625,
      "Ġtwo": 626,
      "old": 627,
      "Ġ197": 628,
      "ake": 629,
      "Ġmost": 630,
      "olog": 631,
      "**": 632,
      "ĠĠ": 633,
      "ite": 634,
      "ĠShe": 635,
      "ĠâĢĵ": 636,
      "Ġyear": 637,
      "ase": 638,
      "Ġpol": 639,
      "ward": 640,
      "Ġthey": 641,
      "reat": 642,
      "io": 643,
      "ade": 644,
      "Ġunder": 645,
      "ced": 646,
      "oy": 647,
      "ne": 648,
      "Ġprodu": 649,
      "Ġsy": 650,
      "Ġpr": 651,
      "Ġsuch": 652,
      "als": 653,
      "ould": 654,
      "ĠCom": 655,
      "Ġbet": 656,
      "ĠLe": 657,
      "Ġgro": 658,
      "Ġgen": 659,
      "In": 660,
      "Ġup": 661,
      "ind": 662,
      "ough": 663,
      "Ġne": 664,
      "Ġcons": 665,
      "Ġ4": 666,
      "ĠAr": 667,
      "ĠMar": 668,
      "ular": 669,
      "Ġfilm": 670,
      "hip": 671,
      "ĠAs": 672,
      "ied": 673,
      "Ġform": 674,
      "Ġcol": 675,
      "ts": 676,
      "Ġact": 677,
      "ĠDe": 678,
      "Ġover": 679,
      "ild": 680,
      "gan": 681,
      "ose": 682,
      "ral": 683,
      "Ġloc": 684,
      "ten": 685,
      "cial": 686,
      "Ġtime": 687,
      "way": 688,
      "Ġinto": 689,
      "Ġme": 690,
      "ath": 691,
      "Ġev": 692,
      "Ġpre": 693,
      "Ġ196": 694,
      "one": 695,
      "Ġag": 696,
      "ings": 697,
      "ail": 698,
      "20": 699,
      "oin": 700,
      "Ġall": 701,
      "orth": 702,
      "ram": 703,
      "iss": 704,
      "ious": 705,
      "Ġafter": 706,
      "outh": 707,
      "rib": 708,
      "ans": 709,
      "Ġshe": 710,
      "Ġmore": 711,
      "Ġ5": 712,
      "Ġcent": 713,
      "ĠStates": 714,
      "Ġout": 715,
      "ection": 716,
      "ft": 717,
      "Ġreg": 718,
      "ific": 719,
      "Ġra": 720,
      "ĠEng": 721,
      "rough": 722,
      "Ġso": 723,
      "ative": 724,
      "ĠThey": 725,
      "rans": 726,
      "ween": 727,
      "ool": 728,
      "ĠRe": 729,
      "oth": 730,
      "ision": 731,
      "Ġpop": 732,
      "Ġsub": 733,
      "ball": 734,
      "Ġoff": 735,
      "ident": 736,
      "Ġpubl": 737,
      "stem": 738,
      "born": 739,
      "ince": 740,
      "ock": 741,
      "Ġnew": 742,
      "Ġrel": 743,
      "Ġabout": 744,
      "pro": 745,
      "ren": 746,
      "Ġbetween": 747,
      "Ġman": 748,
      "Ġprov": 749,
      "Ġduring": 750,
      "Ġmus": 751,
      "oh": 752,
      "ished": 753,
      "cted": 754,
      "ities": 755,
      "ccess": 756,
      "ional": 757,
      "Ġfound": 758,
      "velop": 759,
      "ĠCon": 760,
      "ning": 761,
      "ron": 762,
      "ton": 763,
      "arg": 764,
      "iversity": 765,
      "rad": 766,
      "Ġinv": 767,
      "ĠWh": 768,
      "Ġsome": 769,
      "Ġwhen": 770,
      "Ġcount": 771,
      "ism": 772,
      "iet": 773,
      "eries": 774,
      "oot": 775,
      "Ġpe": 776,
      "Ġstud": 777,
      "ual": 778,
      "ĠInd": 779,
      "Ġph": 780,
      "Ġincluding": 781,
      "Ġsec": 782,
      "Ġtra": 783,
      "overn": 784,
      "aus": 785,
      "end": 786,
      "Ġear": 787,
      "Ġco": 788,
      "pr": 789,
      "ating": 790,
      "Ġ195": 791,
      "ĠCan": 792,
      "ted": 793,
      "ered": 794,
      "tle": 795,
      "eral": 796,
      "Ġsup": 797,
      "Ġnum": 798,
      "Ġ194": 799,
      "Ġfe": 800,
      "ĠThis": 801,
      "Ġdist": 802,
      "eb": 803,
      "eld": 804,
      "very": 805,
      "man": 806,
      "Ġthrough": 807,
      "Ġthem": 808,
      "ix": 809,
      "ank": 810,
      "che": 811,
      "ve": 812,
      "resent": 813,
      "aj": 814,
      "inal": 815,
      "Ġ6": 816,
      "ĠPro": 817,
      "ames": 818,
      "cy": 819,
      "Ġsm": 820,
      "ury": 821,
      "Ġdif": 822,
      "Ġdo": 823,
      "Ġsa": 824,
      "Âł": 825,
      "Ġinter": 826,
      "ject": 827,
      "ah": 828,
      "Ġqu": 829,
      "ĠAn": 830,
      "Ġind": 831,
      "ober": 832,
      "Ġtrans": 833,
      "ars": 834,
      "Ġname": 835,
      "Ġwrit": 836,
      "ures": 837,
      "ins": 838,
      "round": 839,
      "Ġsystem": 840,
      "Ġspec": 841,
      "ollow": 842,
      "ys": 843,
      "Ġcre": 844,
      "Ġuse": 845,
      "urn": 846,
      "Ġdevelop": 847,
      "Ġop": 848,
      "ines": 849,
      "ĠSc": 850,
      "Ġwhere": 851,
      "ĠBrit": 852,
      "chool": 853,
      "Ġmany": 854,
      "az": 855,
      "Ġyears": 856,
      "amed": 857,
      "Ġwill": 858,
      "Ġvar": 859,
      "Ġpolit": 860,
      "Ġhel": 861,
      "Ġbu": 862,
      "my": 863,
      "##": 864,
      "tain": 865,
      "eth": 866,
      "ement": 867,
      "Ġty": 868,
      "Ġart": 869,
      "ric": 870,
      "Ġass": 871,
      "ĠWorld": 872,
      "Ġam": 873,
      "Ġfam": 874,
      "Ġ17": 875,
      "air": 876,
      "Ġwell": 877,
      "ved": 878,
      "Ġhist": 879,
      "ract": 880,
      "Ġmay": 881,
      "iver": 882,
      "iam": 883,
      "Ġthere": 884,
      "ient": 885,
      "ll": 886,
      "ier": 887,
      "til": 888,
      "oss": 889,
      "its": 890,
      "Ġac": 891,
      ".\"": 892,
      "Ġonly": 893,
      "ĠUniversity": 894,
      "Ġyour": 895,
      "Ġformer": 896,
      "imes": 897,
      "Ġed": 898,
      "ĠSh": 899,
      "ople": 900,
      "Ġ7": 901,
      "Ġmain": 902,
      "|-": 903,
      "Ġbecame": 904,
      "Ġcall": 905,
      "ern": 906,
      "ĠCol": 907,
      "Ġseries": 908,
      "emb": 909,
      "ise": 910,
      "Ġmed": 911,
      "uro": 912,
      "ful": 913,
      "Ġrele": 914,
      "ield": 915,
      "Ġthan": 916,
      "Ġmod": 917,
      "Ġplayed": 918,
      "uc": 919,
      "Ġthree": 920,
      "Ġhelp": 921,
      "lish": 922,
      "Ġfl": 923,
      "Ġdesign": 924,
      "Ġret": 925,
      "ature": 926,
      "Ġrem": 927,
      "une": 928,
      "Ġmade": 929,
      "Ġday": 930,
      "inist": 931,
      "ĠWar": 932,
      "Ġoper": 933,
      "Ġlead": 934,
      "Ġsing": 935,
      "fore": 936,
      "ĠHow": 937,
      "ike": 938,
      "Ġworld": 939,
      "Ġdiffer": 940,
      "Ġdec": 941,
      "fess": 942,
      "Ġuntil": 943,
      "Ġdire": 944,
      "ower": 945,
      "ann": 946,
      "ution": 947,
      "ife": 948,
      "Ġorig": 949,
      "Ġfollow": 950,
      "\",": 951,
      "ouse": 952,
      "ĠIs": 953,
      "ĠAust": 954,
      "ural": 955,
      "ex": 956,
      "ized": 957,
      "ohn": 958,
      "Ġmov": 959,
      "Ġrep": 960,
      "ology": 961,
      "Ġsever": 962,
      "ĠNational": 963,
      "ices": 964,
      "ept": 965,
      "Ġhim": 966,
      "Ġatt": 967,
      "Ġgroup": 968,
      "Ġcare": 969,
      "Ġbl": 970,
      "Ġmusic": 971,
      "ived": 972,
      "hen": 973,
      "ĠCanad": 974,
      "cess": 975,
      "Ġ8": 976,
      "cept": 977,
      "con": 978,
      "ros": 979,
      "Ġhow": 980,
      "ically": 981,
      "ale": 982,
      "Ġ193": 983,
      "esson": 984,
      "Ġchar": 985,
      "\".": 986,
      "Ġend": 987,
      "Ġlater": 988,
      "Ġbeing": 989,
      "ash": 990,
      "Ġinc": 991,
      "ists": 992,
      "Ġteam": 993,
      "ĠZ": 994,
      "Ġdef": 995,
      "Ġterm": 996,
      "arl": 997,
      "Ġsur": 998,
      "Ġem": 999,
      "ird": 1000,
      "ootball": 1001,
      "arn": 1002,
      "ax": 1003,
      "Ġgovern": 1004,
      "raph": 1005,
      "oun": 1006,
      "anu": 1007,
      "stand": 1008,
      "Ġown": 1009,
      "erson": 1010,
      "son": 1011,
      "Ġeff": 1012,
      "ĠBritish": 1013,
      "uss": 1014,
      "Ġstate": 1015,
      "Ġimport": 1016,
      "Ġacc": 1017,
      "ternational": 1018,
      "ctions": 1019,
      "Ġset": 1020,
      "Ġboth": 1021,
      "Ġaut": 1022,
      "ĠMay": 1023,
      "ments": 1024,
      "Ġhigh": 1025,
      "ley": 1026,
      "enn": 1027,
      "ually": 1028,
      "chn": 1029,
      "Ġorgan": 1030,
      "ajor": 1031,
      "pos": 1032,
      "Ġent": 1033,
      "Ġseveral": 1034,
      "ĠCl": 1035,
      "ĠComm": 1036,
      "ty": 1037,
      "ting": 1038,
      "Ġappe": 1039,
      "Ġsecond": 1040,
      "Ġcalled": 1041,
      "Ġmon": 1042,
      "lev": 1043,
      "stit": 1044,
      "Ġbro": 1045,
      "Ġserved": 1046,
      "ague": 1047,
      "ility": 1048,
      "ives": 1049,
      "ĠCount": 1050,
      "Ġsign": 1051,
      "Ġrecord": 1052,
      "rict": 1053,
      "elf": 1054,
      "els": 1055,
      "aking": 1056,
      "Ġthen": 1057,
      "ctor": 1058,
      "ired": 1059,
      "Ġnamed": 1060,
      "Ġnumber": 1061,
      "vent": 1062,
      "Ġcur": 1063,
      "ulation": 1064,
      "ina": 1065,
      "fl": 1066,
      "Ġpeople": 1067,
      "Ġagain": 1068,
      "ever": 1069,
      "Ġfour": 1070,
      "arch": 1071,
      "ĠSp": 1072,
      "Ġest": 1073,
      "angu": 1074,
      "anuary": 1075,
      "Ġcap": 1076,
      "Ġlit": 1077,
      "ene": 1078,
      "rodu": 1079,
      "ĠEuro": 1080,
      "Ġlong": 1081,
      "Ġlocated": 1082,
      "ĠYork": 1083,
      "Ġprog": 1084,
      "Ġprofess": 1085,
      "Ġ16": 1086,
      "ugust": 1087,
      "Ġsaid": 1088,
      "rent": 1089,
      "ience": 1090,
      "Ġ10": 1091,
      "ink": 1092,
      "Ġgo": 1093,
      "eng": 1094,
      "Section": 1095,
      "ues": 1096,
      "ĠQ": 1097,
      "ĠEnglish": 1098,
      "Ġmember": 1099,
      "ctober": 1100,
      "Ġbest": 1101,
      "Ġdifferent": 1102,
      "Ġadd": 1103,
      "iew": 1104,
      "ather": 1105,
      "Ġwhile": 1106,
      "ĠFran": 1107,
      "Ġob": 1108,
      "ĠGerm": 1109,
      "eptember": 1110,
      "Ġ9": 1111,
      "ĠFor": 1112,
      "Ġ15": 1113,
      "Ġcommon": 1114,
      "Ġbefore": 1115,
      "mber": 1116,
      "ĠAustral": 1117,
      "Ġwon": 1118,
      "ica": 1119,
      "uch": 1120,
      "ause": 1121,
      "Ġcity": 1122,
      "ĠNorth": 1123,
      "ages": 1124,
      "ĠNov": 1125,
      "ĠSouth": 1126,
      "ĠJu": 1127,
      "Ġsk": 1128,
      "Ġwould": 1129,
      "ange": 1130,
      "200": 1131,
      "Ġarea": 1132,
      "Ġany": 1133,
      "ared": 1134,
      "ute": 1135,
      "ĠAd": 1136,
      "ĠPh": 1137,
      "led": 1138,
      "alth": 1139,
      "ox": 1140,
      "Ġoften": 1141,
      "Ġcommun": 1142,
      "ason": 1143,
      "oci": 1144,
      "hem": 1145,
      "ium": 1146,
      "cember": 1147,
      "ĠMarch": 1148,
      "Ġfamily": 1149,
      "Ġint": 1150,
      "Ġbook": 1151,
      "Ġthese": 1152,
      "ĠJohn": 1153,
      "pril": 1154,
      "ential": 1155,
      "ple": 1156,
      "cer": 1157,
      "iness": 1158,
      "Ġsmall": 1159,
      "Ġcar": 1160,
      "ĠJanuary": 1161,
      "ible": 1162,
      "rand": 1163,
      "ven": 1164,
      "ĠEurope": 1165,
      "ital": 1166,
      "levision": 1167,
      "Ġprocess": 1168,
      "ae": 1169,
      "pend": 1170,
      "ĠEx": 1171,
      "rop": 1172,
      "Ġinclude": 1173,
      "iqu": 1174,
      "erg": 1175,
      "Ġlarg": 1176,
      "Ġbus": 1177,
      "rid": 1178,
      "Ġsim": 1179,
      "Ġearly": 1180,
      "ĠAugust": 1181,
      "por": 1182,
      "com": 1183,
      "Ġsuccess": 1184,
      "ĠOctober": 1185,
      "Ġpres": 1186,
      "mp": 1187,
      "Ġsince": 1188,
      "Ġcharact": 1189,
      "Ġconsid": 1190,
      "ĠPl": 1191,
      "ĠSeptember": 1192,
      "18": 1193,
      "Ġbased": 1194,
      "Ġshow": 1195,
      "clus": 1196,
      "ĠCounty": 1197,
      "Ġair": 1198,
      "sh": 1199,
      "ants": 1200,
      "ĠJune": 1201,
      "rist": 1202,
      "Ġpublic": 1203,
      "Ġsoc": 1204,
      "app": 1205,
      "Ġperform": 1206,
      "ĠBy": 1207,
      "Ġback": 1208,
      "Ġband": 1209,
      "ebru": 1210,
      "ebruary": 1211,
      "ĠAt": 1212,
      "Ġfin": 1213,
      "bum": 1214,
      "hes": 1215,
      "ĠJuly": 1216,
      "der": 1217,
      "Ġapp": 1218,
      "Ġmajor": 1219,
      "ĠDecember": 1220,
      "hor": 1221,
      "ata": 1222,
      "Ġcolle": 1223,
      "ĠKing": 1224,
      "ĠApril": 1225,
      "ĠBl": 1226,
      "Ġpartic": 1227,
      "ĠNovember": 1228,
      "Ġstation": 1229,
      "Ġaround": 1230,
      "Ġinform": 1231,
      "Ġprogram": 1232,
      "ets": 1233,
      "Ġlangu": 1234,
      "Ġmat": 1235,
      "rat": 1236,
      "Ġclass": 1237,
      "Ġ192": 1238,
      "Ġno": 1239,
      "Ġrun": 1240,
      "Ġfun": 1241,
      "Ġ|": 1242,
      "Ġmake": 1243,
      "Ġcomple": 1244,
      "arm": 1245,
      "ĠRep": 1246,
      "ĠOr": 1247,
      "Ġ,": 1248,
      "Ġdr": 1249,
      "ĠHis": 1250,
      "ee": 1251,
      "ull": 1252,
      "get": 1253,
      "Ġsong": 1254,
      "Ġcompany": 1255,
      "000": 1256,
      "Ġinst": 1257,
      "inn": 1258,
      "Ġexp": 1259,
      "Ġtit": 1260,
      "ays": 1261,
      "Ġcr": 1262,
      "Ġstr": 1263,
      "ross": 1264,
      "ician": 1265,
      "Ġmet": 1266,
      "Ġalbum": 1267,
      "ograph": 1268,
      "Ġvery": 1269,
      "Ġreleased": 1270,
      "the": 1271,
      "Ġcentury": 1272,
      "Ġtelevision": 1273,
      "iety": 1274,
      "ĠPart": 1275,
      "other": 1276,
      "omet": 1277,
      "estern": 1278,
      "Ġspecies": 1279,
      "Ġprom": 1280,
      "ret": 1281,
      "ĠFebruary": 1282,
      "Ġtyp": 1283,
      "10": 1284,
      "Ġgovernment": 1285,
      "Ġtechn": 1286,
      "Ġcareer": 1287,
      "ization": 1288,
      "Ġgame": 1289,
      "Ġmark": 1290,
      "Ġimportant": 1291,
      "Ġdisc": 1292,
      "ality": 1293,
      "Ġocc": 1294,
      "Ġschool": 1295,
      "Ġ12": 1296,
      "Ġfootball": 1297,
      "by": 1298,
      "Ġ-": 1299,
      "xt": 1300,
      "oman": 1301,
      "tend": 1302,
      "Ġnear": 1303,
      "work": 1304,
      "Ġstart": 1305,
      "ĠPr": 1306,
      "Ġinvol": 1307,
      "inc": 1308,
      "Ġcontin": 1309,
      "ains": 1310,
      "apan": 1311,
      "Ġsupport": 1312,
      "Ġperson": 1313,
      "side": 1314,
      "ble": 1315,
      "Ġgener": 1316,
      "Ġeach": 1317,
      "ĠCent": 1318,
      "au": 1319,
      "Ġexpl": 1320,
      "Ġneed": 1321,
      "ivid": 1322,
      "Ġref": 1323,
      "ĠĠĠĠ": 1324,
      "Ġlaw": 1325,
      "reen": 1326,
      "ĠAward": 1327,
      "Ġ14": 1328,
      "ĠLeague": 1329,
      "Ġcurrent": 1330,
      "standing": 1331,
      "ĠTe": 1332,
      "isc": 1333,
      "ĠCal": 1334,
      "Ġrece": 1335,
      "urch": 1336,
      "Ġpopulation": 1337,
      "ĠCity": 1338,
      "ĠMan": 1339,
      "ively": 1340,
      "ĠBe": 1341,
      "ai": 1342,
      "Ġext": 1343,
      "ĠGe": 1344,
      "clusion": 1345,
      "Ġval": 1346,
      "ĠAss": 1347,
      "Ġtr": 1348,
      "ample": 1349,
      "ĠSe": 1350,
      "Ġ.": 1351,
      "Ġgu": 1352,
      "ke": 1353,
      "ony": 1354,
      "ined": 1355,
      "illion": 1356,
      "yn": 1357,
      "Ġoffic": 1358,
      "Ġeffect": 1359,
      "ĠJapan": 1360,
      "ĠII": 1361,
      "Ġhead": 1362,
      "Ġtrad": 1363,
      "ont": 1364,
      "ator": 1365,
      "Ġopen": 1366,
      "Ġrole": 1367,
      "Ġbusiness": 1368,
      "ission": 1369,
      "omin": 1370,
      "Ġdesc": 1371,
      "Ġhome": 1372,
      "Ġrepresent": 1373,
      "rench": 1374,
      "Ġeng": 1375,
      "ask": 1376,
      "Ġrefer": 1377,
      "Ġmin": 1378,
      "ves": 1379,
      "Ġprovid": 1380,
      "Ġhistory": 1381,
      "Ġbel": 1382,
      "ĠAf": 1383,
      "arge": 1384,
      "conom": 1385,
      "ruct": 1386,
      "yl": 1387,
      "ese": 1388,
      "Ġbuild": 1389,
      "Ġdet": 1390,
      "Ġsame": 1391,
      "rie": 1392,
      "iving": 1393,
      "Ġtop": 1394,
      "Ġ13": 1395,
      "ze": 1396,
      "iod": 1397,
      "Ġcontro": 1398,
      "ĠWhat": 1399,
      "ĠEngland": 1400,
      "opic": 1401,
      "aly": 1402,
      "itions": 1403,
      "ries": 1404,
      "Ġright": 1405,
      "Ġnational": 1406,
      "embers": 1407,
      "Ġprofessional": 1408,
      "ior": 1409,
      "Ġborn": 1410,
      "Ġ11": 1411,
      "riend": 1412,
      "Ġmanag": 1413,
      "ling": 1414,
      "Ġ&": 1415,
      "ott": 1416,
      "Ġindu": 1417,
      "ences": 1418,
      "Ġmil": 1419,
      "oard": 1420,
      "ole": 1421,
      "Ġline": 1422,
      "Ġcult": 1423,
      "ring": 1424,
      "Ġpopular": 1425,
      "Ġlearn": 1426,
      "Ġalong": 1427,
      "Ġpublished": 1428,
      "ised": 1429,
      "ĠPol": 1430,
      "oint": 1431,
      "Ġcharacter": 1432,
      "21": 1433,
      "ĠEd": 1434,
      "ĠMus": 1435,
      "pect": 1436,
      "Ġfollowing": 1437,
      "ĠCar": 1438,
      "Ġnorth": 1439,
      "Ġwithin": 1440,
      "Ġcould": 1441,
      "Ġhum": 1442,
      "ency": 1443,
      "Ġresult": 1444,
      "eter": 1445,
      "ĠAll": 1446,
      "He": 1447,
      "Ġpos": 1448,
      "ĠFrench": 1449,
      "ĠWest": 1450,
      "Ġvarious": 1451,
      "Ġleg": 1452,
      "Ġwater": 1453,
      "Ġequ": 1454,
      "Ġusing": 1455,
      "Ġland": 1456,
      "ĠWe": 1457,
      "Ġrad": 1458,
      "Ġlesson": 1459,
      "Ġrev": 1460,
      "Ġpower": 1461,
      "roduction": 1462,
      "line": 1463,
      "ize": 1464,
      "sp": 1465,
      "let": 1466,
      "Ġelect": 1467,
      "Ġappro": 1468,
      "ove": 1469,
      "ster": 1470,
      "Ġsol": 1471,
      "Ġtown": 1472,
      "alk": 1473,
      "Ġexper": 1474,
      "though": 1475,
      "aving": 1476,
      "ĠCanada": 1477,
      "Ġagainst": 1478,
      "ane": 1479,
      "ĠEn": 1480,
      "Ġappl": 1481,
      "ampions": 1482,
      "Ġseason": 1483,
      "Ġproduct": 1484,
      "ateg": 1485,
      "Ġmembers": 1486,
      "Ġlife": 1487,
      "Ġwant": 1488,
      "ĠBro": 1489,
      "Ġlike": 1490,
      "Ġlarge": 1491,
      "ried": 1492,
      "Ġ2010": 1493,
      "Ġorigin": 1494,
      "ĠGu": 1495,
      "ĠParty": 1496,
      "Ġsouth": 1497,
      "ats": 1498,
      "ody": 1499,
      "ently": 1500,
      "On": 1501,
      "Ġbecause": 1502,
      "Ġdid": 1503,
      "raft": 1504,
      "ified": 1505,
      "ales": 1506,
      "ĠChrist": 1507,
      "ris": 1508,
      "yle": 1509,
      "cent": 1510,
      "Ġauthor": 1511,
      "ham": 1512,
      "Ġcompet": 1513,
      "ĠOn": 1514,
      "Ġnow": 1515,
      "day": 1516,
      "ering": 1517,
      "ford": 1518,
      "Ġmom": 1519,
      "Ġallow": 1520,
      "Ġpass": 1521,
      "Ġnov": 1522,
      "Ġcrit": 1523,
      "Ġdeath": 1524,
      "Topic": 1525,
      "ĠGerman": 1526,
      "ilt": 1527,
      "ek": 1528,
      "Ġestab": 1529,
      "ĠState": 1530,
      "Ġhistor": 1531,
      "199": 1532,
      "Ġav": 1533,
      "Ġpar": 1534,
      "etwork": 1535,
      "Ġperiod": 1536,
      "Ġpolitical": 1537,
      "dom": 1538,
      "Ġsingle": 1539,
      "Ġinformation": 1540,
      "ĠUS": 1541,
      "ately": 1542,
      "Ġpo": 1543,
      "Ġpract": 1544,
      "illiam": 1545,
      "cing": 1546,
      "Ġchild": 1547,
      "Ġla": 1548,
      "Ġpat": 1549,
      "row": 1550,
      "Ġaff": 1551,
      "ĠAfter": 1552,
      "Ġhapp": 1553,
      "ondon": 1554,
      "Ġ2005": 1555,
      "ĠBar": 1556,
      "Ġheld": 1557,
      "iber": 1558,
      "Ġfriend": 1559,
      "ases": 1560,
      "ĠSection": 1561,
      "Ġ190": 1562,
      "Ġlast": 1563,
      "ĠSw": 1564,
      "astern": 1565,
      "hern": 1566,
      "Ġfield": 1567,
      "ĠFl": 1568,
      "Ġwhat": 1569,
      "Ġ2006": 1570,
      "iron": 1571,
      "Ġstand": 1572,
      "rew": 1573,
      "Ġport": 1574,
      "ĠSchool": 1575,
      "ner": 1576,
      ".,": 1577,
      "ĠSy": 1578,
      "Ġshort": 1579,
      "Ġinfl": 1580,
      "Ġprim": 1581,
      "iction": 1582,
      "22": 1583,
      "urs": 1584,
      "Ġold": 1585,
      "aster": 1586,
      "ĠHer": 1587,
      "itary": 1588,
      "Ġrequ": 1589,
      "Ġpolitician": 1590,
      "Ġ2004": 1591,
      "ills": 1592,
      "epend": 1593,
      "Ġmag": 1594,
      "akes": 1595,
      "Ġplace": 1596,
      "ĠOne": 1597,
      "bs": 1598,
      "Ġexample": 1599,
      "ĠRiver": 1600,
      "orthern": 1601,
      "Ġadv": 1602,
      "Ġnon": 1603,
      "Ġcountry": 1604,
      "ĠGl": 1605,
      "Ġlanguage": 1606,
      "Ġeconom": 1607,
      "Ġlook": 1608,
      "ntroduction": 1609,
      "lect": 1610,
      "ĠComp": 1611,
      "ief": 1612,
      "omen": 1613,
      "Ġplayer": 1614,
      "ille": 1615,
      "ĠLondon": 1616,
      "ped": 1617,
      "Ġlittle": 1618,
      "Ġthough": 1619,
      "Ġ191": 1620,
      "ness": 1621,
      "Ġrock": 1622,
      "ians": 1623,
      "Ġspecial": 1624,
      "ĠHouse": 1625,
      "An": 1626,
      "oph": 1627,
      "Ġconsidered": 1628,
      "Ġconst": 1629,
      "Ġcor": 1630,
      "gin": 1631,
      "ĠAir": 1632,
      "Ġann": 1633,
      "ival": 1634,
      "ampionship": 1635,
      "ĠPark": 1636,
      "aterial": 1637,
      "ĠYou": 1638,
      "Ġ()": 1639,
      "Ġif": 1640,
      "Ġlargest": 1641,
      "ories": 1642,
      "ung": 1643,
      "Ġlist": 1644,
      "ribut": 1645,
      "ode": 1646,
      "ĠLily": 1647,
      "Ġbegan": 1648,
      "Ġdown": 1649,
      "inister": 1650,
      "ĠThese": 1651,
      "adem": 1652,
      "Ġcompos": 1653,
      "Ġvers": 1654,
      "Ġ25": 1655,
      "Ġdescrib": 1656,
      "ued": 1657,
      "Ġwritten": 1658,
      "Ġ2000": 1659,
      "ches": 1660,
      "Ġamong": 1661,
      "Ġstar": 1662,
      "ms": 1663,
      "ublic": 1664,
      "Ġ189": 1665,
      "Ġincre": 1666,
      ":**": 1667,
      "lands": 1668,
      "Ġmar": 1669,
      "umb": 1670,
      "rem": 1671,
      "Ġaward": 1672,
      "Ġmult": 1673,
      "aced": 1674,
      "Ġ(;": 1675,
      "sc": 1676,
      "Ġinternational": 1677,
      "Ġresp": 1678,
      "Ġevent": 1679,
      "Ġsaw": 1680,
      "Ġident": 1681,
      "Ġ'": 1682,
      "ĠHar": 1683,
      "Ġdep": 1684,
      "thern": 1685,
      "Ġclub": 1686,
      "ourn": 1687,
      "ivil": 1688,
      "Ġbig": 1689,
      "itional": 1690,
      "ĠAmerica": 1691,
      "Ġproper": 1692,
      "Ġrese": 1693,
      "avy": 1694,
      "ĠAm": 1695,
      "âĢĶ": 1696,
      "Ġcreated": 1697,
      "par": 1698,
      "ĠSec": 1699,
      "Ġgl": 1700,
      "Ġhealth": 1701,
      "Ġsocial": 1702,
      "ords": 1703,
      "Ġvis": 1704,
      "ental": 1705,
      "'t": 1706,
      "outhern": 1707,
      "ĠInternational": 1708,
      "tt": 1709,
      "ĠGeor": 1710,
      "amb": 1711,
      "idd": 1712,
      "Ġdevelopment": 1713,
      "attle": 1714,
      "Ġwin": 1715,
      "Ġupon": 1716,
      "Ġtype": 1717,
      "Ġwar": 1718,
      "Ġsl": 1719,
      "Th": 1720,
      "ication": 1721,
      "nder": 1722,
      "Ġeduc": 1723,
      "Ġprot": 1724,
      "Ġindust": 1725,
      "Ġ30": 1726,
      "Ġindivid": 1727,
      "ained": 1728,
      "ĠSoc": 1729,
      "Ġpresent": 1730,
      "Ġ2011": 1731,
      "ĠMed": 1732,
      "ration": 1733,
      "Ġ2007": 1734,
      "ĠX": 1735,
      "Ġproduced": 1736,
      "Ġoriginal": 1737,
      "Ġsix": 1738,
      "Ġfive": 1739,
      "Ġhig": 1740,
      "ples": 1741,
      "Ġtitle": 1742,
      "ĠCo": 1743,
      "Ġ2020": 1744,
      "Ġdue": 1745,
      "ĠGen": 1746,
      "Ġdata": 1747,
      "Ġtook": 1748,
      "Ġhand": 1749,
      "Ġour": 1750,
      "St": 1751,
      "Ġgeneral": 1752,
      "Ġservice": 1753,
      "Ġrest": 1754,
      "ps": 1755,
      "Ġthird": 1756,
      "Ġimpro": 1757,
      "Ġ21": 1758,
      "Ġess": 1759,
      "Ġactiv": 1760,
      "Ġelection": 1761,
      "ĠRuss": 1762,
      "ances": 1763,
      "ĠIndian": 1764,
      "vers": 1765,
      "ĠHowever": 1766,
      "ĠSup": 1767,
      "uck": 1768,
      "Ġdistrict": 1769,
      "iforn": 1770,
      "Ġwent": 1771,
      "ĠAng": 1772,
      "Ġbas": 1773,
      "ĠPres": 1774,
      "na": 1775,
      "Ġinflu": 1776,
      "Ġimp": 1777,
      "iven": 1778,
      "Ġstat": 1779,
      "Ġmaterial": 1780,
      "ĠCanadian": 1781,
      "ometimes": 1782,
      "irl": 1783,
      "Ġled": 1784,
      "ports": 1785,
      "Ġappear": 1786,
      "Ġlate": 1787,
      "Ġphys": 1788,
      "Ġdeb": 1789,
      "Ġmodern": 1790,
      "Ġanim": 1791,
      "Ġcreate": 1792,
      "ĠAp": 1793,
      "ones": 1794,
      "ifornia": 1795,
      "Ġgreat": 1796,
      "Ġsit": 1797,
      "Ġusually": 1798,
      "Ġreceived": 1799,
      "oon": 1800,
      "Ġtoget": 1801,
      "Ġmuch": 1802,
      "Ġtogether": 1803,
      "olution": 1804,
      "Ġcer": 1805,
      "Ġjust": 1806,
      "urg": 1807,
      "ogn": 1808,
      "ications": 1809,
      "Ġ||": 1810,
      "ify": 1811,
      "for": 1812,
      "ourt": 1813,
      "ĠEast": 1814,
      "ilar": 1815,
      "ially": 1816,
      "ĠHigh": 1817,
      "Ġ2008": 1818,
      "ridge": 1819,
      "ĠEuropean": 1820,
      "Ġpost": 1821,
      "abor": 1822,
      "viron": 1823,
      "ological": 1824,
      "ĠCalifornia": 1825,
      "ington": 1826,
      "chie": 1827,
      "Ġwid": 1828,
      "Ġreal": 1829,
      "att": 1830,
      "aim": 1831,
      "Ġlevel": 1832,
      "ote": 1833,
      "ored": 1834,
      "aint": 1835,
      "ĠRes": 1836,
      "Ġregion": 1837,
      "Ġtimes": 1838,
      "Ġ24": 1839,
      "ĠColle": 1840,
      "ining": 1841,
      "Ġfre": 1842,
      "Ġpark": 1843,
      "Ġbre": 1844,
      "ript": 1845,
      "ler": 1846,
      "rum": 1847,
      "arliam": 1848,
      "Ġservices": 1849,
      "right": 1850,
      "Ġlocal": 1851,
      "Ġmaking": 1852,
      "Ġevery": 1853,
      "ĠPe": 1854,
      "ĠAnd": 1855,
      "ensus": 1856,
      "Ġworks": 1857,
      "BC": 1858,
      "ged": 1859,
      "ĠĊ": 1860,
      "ĠAustralia": 1861,
      "emoc": 1862,
      "arliament": 1863,
      "Ġ2003": 1864,
      "Ġassoci": 1865,
      "ĠIts": 1866,
      "vious": 1867,
      "Ġarch": 1868,
      "Ġadm": 1869,
      "ĠPhil": 1870,
      "ĠWilliam": 1871,
      "ense": 1872,
      "Ġfeat": 1873,
      "Ġmillion": 1874,
      "Ġcamp": 1875,
      "Ġlight": 1876,
      "cast": 1877,
      "ĠAustralian": 1878,
      "Ġstruct": 1879,
      "ĠMc": 1880,
      "ĠPar": 1881,
      "sw": 1882,
      "Ġclos": 1883,
      "ware": 1884,
      "Ġfact": 1885,
      "15": 1886,
      "aul": 1887,
      "lished": 1888,
      "Ġparticular": 1889,
      "atural": 1890,
      "Ġ1990": 1891,
      "rap": 1892,
      "Ġcomb": 1893,
      "ĠHist": 1894,
      "ique": 1895,
      "Ġfounded": 1896,
      "irc": 1897,
      "Ġ2009": 1898,
      "Ġdied": 1899,
      "ino": 1900,
      "Ġcomput": 1901,
      "oll": 1902,
      "ĠEl": 1903,
      "amples": 1904,
      "Ġflow": 1905,
      "Ġiss": 1906,
      "Ġgood": 1907,
      "Ġmarket": 1908,
      "cil": 1909,
      "ĠReg": 1910,
      "Ġgrow": 1911,
      "17": 1912,
      "elt": 1913,
      "Lesson": 1914,
      "Ġparty": 1915,
      "augh": 1916,
      "ĠAb": 1917,
      "Ġ2012": 1918,
      "ius": 1919,
      "Ġrepl": 1920,
      "Ġthose": 1921,
      "Ġothers": 1922,
      "med": 1923,
      "Ġbeh": 1924,
      "Ġant": 1925,
      "Ġ188": 1926,
      "ape": 1927,
      "Ġson": 1928,
      "ests": 1929,
      "ĠCor": 1930,
      "int": 1931,
      "aut": 1932,
      "Ġbuilt": 1933,
      "Ġcover": 1934,
      "af": 1935,
      "Ġread": 1936,
      "Ġresearch": 1937,
      "reek": 1938,
      "Ġgames": 1939,
      "Ġvol": 1940,
      "Ġ2001": 1941,
      "Ġes": 1942,
      "ĠKingdom": 1943,
      "ergy": 1944,
      "ĠIm": 1945,
      "Ġbecome": 1946,
      "Ch": 1947,
      "Ġtw": 1948,
      "ray": 1949,
      "Ġsw": 1950,
      "Ġ2002": 1951,
      "reet": 1952,
      "Ġdev": 1953,
      "ording": 1954,
      "Ġchang": 1955,
      "Ġreturn": 1956,
      "ĠTim": 1957,
      "ele": 1958,
      "uk": 1959,
      "12": 1960,
      "Ġ23": 1961,
      "Ġpresident": 1962,
      "Ġbroad": 1963,
      "Ġaccess": 1964,
      "Ġredu": 1965,
      "Ġplan": 1966,
      "lymp": 1967,
      "ivision": 1968,
      "Ġnovel": 1969,
      "Ġjoin": 1970,
      "16": 1971,
      "Ġstill": 1972,
      "Ġproject": 1973,
      "Ġstory": 1974,
      "vironment": 1975,
      "Ġnetwork": 1976,
      "ara": 1977,
      "Ġdeveloped": 1978,
      "Ġsour": 1979,
      "itive": 1980,
      "ured": 1981,
      "Ġshould": 1982,
      "Ġway": 1983,
      "Ġbody": 1984,
      "ery": 1985,
      "Ġhuman": 1986,
      "ĠRoman": 1987,
      "Ġincluded": 1988,
      "Ġ1980": 1989,
      "be": 1990,
      "rest": 1991,
      "Ġachie": 1992,
      "Ġcreat": 1993,
      "Ġmilitary": 1994,
      "ination": 1995,
      "read": 1996,
      "Ġide": 1997,
      "ĠOlymp": 1998,
      "Ġfind": 1999,
      "ĠAc": 2000,
      "ald": 2001,
      "Ġ22": 2002,
      "ison": 2003,
      "ĠEm": 2004,
      "oad": 2005,
      "of": 2006,
      "Ġplaying": 2007,
      "Ġsimilar": 2008,
      "Ġleft": 2009,
      "Ġessential": 2010,
      "Ġhy": 2011,
      "ethod": 2012,
      "ched": 2013,
      "ios": 2014,
      "ĠRec": 2015,
      "It": 2016,
      "ards": 2017,
      "Ġhaving": 2018,
      "oyal": 2019,
      "ĠIndia": 2020,
      "ploy": 2021,
      "Ġ26": 2022,
      "Ġhappy": 2023,
      "Ġ27": 2024,
      "ana": 2025,
      "ways": 2026,
      "Ġtake": 2027,
      "Ġdoes": 2028,
      "Ġcontrol": 2029,
      "Ġsold": 2030,
      "Ġer": 2031,
      "50": 2032,
      "ĠSan": 2033,
      "Ġsometimes": 2034,
      "alt": 2035,
      "Ġindepend": 2036,
      "Ġincludes": 2037,
      "Ġter": 2038,
      "Ġeven": 2039,
      "ĠNe": 2040,
      "Ġrail": 2041,
      "ĠMon": 2042,
      "ĠThere": 2043,
      "198": 2044,
      "Con": 2045,
      "Ġtem": 2046,
      "Ġcounty": 2047,
      "Ġ186": 2048,
      "nect": 2049,
      "Ġstyle": 2050,
      "Ġsystems": 2051,
      "Ġ2013": 2052,
      "Ġestablished": 2053,
      "Ġstudents": 2054,
      "Ġformed": 2055,
      "Ġ28": 2056,
      "ography": 2057,
      "Ġcame": 2058,
      "ots": 2059,
      "Ġinvest": 2060,
      "ĠDist": 2061,
      "Ġfilms": 2062,
      "Ġtreat": 2063,
      "Ġmy": 2064,
      "itor": 2065,
      "ĠPer": 2066,
      "Ġstarted": 2067,
      "Ġcell": 2068,
      "ĠDav": 2069,
      "ability": 2070,
      "Ġship": 2071,
      "ĠRet": 2072,
      "Ġstudy": 2073,
      "Ġengine": 2074,
      "Ġprovide": 2075,
      "urb": 2076,
      "Ġelected": 2077,
      "Ġconcept": 2078,
      "ĠAg": 2079,
      "aur": 2080,
      "Ġ187": 2081,
      "ney": 2082,
      "Ġfeature": 2083,
      "ideo": 2084,
      "enef": 2085,
      "###": 2086,
      "ouncil": 2087,
      "pecial": 2088,
      "oid": 2089,
      "ĠMe": 2090,
      "anish": 2091,
      "Ġprevious": 2092,
      "Ġcond": 2093,
      "ĠUnion": 2094,
      "Ġknow": 2095,
      "ĠAct": 2096,
      "de": 2097,
      "Ġmean": 2098,
      "Ġage": 2099,
      "Ġcommunity": 2100,
      "Ġunderstanding": 2101,
      "14": 2102,
      "Ġep": 2103,
      "Ġcountries": 2104,
      "Ġareas": 2105,
      "ĠVal": 2106,
      "Ġtypes": 2107,
      "13": 2108,
      "Ġanother": 2109,
      "ĠPresident": 2110,
      "field": 2111,
      "emocrat": 2112,
      "artment": 2113,
      "co": 2114,
      "sequ": 2115,
      "Ġhost": 2116,
      "Ġdel": 2117,
      "Ġ1999": 2118,
      "uf": 2119,
      "ĠCollege": 2120,
      "Ġens": 2121,
      "Ġ1970": 2122,
      "Once": 2123,
      "Ġproble": 2124,
      "ym": 2125,
      "atic": 2126,
      "Ġ2014": 2127,
      "ĠCup": 2128,
      "here": 2129,
      "hest": 2130,
      "iation": 2131,
      "rieved": 2132,
      "Ġspecific": 2133,
      "ico": 2134,
      "lex": 2135,
      "Ġchildren": 2136,
      "Ġfac": 2137,
      "Ġposs": 2138,
      "lear": 2139,
      "rican": 2140,
      "ificant": 2141,
      ",\"": 2142,
      "ream": 2143,
      "aper": 2144,
      "ĠFrance": 2145,
      "icle": 2146,
      "rain": 2147,
      "ocus": 2148,
      "Ġ2015": 2149,
      "osp": 2150,
      "ĠBen": 2151,
      "Ġhold": 2152,
      "alf": 2153,
      "Ġinf": 2154,
      "Ġproduction": 2155,
      "ael": 2156,
      "Ġsuccessful": 2157,
      "ĠPort": 2158,
      "ĠAssoci": 2159,
      "ruction": 2160,
      "ournal": 2161,
      "Ġwithout": 2162,
      "Ġfinal": 2163,
      "Ġrecogn": 2164,
      "Ġmot": 2165,
      "Ġmeas": 2166,
      "Ġcommonly": 2167,
      "Ġorder": 2168,
      "Ġevents": 2169,
      "Ġdirect": 2170,
      "ming": 2171,
      "Ġsee": 2172,
      "Ġgirl": 2173,
      "Ġbuilding": 2174,
      "Ġsignificant": 2175,
      "ffic": 2176,
      "lin": 2177,
      "Ġradio": 2178,
      "reg": 2179,
      "Ġcaus": 2180,
      "ĠChar": 2181,
      "ĠGovern": 2182,
      "tended": 2183,
      "Ġbetter": 2184,
      "Ġvill": 2185,
      "Ġobject": 2186,
      "Ġpot": 2187,
      "udd": 2188,
      "ĠTom": 2189,
      "ĠGro": 2190,
      "Ġrank": 2191,
      "Ġwriter": 2192,
      "ply": 2193,
      "Ġworked": 2194,
      "Ġconf": 2195,
      "ummer": 2196,
      "ĠQue": 2197,
      "ush": 2198,
      "Ġlim": 2199,
      "Ġ29": 2200,
      "atin": 2201,
      "oe": 2202,
      "ĠSen": 2203,
      "Ġside": 2204,
      "isl": 2205,
      "Ġ2016": 2206,
      "itar": 2207,
      "Ġbi": 2208,
      "ĠMich": 2209,
      "Ġcurrently": 2210,
      "tal": 2211,
      "ĠNor": 2212,
      "ustom": 2213,
      "rag": 2214,
      "incip": 2215,
      "Ġ2019": 2216,
      "ĠHall": 2217,
      "ĠQu": 2218,
      "ĠWestern": 2219,
      "Ġspace": 2220,
      "Ġfood": 2221,
      "Ġeast": 2222,
      "..": 2223,
      "Ġgenus": 2224,
      "Ġcoll": 2225,
      "ope": 2226,
      "ville": 2227,
      "ula": 2228,
      "Ġdesigned": 2229,
      "Ġmethod": 2230,
      "ĠDep": 2231,
      "Ġfew": 2232,
      "ĠJapanese": 2233,
      "obert": 2234,
      "less": 2235,
      "30": 2236,
      "Ġliter": 2237,
      "Ġ)": 2238,
      "ached": 2239,
      "Ġ$": 2240,
      "Ġhouse": 2241,
      "ĠGreat": 2242,
      "ĠMinister": 2243,
      "time": 2244,
      "eration": 2245,
      "ugg": 2246,
      "arily": 2247,
      "val": 2248,
      "ma": 2249,
      "istic": 2250,
      "Ġbird": 2251,
      "Ġgr": 2252,
      "ander": 2253,
      "Ġoriginally": 2254,
      "imately": 2255,
      "Ġstrong": 2256,
      "Ġbooks": 2257,
      "ederal": 2258,
      "rab": 2259,
      "eal": 2260,
      "Ġinit": 2261,
      "Ġkey": 2262,
      "Ġgiven": 2263,
      "Ġenvironment": 2264,
      "Ġpur": 2265,
      "Ġrange": 2266,
      "Ġscience": 2267,
      "ĠChampionship": 2268,
      "bor": 2269,
      "Ġrul": 2270,
      "ving": 2271,
      "Ġfeatures": 2272,
      "ĠDes": 2273,
      "ĠHol": 2274,
      "wards": 2275,
      "Ġdem": 2276,
      "Ġve": 2277,
      "anc": 2278,
      "ago": 2279,
      "Ġsound": 2280,
      "ĠCons": 2281,
      "Ġyoung": 2282,
      "ĠArmy": 2283,
      "ranch": 2284,
      "ention": 2285,
      "Ġfocus": 2286,
      "ides": 2287,
      "Ġactor": 2288,
      "ĠMex": 2289,
      "ĠBest": 2290,
      "Al": 2291,
      "Ġ2017": 2292,
      "Ġwest": 2293,
      "atter": 2294,
      "sy": 2295,
      "Ġtri": 2296,
      "ument": 2297,
      "Ġappeared": 2298,
      "rated": 2299,
      "view": 2300,
      "ĠLa": 2301,
      "Ġreferred": 2302,
      "ama": 2303,
      "Ġsepar": 2304,
      "Ġ100": 2305,
      "ĠTr": 2306,
      "iddle": 2307,
      "Ġ2018": 2308,
      "erous": 2309,
      "Ġ1997": 2310,
      "Ġexist": 2311,
      "etic": 2312,
      "Ġsom": 2313,
      "raw": 2314,
      "ert": 2315,
      "Ġrelations": 2316,
      "ipp": 2317,
      "ĠPress": 2318,
      "gen": 2319,
      "ĠUnder": 2320,
      "ably": 2321,
      "posed": 2322,
      "ĠJames": 2323,
      "hemat": 2324,
      "play": 2325,
      "Ġwanted": 2326,
      "olic": 2327,
      "mercial": 2328,
      "bert": 2329,
      "Ġfunction": 2330,
      "west": 2331,
      "ĠSome": 2332,
      "Ġder": 2333,
      "ĠAnt": 2334,
      "ĠRoyal": 2335,
      "most": 2336,
      "!\"": 2337,
      "Ġsym": 2338,
      "Ġ1960": 2339,
      "Ġ1998": 2340,
      "Ġnatural": 2341,
      "ĠNo": 2342,
      "ĠFootball": 2343,
      "icip": 2344,
      "Ġdirector": 2345,
      "Ġz": 2346,
      "asons": 2347,
      "acy": 2348,
      "Ġ0": 2349,
      "Ġcoach": 2350,
      "Ġins": 2351,
      "Ġlow": 2352,
      "ĠDistrict": 2353,
      "oor": 2354,
      "ancial": 2355,
      "Ġran": 2356,
      "ĠChurch": 2357,
      "Ġcat": 2358,
      "Ġsaf": 2359,
      "Ġposition": 2360,
      "ership": 2361,
      "Ġacross": 2362,
      "ĠSm": 2363,
      "ĠSch": 2364,
      "Ġbenef": 2365,
      "Ġask": 2366,
      "Ġhon": 2367,
      "order": 2368,
      "oved": 2369,
      "ification": 2370,
      "ither": 2371,
      "hel": 2372,
      "Ġ2021": 2373,
      "Ġbase": 2374,
      "Ġadminist": 2375,
      "ĠIsland": 2376,
      "ett": 2377,
      "ĠWhen": 2378,
      "Ġvideo": 2379,
      "ided": 2380,
      "Ġavail": 2381,
      "Ġcirc": 2382,
      "aff": 2383,
      "Ġfriends": 2384,
      "alian": 2385,
      "ĠDemocrat": 2386,
      "Ġsoft": 2387,
      "Ġ1996": 2388,
      "ĠLou": 2389,
      "ĠMount": 2390,
      "cher": 2391,
      "Ġalthough": 2392,
      "Ġdirected": 2393,
      "craft": 2394,
      "Ġtotal": 2395,
      "ellow": 2396,
      "Ġmid": 2397,
      "ĠGeneral": 2398,
      "cient": 2399,
      "ĠAssociation": 2400,
      "face": 2401,
      "ĠRetrieved": 2402,
      "Ġrelig": 2403,
      "Ġpain": 2404,
      "Ġstates": 2405,
      "ours": 2406,
      "Ġversion": 2407,
      "11": 2408,
      "ising": 2409,
      "As": 2410,
      "Ġge": 2411,
      "Ġcentral": 2412,
      "ĠArt": 2413,
      "ani": 2414,
      "Ġsinger": 2415,
      "Ġleading": 2416,
      "ead": 2417,
      "ĠGermany": 2418,
      "ights": 2419,
      "Ġgrad": 2420,
      "Ġenergy": 2421,
      "Ġcivil": 2422,
      "aces": 2423,
      "rica": 2424,
      "Ġpriv": 2425,
      "shire": 2426,
      "Ġrespons": 2427,
      "stitut": 2428,
      "itect": 2429,
      "ĠMor": 2430,
      "ĠParliament": 2431,
      "writ": 2432,
      "Ġcapital": 2433,
      "ĠAcadem": 2434,
      "ĠEar": 2435,
      "oice": 2436,
      "Ġdescribed": 2437,
      "Ġfull": 2438,
      "rote": 2439,
      "edy": 2440,
      "ĠGreek": 2441,
      "isions": 2442,
      "arent": 2443,
      "ĠBra": 2444,
      "self": 2445,
      "Ġnorthern": 2446,
      "Ġel": 2447,
      "uals": 2448,
      "ids": 2449,
      "197": 2450,
      "Ġmeans": 2451,
      "isk": 2452,
      "ĠWash": 2453,
      "ude": 2454,
      "Ġtre": 2455,
      "Ġintrodu": 2456,
      "Ġred": 2457,
      "Ġparts": 2458,
      "Ġsouthern": 2459,
      "elling": 2460,
      "ĠFrom": 2461,
      "Ġcomplex": 2462,
      "idence": 2463,
      "ensive": 2464,
      "ĠChristian": 2465,
      "Ġexc": 2466,
      "Ġview": 2467,
      "Ġ(,": 2468,
      "cle": 2469,
      "Ġpoint": 2470,
      "Ġofficial": 2471,
      "ges": 2472,
      "ania": 2473,
      "Ġemploy": 2474,
      "wood": 2475,
      "Ġphot": 2476,
      "Ġthroughout": 2477,
      "ecut": 2478,
      "ointed": 2479,
      "ule": 2480,
      "eum": 2481,
      "Ġaway": 2482,
      "ĠRed": 2483,
      "ĠGeorge": 2484,
      "now": 2485,
      "Ġcustom": 2486,
      "40": 2487,
      "uel": 2488,
      "Ġless": 2489,
      "iled": 2490,
      "apt": 2491,
      "ĠChina": 2492,
      "ĠScott": 2493,
      "Ġdi": 2494,
      "Ġcal": 2495,
      "ĠAfrica": 2496,
      "Ġlik": 2497,
      "off": 2498,
      "Ġoffice": 2499,
      "Ġturn": 2500,
      "ossary": 2501,
      "Ġgenerally": 2502,
      "Ġhard": 2503,
      "sk": 2504,
      "iate": 2505,
      "ĠUK": 2506,
      "Ġnomin": 2507,
      "Ġstep": 2508,
      "Ġavailable": 2509,
      "ĠBr": 2510,
      "nown": 2511,
      "ĠPri": 2512,
      "omb": 2513,
      "ĠRich": 2514,
      "ements": 2515,
      "mit": 2516,
      "Ġprincip": 2517,
      "ĠJack": 2518,
      "Ġcommercial": 2519,
      "ĠSam": 2520,
      "icket": 2521,
      "ishing": 2522,
      "Ġdebut": 2523,
      "Ġrelated": 2524,
      "ĠBel": 2525,
      "ront": 2526,
      "ĠMet": 2527,
      "Ġget": 2528,
      "ths": 2529,
      "Ġmultip": 2530,
      "ĠWashington": 2531,
      "annel": 2532,
      "ĠStreet": 2533,
      "Ġball": 2534,
      "Ġtrack": 2535,
      "ersey": 2536,
      "Ġproducts": 2537,
      "board": 2538,
      "ĠTex": 2539,
      "ĠIr": 2540,
      "ceed": 2541,
      "Ġground": 2542,
      "Ġcensus": 2543,
      "Ġmaintain": 2544,
      "back": 2545,
      "âĢĻ": 2546,
      "Ġbrother": 2547,
      "Ġfather": 2548,
      "iting": 2549,
      "ĠEmp": 2550,
      "ĠWith": 2551,
      "Ġmoved": 2552,
      "Ġtoo": 2553,
      "eep": 2554,
      "reland": 2555,
      "Ġeducation": 2556,
      "Ġroad": 2557,
      "ume": 2558,
      "aker": 2559,
      "ĠDuring": 2560,
      "Ġaud": 2561,
      "Ġconsist": 2562,
      "ilities": 2563,
      "illed": 2564,
      "Ġfig": 2565,
      "Ġwomen": 2566,
      "Ġphil": 2567,
      "ufact": 2568,
      "ĠCong": 2569,
      "empt": 2570,
      "Ġoutside": 2571,
      "ĠCouncil": 2572,
      "ĠPal": 2573,
      "unicip": 2574,
      "Ġten": 2575,
      "Ġindustry": 2576,
      "Ġimpact": 2577,
      "Ġprotect": 2578,
      "Ġconnect": 2579,
      "Ġfur": 2580,
      "Ġowned": 2581,
      "atives": 2582,
      "ĠVir": 2583,
      "ĠItalian": 2584,
      "Ġ1995": 2585,
      "omm": 2586,
      "ston": 2587,
      "ĠCentral": 2588,
      "Ġsite": 2589,
      "\")": 2590,
      "Conclusion": 2591,
      "ean": 2592,
      "Ġmanufact": 2593,
      "Ġcost": 2594,
      "Ġgroups": 2595,
      "Ġunderstand": 2596,
      "Ġdoc": 2597,
      "omas": 2598,
      "Ġlive": 2599,
      "ĠRepublic": 2600,
      "Ġorganization": 2601,
      "ĠBay": 2602,
      "azine": 2603,
      "Ġpri": 2604,
      "Ġ;": 2605,
      "Ġcomputer": 2606,
      "Ġput": 2607,
      "Ġpromot": 2608,
      "ĠFin": 2609,
      "inct": 2610,
      "aries": 2611,
      "ĠCompany": 2612,
      "ĠNavy": 2613,
      "Ġsurv": 2614,
      "Ġfree": 2615,
      "Ġtypically": 2616,
      "Ġdeterm": 2617,
      "Ġopt": 2618,
      "Ġmovement": 2619,
      "ship": 2620,
      "ĠMal": 2621,
      "ades": 2622,
      "=\"": 2623,
      "ĠSte": 2624,
      "Ġmen": 2625,
      "estion": 2626,
      "ĠIreland": 2627,
      "aken": 2628,
      "ger": 2629,
      "stitute": 2630,
      "Ġrefers": 2631,
      "ĠTra": 2632,
      "ĠStud": 2633,
      "Ġmedia": 2634,
      "Ġcy": 2635,
      "pecially": 2636,
      "ators": 2637,
      "Ġfund": 2638,
      "Ġinvolves": 2639,
      "Ġmodel": 2640,
      "ounced": 2641,
      "Ġhighest": 2642,
      "ĠBut": 2643,
      "Ġ1994": 2644,
      "Ġtheory": 2645,
      "Ġtest": 2646,
      "ething": 2647,
      "yr": 2648,
      "Ġmount": 2649,
      "Ġdeg": 2650,
      "ĠIntroduction": 2651,
      "Ġapprox": 2652,
      "Ġassociated": 2653,
      "Ġaddition": 2654,
      "rian": 2655,
      "Ġ1992": 2656,
      "Ġisland": 2657,
      "FL": 2658,
      "Ġtraditional": 2659,
      "ĠTrans": 2660,
      "Ġbar": 2661,
      "ĠDavid": 2662,
      "ĠCommun": 2663,
      "eles": 2664,
      "atory": 2665,
      "iol": 2666,
      "icles": 2667,
      "ien": 2668,
      "Ġnever": 2669,
      "Ġ2022": 2670,
      "icy": 2671,
      "Ġlab": 2672,
      "eph": 2673,
      "Ġmust": 2674,
      "asing": 2675,
      "Ġweek": 2676,
      "vert": 2677,
      "Ġworking": 2678,
      "ĠBer": 2679,
      "Ġplant": 2680,
      "60": 2681,
      "Ġword": 2682,
      "ĠFirst": 2683,
      "Ġscient": 2684,
      "olk": 2685,
      "olit": 2686,
      "ida": 2687,
      "Ġsubject": 2688,
      "ario": 2689,
      "Ġimportance": 2690,
      "ockey": 2691,
      "Ġparticip": 2692,
      "Ġopened": 2693,
      "Ġpred": 2694,
      "Ġvillage": 2695,
      "ĠGroup": 2696,
      "ĠAcademy": 2697,
      "iences": 2698,
      "Ġsat": 2699,
      "ĠTo": 2700,
      "ĠLaw": 2701,
      "Ġbecom": 2702,
      "Ġterms": 2703,
      "ĠJersey": 2704,
      "Ġperformance": 2705,
      "Ġchem": 2706,
      "inese": 2707,
      "ression": 2708,
      "ops": 2709,
      "Wh": 2710,
      "Ġ185": 2711,
      "aign": 2712,
      "Introduction": 2713,
      "ĠBu": 2714,
      "ĠLiber": 2715,
      "Ġtext": 2716,
      "Ġseat": 2717,
      "ĠPat": 2718,
      "Ġskills": 2719,
      "Ġpotential": 2720,
      "eg": 2721,
      "ping": 2722,
      "ols": 2723,
      "Ġclaim": 2724,
      "Ġ1993": 2725,
      "Ġforms": 2726,
      "Ġblack": 2727,
      "Ġcollege": 2728,
      "Ġoccur": 2729,
      "Ġcred": 2730,
      "aves": 2731,
      "ĠFlor": 2732,
      "Ġhalf": 2733,
      "ĠPaul": 2734,
      "Ġinterest": 2735,
      "urity": 2736,
      "Ġregard": 2737,
      "urk": 2738,
      "Ġprote": 2739,
      "Ġstructure": 2740,
      "Ġtransl": 2741,
      "Ġmathemat": 2742,
      "Ġpersonal": 2743,
      "Ġdefe": 2744,
      "ingu": 2745,
      "ites": 2746,
      "Ġwrote": 2747,
      "Qu": 2748,
      "ĠSpanish": 2749,
      "Ġserving": 2750,
      "Ġexplore": 2751,
      "cul": 2752,
      "ister": 2753,
      "ota": 2754,
      "Ġleader": 2755,
      "Ġfinancial": 2756,
      "Ġdig": 2757,
      "Ġanaly": 2758,
      "oviet": 2759,
      "Ġpress": 2760,
      "ĠHen": 2761,
      "pose": 2762,
      "Ġboy": 2763,
      "ĠInter": 2764,
      "Ġculture": 2765,
      "ictor": 2766,
      "Ġattack": 2767,
      "iles": 2768,
      "Ġcontinued": 2769,
      "mar": 2770,
      "anded": 2771,
      "ĠAfrican": 2772,
      "lant": 2773,
      "ibr": 2774,
      "Ġmass": 2775,
      "Ġdest": 2776,
      "Ġmeaning": 2777,
      "ĠTown": 2778,
      "stitution": 2779,
      "Ġsomething": 2780,
      "ĠCont": 2781,
      "Ġsitu": 2782,
      "ĠGold": 2783,
      "ĠEmpire": 2784,
      "Ġanal": 2785,
      "Ġfrequ": 2786,
      "Ġdiscover": 2787,
      "Ġeither": 2788,
      "Ġwhite": 2789,
      "ĠRobert": 2790,
      "Ġinvolved": 2791,
      "II": 2792,
      "istics": 2793,
      "serv": 2794,
      "Ġregular": 2795,
      "itz": 2796,
      "rial": 2797,
      "Ġbank": 2798,
      "Ġearl": 2799,
      "Ġcase": 2800,
      "Ġpoet": 2801,
      "heast": 2802,
      "Ġlanguages": 2803,
      "Ġespecially": 2804,
      "Ġvariety": 2805,
      "Ġcondu": 2806,
      "Ġdram": 2807,
      "chan": 2808,
      "Ġeconomic": 2809,
      "ĠBook": 2810,
      "Ġsqu": 2811,
      "Ġbox": 2812,
      "ĠLouis": 2813,
      "Ġprimarily": 2814,
      "Ġrelease": 2815,
      "agn": 2816,
      "ĠBlack": 2817,
      "ror": 2818,
      "aining": 2819,
      "Ġarchitect": 2820,
      "ĠGrand": 2821,
      "Ġriver": 2822,
      "ategory": 2823,
      "ĠTV": 2824,
      "year": 2825,
      "iff": 2826,
      "put": 2827,
      "ĠRail": 2828,
      "ought": 2829,
      "ĠRussian": 2830,
      "ĠLake": 2831,
      "Ġfem": 2832,
      "sych": 2833,
      "ĠĠĠĠĠĠĠĠ": 2834,
      "lying": 2835,
      "Ġche": 2836,
      "Ġmanagement": 2837,
      "unk": 2838,
      "Ġdecl": 2839,
      "Ġcand": 2840,
      "Ġappointed": 2841,
      "Ġrepresented": 2842,
      "ysis": 2843,
      "Ġbroadcast": 2844,
      "ĠSwed": 2845,
      "ĠMac": 2846,
      "Ġstage": 2847,
      "ĠServ": 2848,
      "cies": 2849,
      "Ġill": 2850,
      "Ġrights": 2851,
      "ĠGr": 2852,
      "Ġcertain": 2853,
      "wide": 2854,
      "airs": 2855,
      "ĠZeal": 2856,
      "Ġactress": 2857,
      "Ġartist": 2858,
      "Ġren": 2859,
      "Ġactive": 2860,
      "oms": 2861,
      "lam": 2862,
      "ĠMary": 2863,
      "Ġindividuals": 2864,
      "ĠCath": 2865,
      "Ġimprove": 2866,
      "rey": 2867,
      "Ġ1991": 2868,
      "odes": 2869,
      "Ġdise": 2870,
      "Ġcoast": 2871,
      "Ġuses": 2872,
      "Ġnumerous": 2873,
      "ength": 2874,
      "Ġindependent": 2875,
      "Ġreport": 2876,
      "Ġ1950": 2877,
      "One": 2878,
      "Ġcompan": 2879,
      "Gl": 2880,
      "ĠSoviet": 2881,
      "Ġmix": 2882,
      "ĠZealand": 2883,
      "ĠSk": 2884,
      "Ġ50": 2885,
      "action": 2886,
      "unn": 2887,
      "Ġprovides": 2888,
      "Ġ31": 2889,
      "Ġreview": 2890,
      "ij": 2891,
      "ĠMiss": 2892,
      "ĠFilm": 2893,
      "arian": 2894,
      "Ġdam": 2895,
      "Ġshare": 2896,
      "ĠCharles": 2897,
      "Ġnext": 2898,
      "25": 2899,
      "ww": 2900,
      "Ġlegal": 2901,
      "ĠChinese": 2902,
      "Ġterrit": 2903,
      "Ġalways": 2904,
      "Ġvalue": 2905,
      "ledge": 2906,
      "Ġwidely": 2907,
      "based": 2908,
      "Ġeight": 2909,
      "ĠBill": 2910,
      "also": 2911,
      "Ġjoined": 2912,
      "iated": 2913,
      "Ġlaun": 2914,
      "Ġwestern": 2915,
      "Ġconc": 2916,
      "Ġaffect": 2917,
      "Ġrelationship": 2918,
      "Ġaction": 2919,
      "Ġprevent": 2920,
      "ecess": 2921,
      "Ġretired": 2922,
      "Ġforces": 2923,
      "Ġchange": 2924,
      "itte": 2925,
      "ĠLatin": 2926,
      "asket": 2927,
      "Ġsubsequ": 2928,
      "Ġoffer": 2929,
      "Ġser": 2930,
      "oose": 2931,
      "Ġchall": 2932,
      "Ġpractice": 2933,
      "Ġthought": 2934,
      "Ġpromin": 2935,
      "Ġnative": 2936,
      "aps": 2937,
      "ari": 2938,
      "rel": 2939,
      "Ġroles": 2940,
      "Ġenc": 2941,
      "Ġapproximately": 2942,
      "igned": 2943,
      "Ġseven": 2944,
      "ĠScot": 2945,
      "Ġwhose": 2946,
      "Ġattempt": 2947,
      "embly": 2948,
      "Ġthink": 2949,
      "Ġself": 2950,
      "Ġmusical": 2951,
      "Ġuniversity": 2952,
      "bit": 2953,
      "23": 2954,
      "Ġsil": 2955,
      "uture": 2956,
      "Ġhowever": 2957,
      "ĠChic": 2958,
      "ĠTor": 2959,
      "Ġcontribut": 2960,
      "ĠMont": 2961,
      "het": 2962,
      "ĠMusic": 2963,
      "icro": 2964,
      "ires": 2965,
      "Ġindividual": 2966,
      "gy": 2967,
      "ĠFranc": 2968,
      "hib": 2969,
      "Ġmaterials": 2970,
      "ha": 2971,
      "Ġreturned": 2972,
      "Ġrecorded": 2973,
      "Ġet": 2974,
      "Ġentire": 2975,
      "Ġgoals": 2976,
      "CA": 2977,
      "Ġfollowed": 2978,
      "Ġtechnology": 2979,
      "ened": 2980,
      "ĠTexas": 2981,
      "Ġphilos": 2982,
      "ĠJew": 2983,
      "que": 2984,
      "itch": 2985,
      "ĠSaint": 2986,
      "ĠCongress": 2987,
      "ĠProv": 2988,
      "ĠAwards": 2989,
      "ux": 2990,
      "Ġlost": 2991,
      "eds": 2992,
      "Ġ184": 2993,
      "Ġconsider": 2994,
      "erman": 2995,
      "ĠBattle": 2996,
      "Ġsequ": 2997,
      "izing": 2998,
      "Ġpp": 2999,
      "ĠAsia": 3000,
      "Ġlearned": 3001,
      "imate": 3002,
      "ĠDepartment": 3003,
      "ĠMark": 3004,
      "Ġstandard": 3005,
      "ĠAcc": 3006,
      "Ġbrand": 3007,
      "Ġsch": 3008,
      "Ġwebs": 3009,
      "ĠMil": 3010,
      "ĠRad": 3011,
      "ĠRev": 3012,
      "ĠHistory": 3013,
      "Ġoperated": 3014,
      "ĠAre": 3015,
      "ibility": 3016,
      "ference": 3017,
      "ties": 3018,
      "ores": 3019,
      "ĠLos": 3020,
      "Ġplayers": 3021,
      "Ġproperty": 3022,
      "Ġ1989": 3023,
      "Ġelements": 3024,
      "?\"": 3025,
      "ients": 3026,
      "istan": 3027,
      "like": 3028,
      "Ġgold": 3029,
      "Ġprimary": 3030,
      "TV": 3031,
      "Ar": 3032,
      "Ġmultiple": 3033,
      "asy": 3034,
      "ĠMy": 3035,
      "NA": 3036,
      "ĠSystem": 3037,
      "oo": 3038,
      "Ġseen": 3039,
      "Ġfail": 3040,
      "ĠCourt": 3041,
      "Ġsoftware": 3042,
      "wh": 3043,
      "Ġaccount": 3044,
      "Ġfamous": 3045,
      "ĠVirgin": 3046,
      "olf": 3047,
      "ĠLeg": 3048,
      "Ġcross": 3049,
      "Ġwriting": 3050,
      "Ġtax": 3051,
      "Ġdiff": 3052,
      "Ġpie": 3053,
      "ĠCenter": 3054,
      "Ġliving": 3055,
      "ĠAtlant": 3056,
      "erc": 3057,
      "Ġexecut": 3058,
      "Ġtree": 3059,
      "Ġbo": 3060,
      "ems": 3061,
      "ĠInc": 3062,
      "ources": 3063,
      "ĠChe": 3064,
      "ĠRock": 3065,
      "Ġprivate": 3066,
      "Ġsent": 3067,
      "eck": 3068,
      "Ġbelie": 3069,
      "After": 3070,
      "ĠIrish": 3071,
      "Ġjournal": 3072,
      "Ġsize": 3073,
      "ĠChicago": 3074,
      "Ġfelt": 3075,
      "Ġ1988": 3076,
      "John": 3077,
      "Ġphysical": 3078,
      "Ġancient": 3079,
      "Ġseasons": 3080,
      "Ġrailway": 3081,
      "Ġaircraft": 3082,
      "ĠGreen": 3083,
      "ĠDemocratic": 3084,
      "Ġfurther": 3085,
      "ĠOp": 3086,
      "Ġwide": 3087,
      "Ġteams": 3088,
      "ĠSociety": 3089,
      "Ġasked": 3090,
      "go": 3091,
      "orpor": 3092,
      "Ġpast": 3093,
      "swer": 3094,
      "Ġcop": 3095,
      "Ġpers": 3096,
      "Ġguitar": 3097,
      "Ġperformed": 3098,
      "duc": 3099,
      "era": 3100,
      "Ġcompon": 3101,
      "Ġwat": 3102,
      "acher": 3103,
      "ĠNorthern": 3104,
      "burg": 3105,
      "Ġ\\": 3106,
      "ises": 3107,
      "ground": 3108,
      "Ġking": 3109,
      "Ġhit": 3110,
      "ocal": 3111,
      "Ġsports": 3112,
      "ĠCarol": 3113,
      "obal": 3114,
      "||": 3115,
      "ona": 3116,
      "ĠMart": 3117,
      "ĠCr": 3118,
      "br": 3119,
      "Ġcast": 3120,
      "ĠRoad": 3121,
      "known": 3122,
      "ĠVol": 3123,
      "Ġmedical": 3124,
      "Ġlives": 3125,
      "Ġclose": 3126,
      "gian": 3127,
      "Ġwalk": 3128,
      "Ġinstrum": 3129,
      "yp": 3130,
      "arden": 3131,
      "ĠMexico": 3132,
      "Ġmem": 3133,
      "Ġrace": 3134,
      "Ġcolor": 3135,
      "Ġfar": 3136,
      "oul": 3137,
      "ĠArch": 3138,
      "Ġtro": 3139,
      "Ġleague": 3140,
      "Ġcampaign": 3141,
      "berg": 3142,
      "24": 3143,
      "Ġpreviously": 3144,
      "ĠVictor": 3145,
      "adium": 3146,
      "Ġintroduced": 3147,
      "Ġ1979": 3148,
      "Ġ1984": 3149,
      "Ġprograms": 3150,
      "Ġproblems": 3151,
      "ĠCap": 3152,
      "earch": 3153,
      "Ġbenefits": 3154,
      "iter": 3155,
      "inet": 3156,
      "Ġ1987": 3157,
      "ĠSl": 3158,
      "BA": 3159,
      "Ġfeel": 3160,
      "Ġreached": 3161,
      "80": 3162,
      "Ġfourth": 3163,
      "Ġvot": 3164,
      "Ġsurface": 3165,
      "Ġloved": 3166,
      "ament": 3167,
      "Ġacqu": 3168,
      "27": 3169,
      "ribution": 3170,
      "Ġissues": 3171,
      "Ġtour": 3172,
      "Ġnames": 3173,
      "ĠSince": 3174,
      "uate": 3175,
      "Ġallows": 3176,
      "Ġimm": 3177,
      "Ġtoday": 3178,
      "Ġbegin": 3179,
      "Ġrespect": 3180,
      "och": 3181,
      "ĠWhy": 3182,
      "ĠSun": 3183,
      "Ġscreen": 3184,
      "asc": 3185,
      "ĠPac": 3186,
      "ye": 3187,
      "Ġeastern": 3188,
      "Ġ183": 3189,
      "Ġstri": 3190,
      "ĠSing": 3191,
      "Ġ(\"": 3192,
      "Ġawarded": 3193,
      "Ġever": 3194,
      "rup": 3195,
      "mon": 3196,
      "Ġparticularly": 3197,
      "ĠEarth": 3198,
      "plement": 3199,
      "Ġmunicip": 3200,
      "Ġdays": 3201,
      "Ġ1982": 3202,
      "iques": 3203,
      "bour": 3204,
      "Ġ40": 3205,
      "Ġ1986": 3206,
      "Ġleast": 3207,
      "pre": 3208,
      "Amer": 3209,
      "Ġmeet": 3210,
      "ĠMad": 3211,
      "Ġchanges": 3212,
      "oints": 3213,
      "ĠDon": 3214,
      "Ġtransport": 3215,
      "Ġcome": 3216,
      "Ġ1983": 3217,
      "ĠAlex": 3218,
      "Ġhigher": 3219,
      "estions": 3220,
      "Ġtravel": 3221,
      "Ġruns": 3222,
      "Ġensure": 3223,
      "Ġhor": 3224,
      "Ġstrateg": 3225,
      "Ġsociety": 3226,
      "There": 3227,
      "Ġfall": 3228,
      "bers": 3229,
      "ĠBC": 3230,
      "Ġrisk": 3231,
      "ĠCatholic": 3232,
      "ĠUp": 3233,
      "Ġcreating": 3234,
      "Ġneg": 3235,
      "atform": 3236,
      "ĠFrank": 3237,
      "asketball": 3238,
      "Ġlet": 3239,
      "rown": 3240,
      "ĠClub": 3241,
      "Ġcharacters": 3242,
      "mark": 3243,
      "ittee": 3244,
      "izations": 3245,
      "Ġproducer": 3246,
      "SA": 3247,
      "ĠÐ": 3248,
      "Ġ1981": 3249,
      "ĠAngeles": 3250,
      "Ġcenter": 3251,
      "Ġhelps": 3252,
      "196": 3253,
      "ria": 3254,
      "ublican": 3255,
      "ĠExamples": 3256,
      "Ġveh": 3257,
      "Ġwood": 3258,
      "ĠSim": 3259,
      "Ġobserv": 3260,
      "Ġhistorical": 3261,
      "ĠSecond": 3262,
      "me": 3263,
      "pite": 3264,
      "ĠOlympics": 3265,
      "Ġstudio": 3266,
      "Ġplants": 3267,
      "Ġsource": 3268,
      "hood": 3269,
      "ables": 3270,
      "Ġcontains": 3271,
      "writer": 3272,
      "aring": 3273,
      "bre": 3274,
      "elled": 3275,
      "Ġcour": 3276,
      "Ġaltern": 3277,
      "ĠHam": 3278,
      "Ġdom": 3279,
      "arter": 3280,
      "Ġwinning": 3281,
      "icult": 3282,
      "ned": 3283,
      "ĠColumb": 3284,
      "Ġreach": 3285,
      "oud": 3286,
      "head": 3287,
      "Ġlower": 3288,
      "ronic": 3289,
      "Ġapplications": 3290,
      "Ġ1985": 3291,
      "iding": 3292,
      "ĠMichael": 3293,
      "men": 3294,
      "Ġserves": 3295,
      "icated": 3296,
      "ĠInstitute": 3297,
      "ĠSal": 3298,
      "ĠSocial": 3299,
      "Ġ(),": 3300,
      "ya": 3301,
      "utch": 3302,
      "olitan": 3303,
      "Ġpay": 3304,
      "Ġfederal": 3305,
      "Ġitself": 3306,
      "ĠTer": 3307,
      "itionally": 3308,
      "Ġmagazine": 3309,
      "De": 3310,
      "Ġround": 3311,
      "irth": 3312,
      "ĠDay": 3313,
      "Ġable": 3314,
      "Ġlocation": 3315,
      "Ġschol": 3316,
      "Ġonce": 3317,
      "Ġcru": 3318,
      "This": 3319,
      "Ġwind": 3320,
      "Ġsele": 3321,
      "Ġsem": 3322,
      "atre": 3323,
      "enced": 3324,
      "Ġgrowth": 3325,
      "Ġprovince": 3326,
      "Ġcompanies": 3327,
      "ivity": 3328,
      "Ġsex": 3329,
      "Ġannounced": 3330,
      "ĠDr": 3331,
      "ĠMat": 3332,
      "Ġvict": 3333,
      "Ġeth": 3334,
      "ĠUnderstanding": 3335,
      "rast": 3336,
      "ĠAccess": 3337,
      "bon": 3338,
      "Ġneeds": 3339,
      "Ġamount": 3340,
      "Ġthings": 3341,
      "Ġdepend": 3342,
      "idae": 3343,
      "Ġkeep": 3344,
      "ĠThomas": 3345,
      "ĠSer": 3346,
      "Ġconstruction": 3347,
      "Ġonline": 3348,
      "Ġdog": 3349,
      "Ġcandid": 3350,
      "Ġnews": 3351,
      "Ġhimself": 3352,
      "Ġtemper": 3353,
      "urt": 3354,
      "position": 3355,
      "ĠWales": 3356,
      "ĠDo": 3357,
      "retary": 3358,
      "Ġlived": 3359,
      "ĠPlay": 3360,
      "iers": 3361,
      "ĠMag": 3362,
      "Ġdocument": 3363,
      "aid": 3364,
      "sec": 3365,
      "ĠYear": 3366,
      "Ġsection": 3367,
      "Ġidentify": 3368,
      "ĠScottish": 3369,
      "ĠLine": 3370,
      "Ġexperience": 3371,
      "roy": 3372,
      "oseph": 3373,
      "Ġmechan": 3374,
      "Ġdecided": 3375,
      "ĠTimmy": 3376,
      "Ġneigh": 3377,
      "leg": 3378,
      "ĠOther": 3379,
      "Ġreplaced": 3380,
      "ĠRichard": 3381,
      "Ġblock": 3382,
      "gl": 3383,
      "Ġ1976": 3384,
      "ĠOx": 3385,
      "Ġdyn": 3386,
      "ĠRecords": 3387,
      "ĠHenry": 3388,
      "cean": 3389,
      "Ġmoney": 3390,
      "porary": 3391,
      "ees": 3392,
      "ĠPre": 3393,
      "ĠEduc": 3394,
      "ena": 3395,
      "Ġ1969": 3396,
      "Ġalbums": 3397,
      "Ġlooked": 3398,
      "ows": 3399,
      "Ġchart": 3400,
      "Ġfif": 3401,
      "han": 3402,
      "Ġfuture": 3403,
      "Ġmostly": 3404,
      "omp": 3405,
      "uit": 3406,
      "Ġprovided": 3407,
      "abit": 3408,
      "Ġshows": 3409,
      "ether": 3410,
      "ĠAlthough": 3411,
      "ĠTurk": 3412,
      "Ġ1972": 3413,
      "Ġ1974": 3414,
      "Ġquality": 3415,
      "Ġvir": 3416,
      "edia": 3417,
      "ĠKore": 3418,
      "ĠWil": 3419,
      "Ġsuc": 3420,
      "Ġ1977": 3421,
      "teg": 3422,
      "ĠSuper": 3423,
      "|}": 3424,
      "ĠMass": 3425,
      "Ġ1978": 3426,
      "rig": 3427,
      "ĠTechn": 3428,
      "Ġbehav": 3429,
      "Ġsuper": 3430,
      "Ġplays": 3431,
      "Ġfire": 3432,
      "{|": 3433,
      "ao": 3434,
      "Ġbecoming": 3435,
      "ĠConserv": 3436,
      "text": 3437,
      "Glossary": 3438,
      "Ġice": 3439,
      "ĠWork": 3440,
      "ĠMod": 3441,
      "spe": 3442,
      "Ġmach": 3443,
      "Ġrather": 3444,
      "American": 3445,
      "Ġepis": 3446,
      "road": 3447,
      "Ġfav": 3448,
      "Ġenter": 3449,
      "Ġsen": 3450,
      "//": 3451,
      "ĠConclusion": 3452,
      "90": 3453,
      "Ġassist": 3454,
      "Ġforce": 3455,
      "orough": 3456,
      "Ġsucceed": 3457,
      "used": 3458,
      "rael": 3459,
      "Ġlength": 3460,
      "Ġeffects": 3461,
      "ift": 3462,
      "Ġcode": 3463,
      "Ġ1975": 3464,
      "aughter": 3465,
      "ampion": 3466,
      "ĠParis": 3467,
      "Ġlarger": 3468,
      "Ġunique": 3469,
      "Ġtaken": 3470,
      "Ġboard": 3471,
      "uries": 3472,
      "ĠWhile": 3473,
      "ĠDivision": 3474,
      "Ġchalleng": 3475,
      "asion": 3476,
      "sel": 3477,
      "Ġrequire": 3478,
      "ĠFame": 3479,
      "km": 3480,
      "win": 3481,
      "ĠAut": 3482,
      "28": 3483,
      "Ġcritical": 3484,
      "ĠHistor": 3485,
      "erve": 3486,
      "ĠTimes": 3487,
      "aval": 3488,
      "ĠSenate": 3489,
      "Ġ1973": 3490,
      "Ġdiscuss": 3491,
      "Ġfiction": 3492,
      "ĠEastern": 3493,
      "Ġsmiled": 3494,
      "Ġcle": 3495,
      "Ġprem": 3496,
      "ĠItaly": 3497,
      "Ġcultural": 3498,
      "Ġcourt": 3499,
      "Ġactivities": 3500,
      "aily": 3501,
      "Ġdecisions": 3502,
      "Ġmetal": 3503,
      "Ġmagn": 3504,
      "ophy": 3505,
      "ĠBritain": 3506,
      "26": 3507,
      "Ġmajority": 3508,
      "Ġchampionship": 3509,
      "Ġcapt": 3510,
      "Ġsongs": 3511,
      "Ġbreak": 3512,
      "hy": 3513,
      "ropolitan": 3514,
      "ĠNews": 3515,
      "iment": 3516,
      "ĠAssembly": 3517,
      "bed": 3518,
      "Ġoperations": 3519,
      "azz": 3520,
      "ĠAdd": 3521,
      "ump": 3522,
      "isher": 3523,
      "Ġlog": 3524,
      "Ġemer": 3525,
      "Ġmarried": 3526,
      "ĠPacific": 3527,
      "reme": 3528,
      "ĠCivil": 3529,
      "Ġtrade": 3530,
      "ntario": 3531,
      "Ġcomedy": 3532,
      "Ġ1968": 3533,
      "Ġlay": 3534,
      "ĠDu": 3535,
      "ĠDef": 3536,
      "Ġeventually": 3537,
      "ĠMax": 3538,
      "estival": 3539,
      "ĠFlorida": 3540,
      "zil": 3541,
      "ĠMost": 3542,
      "hold": 3543,
      "Ġstre": 3544,
      "Ġplatform": 3545,
      "ĠMajor": 3546,
      "vention": 3547,
      "Ġunivers": 3548,
      "ĠOld": 3549,
      "Ġschools": 3550,
      "oring": 3551,
      "Ġnar": 3552,
      "Ġremained": 3553,
      "Ġminor": 3554,
      "Ġsurround": 3555,
      "Ġdivision": 3556,
      "ĠGod": 3557,
      "Ġadop": 3558,
      "Ġ1971": 3559,
      "ĠPenn": 3560,
      "Ġanimals": 3561,
      "Ġconditions": 3562,
      "rative": 3563,
      "Ġmainly": 3564,
      "Ġknowledge": 3565,
      "Ġexamples": 3566,
      "Ġwife": 3567,
      "ĠSouthern": 3568,
      "Ġstars": 3569,
      "33": 3570,
      "Ġdou": 3571,
      "Ġalmost": 3572,
      "ĠSeries": 3573,
      "Ġmanager": 3574,
      "ips": 3575,
      "Ġreligious": 3576,
      "ano": 3577,
      "uz": 3578,
      "ĠArab": 3579,
      "Ġconsists": 3580,
      "Ġsources": 3581,
      "Ġpsych": 3582,
      "Ġvoice": 3583,
      "ulture": 3584,
      "ĠRepublican": 3585,
      "Ġability": 3586,
      "ĠVirginia": 3587,
      "Ġacadem": 3588,
      "ĠScotland": 3589,
      "Ġoverall": 3590,
      "Ġgave": 3591,
      "Ġjud": 3592,
      "Ġlo": 3593,
      "inary": 3594,
      "ĠOntario": 3595,
      "iest": 3596,
      "Ġspent": 3597,
      "ety": 3598,
      "ĠDis": 3599,
      "Ġblood": 3600,
      "add": 3601,
      "Ġhom": 3602,
      "Ġpoints": 3603,
      "Ġconfl": 3604,
      "Ġresponsible": 3605,
      "aging": 3606,
      "Ġcolon": 3607,
      "Ġconclusion": 3608,
      "Ġtraining": 3609,
      "Ġabove": 3610,
      "ĠValley": 3611,
      "Ġcells": 3612,
      "ĠPeter": 3613,
      "eign": 3614,
      "Ġwebsite": 3615,
      "ada": 3616,
      "change": 3617,
      "Ġcause": 3618,
      "Ġbehind": 3619,
      "Ġbound": 3620,
      "Ġremains": 3621,
      "Ġcut": 3622,
      "ĠMin": 3623,
      "ĠIf": 3624,
      "70": 3625,
      "utes": 3626,
      "Ġviol": 3627,
      "lo": 3628,
      "Ġdigital": 3629,
      "poration": 3630,
      "fect": 3631,
      "ternal": 3632,
      "venue": 3633,
      "ĠFound": 3634,
      "Ġsymb": 3635,
      "Ġtowards": 3636,
      "Ġpossible": 3637,
      "Ġarg": 3638,
      "Ġ1940": 3639,
      "ado": 3640,
      "ĠHill": 3641,
      "Ġrunning": 3642,
      "itude": 3643,
      "ĠPublic": 3644,
      "aged": 3645,
      "://": 3646,
      "Ġlegisl": 3647,
      "unt": 3648,
      "Ġconv": 3649,
      "Ġcritic": 3650,
      "ĠSmith": 3651,
      "Ġfeatured": 3652,
      "Ġcentre": 3653,
      "Ġinj": 3654,
      "ĠBase": 3655,
      "ulf": 3656,
      "Ġstay": 3657,
      "Ġresources": 3658,
      "ipl": 3659,
      "Ġang": 3660,
      "Ġ1967": 3661,
      "Ġagre": 3662,
      "rol": 3663,
      "Ġast": 3664,
      "Ġlink": 3665,
      "ĠMel": 3666,
      "ested": 3667,
      "Ġnuc": 3668,
      "lor": 3669,
      "Ġ1930": 3670,
      "Ġtransfer": 3671,
      "Ġinfluence": 3672,
      "Ġincrease": 3673,
      "Ġgra": 3674,
      "ylv": 3675,
      "Ġ=": 3676,
      "Ġgoal": 3677,
      "Ġvia": 3678,
      "ev": 3679,
      "Ġcollabor": 3680,
      "Ġeffort": 3681,
      "Ġmeasure": 3682,
      "Ġdeep": 3683,
      "reater": 3684,
      "Ġestablish": 3685,
      "hi": 3686,
      "roll": 3687,
      "SS": 3688,
      "Ġstop": 3689,
      "Ġpurch": 3690,
      "ĠGovernment": 3691,
      "ĠâĢ": 3692,
      "FA": 3693,
      "ĠWhite": 3694,
      "âĤ": 3695,
      "Ġlic": 3696,
      "ibrary": 3697,
      "ĠSpe": 3698,
      "Ġsigned": 3699,
      "ras": 3700,
      "onic": 3701,
      "Ġeffic": 3702,
      "Ġtaking": 3703,
      "Ġfish": 3704,
      "Ġhous": 3705,
      "ressed": 3706,
      "ĠSur": 3707,
      "not": 3708,
      "Ġinteg": 3709,
      "onst": 3710,
      "ĠProg": 3711,
      "atively": 3712,
      "thlet": 3713,
      "Ġsea": 3714,
      "Ġnewsp": 3715,
      "ension": 3716,
      "ĠPract": 3717,
      "urban": 3718,
      "Ġord": 3719,
      "aught": 3720,
      "amm": 3721,
      "Ġnotable": 3722,
      "Ġpage": 3723,
      "ĠStar": 3724,
      "Ġdon": 3725,
      "Ġdistinct": 3726,
      "Ġloss": 3727,
      "ĠOxford": 3728,
      "Ġadj": 3729,
      "Ġworldwide": 3730,
      "ĠBrazil": 3731,
      "Ġpen": 3732,
      "Ġ1945": 3733,
      "oz": 3734,
      "Ġsubst": 3735,
      "ĠCarolina": 3736,
      "Answer": 3737,
      "Ġautom": 3738,
      "Ġcele": 3739,
      "ĠForce": 3740,
      "Ġartists": 3741,
      "Ġnorm": 3742,
      "Ġcaused": 3743,
      "Ġstories": 3744,
      "ĠIsrael": 3745,
      "Ġformerly": 3746,
      "Ġseparate": 3747,
      "Ġapplied": 3748,
      "Ġprominent": 3749,
      "Ġcontinu": 3750,
      "tainment": 3751,
      "ĠIslam": 3752,
      "ĠMiddle": 3753,
      "ĠEducation": 3754,
      "ands": 3755,
      "overs": 3756,
      "Ġquick": 3757,
      "29": 3758,
      "Ġdu": 3759,
      "ĠCommission": 3760,
      "Ġhot": 3761,
      "Ġste": 3762,
      "ider": 3763,
      "Ġinstead": 3764,
      "ĠGo": 3765,
      "cycl": 3766,
      "anced": 3767,
      "ste": 3768,
      "Ġmonths": 3769,
      "ĠRob": 3770,
      "ologist": 3771,
      "onom": 3772,
      "iller": 3773,
      "Ġanalysis": 3774,
      "Ġtarg": 3775,
      "ĠSea": 3776,
      "ĠTheir": 3777,
      "ĠMer": 3778,
      "Ġdegree": 3779,
      "fit": 3780,
      "Ġborder": 3781,
      "Ġpaper": 3782,
      "Ġ1964": 3783,
      "Ġoccup": 3784,
      "enth": 3785,
      "Ġcompetition": 3786,
      "ĠTest": 3787,
      "col": 3788,
      "Ġparent": 3789,
      "Ġscen": 3790,
      "well": 3791,
      "Ġhelped": 3792,
      "Ġgrand": 3793,
      "ĠSo": 3794,
      "Ġequip": 3795,
      "ini": 3796,
      "Ġdifficult": 3797,
      "ĠIll": 3798,
      "Ġprop": 3799,
      "tra": 3800,
      "ĠDel": 3801,
      "Ġmedal": 3802,
      "Ġ1965": 3803,
      "itt": 3804,
      "Ġcollection": 3805,
      "Ġcry": 3806,
      "ounter": 3807,
      "ĠDevelop": 3808,
      "ĠPet": 3809,
      "Ġcontract": 3810,
      "Ġprovin": 3811,
      "Ġcomposed": 3812,
      "âĤ¬": 3813,
      "Ġinsp": 3814,
      "ĠLu": 3815,
      "Ġfast": 3816,
      "ĠLab": 3817,
      "ks": 3818,
      "Ġinn": 3819,
      "Ġjob": 3820,
      "inner": 3821,
      "Ġgraph": 3822,
      "rief": 3823,
      "umn": 3824,
      "ĠDire": 3825,
      "Ġlear": 3826,
      "orial": 3827,
      "Ġreb": 3828,
      "ils": 3829,
      "ĠMuseum": 3830,
      "ĠAccessed": 3831,
      "Ġfactors": 3832,
      "Ġdrama": 3833,
      "Ġrap": 3834,
      "ala": 3835,
      "ĠStat": 3836,
      "Ġtechniques": 3837,
      "ĠInt": 3838,
      "Ġ1966": 3839,
      "Ġtitles": 3840,
      "Ġnumbers": 3841,
      "Ġevidence": 3842,
      "Ġlabel": 3843,
      "Ġsett": 3844,
      "ĠBrown": 3845,
      "Ġkind": 3846,
      "Ġvari": 3847,
      "joy": 3848,
      "Ġabs": 3849,
      "Ġgot": 3850,
      "Ġroute": 3851,
      "Ġcontent": 3852,
      "Ġlines": 3853,
      "uff": 3854,
      "gypt": 3855,
      "ĠBur": 3856,
      "Ġeffective": 3857,
      "Ġmess": 3858,
      "ĠCommon": 3859,
      "Ġsugg": 3860,
      "Ġdraw": 3861,
      "Ġ180": 3862,
      "ĠDisc": 3863,
      "ĠPeople": 3864,
      "ĠColumbia": 3865,
      "ĠOlympic": 3866,
      "Ġmiss": 3867,
      "ternet": 3868,
      "Ġinside": 3869,
      "oret": 3870,
      "verage": 3871,
      "Ġchair": 3872,
      "ressive": 3873,
      "Ġwords": 3874,
      "Ġpopul": 3875,
      "Ġdetail": 3876,
      "Ġconsum": 3877,
      "lim": 3878,
      "icate": 3879,
      "Ġpattern": 3880,
      "Ġlearning": 3881,
      "min": 3882,
      "Ġsays": 3883,
      "ĠBBC": 3884,
      "ĠRou": 3885,
      "iant": 3886,
      "cont": 3887,
      "rick": 3888,
      "aches": 3889,
      "Ġsmaller": 3890,
      "Ġbranch": 3891,
      "Ġdisease": 3892,
      "Ġproviding": 3893,
      "Ġstatus": 3894,
      "obile": 3895,
      "Ġexcept": 3896,
      "Ġminister": 3897,
      "Ġorganizations": 3898,
      "rical": 3899,
      "Ġeditor": 3900,
      "Ġfarm": 3901,
      "ollowing": 3902,
      "igan": 3903,
      "owl": 3904,
      "ero": 3905,
      "Ġnecess": 3906,
      "ells": 3907,
      "Ġden": 3908,
      "Ġfigure": 3909,
      "Ġidea": 3910,
      "Ġfight": 3911,
      "Ġcomposer": 3912,
      "ĠOut": 3913,
      "Ġproperties": 3914,
      "bur": 3915,
      "Ġaccept": 3916,
      "Ġstations": 3917,
      "Ġheadqu": 3918,
      "Ġmountain": 3919,
      "ĠBroad": 3920,
      "asty": 3921,
      "Ġcit": 3922,
      "Ġface": 3923,
      "Ġresults": 3924,
      "Ġprin": 3925,
      "ĠResearch": 3926,
      "Ġreduce": 3927,
      "Ġpositive": 3928,
      "ĠEv": 3929,
      "Ġarticle": 3930,
      "ola": 3931,
      "ĠBaron": 3932,
      "Ġtry": 3933,
      "ĠHaw": 3934,
      "ĠCamp": 3935,
      "Ġaccording": 3936,
      "Ġestim": 3937,
      "osing": 3938,
      "opher": 3939,
      "Ġbeginning": 3940,
      "Ġincorpor": 3941,
      "bra": 3942,
      "part": 3943,
      "Ġliterature": 3944,
      ".)": 3945,
      "ĠPak": 3946,
      "She": 3947,
      "Ġtreatment": 3948,
      "ĠCommittee": 3949,
      "Ġofficer": 3950,
      "ĠRepresent": 3951,
      "ams": 3952,
      "Ġchurch": 3953,
      "ĠScience": 3954,
      "Ġpeak": 3955,
      "Ġproduce": 3956,
      "cript": 3957,
      "ĠGames": 3958,
      "Ġbeaut": 3959,
      "class": 3960,
      "ĠEgypt": 3961,
      "ka": 3962,
      "oke": 3963,
      "alls": 3964,
      "Ġmother": 3965,
      "Ġcompleted": 3966,
      "ĠDen": 3967,
      "Ġgas": 3968,
      "Ġclear": 3969,
      "Ġlimited": 3970,
      "emporary": 3971,
      "Ġfemale": 3972,
      "Ġdate": 3973,
      "ĠSol": 3974,
      "ĠSant": 3975,
      "ĠSummer": 3976,
      "ously": 3977,
      "dro": 3978,
      "Ð¸": 3979,
      "Ġ[": 3980,
      "Ġcou": 3981,
      "ĠReal": 3982,
      "ellig": 3983,
      "ĠGovernor": 3984,
      "Ġsn": 3985,
      "Ġcities": 3986,
      "ĠRevolution": 3987,
      "astic": 3988,
      "irm": 3989,
      "Ġconflict": 3990,
      "ĠMany": 3991,
      "Ġdiv": 3992,
      "Ġnature": 3993,
      "itors": 3994,
      "ĠCat": 3995,
      "ylvania": 3996,
      "Ġprob": 3997,
      "Ġachieve": 3998,
      "ĠJust": 3999,
      "Ġchemical": 4000,
      "yer": 4001,
      "Ġrecent": 4002,
      "Ġfront": 4003,
      "eria": 4004,
      "ss": 4005,
      "ĠMa": 4006,
      "ĠEdward": 4007,
      "Ġver": 4008,
      "den": 4009,
      "Ġ1963": 4010,
      "Ġproblem": 4011,
      "Ġearlier": 4012,
      "ĠDutch": 4013,
      "ĠLand": 4014,
      "ĠWin": 4015,
      "use": 4016,
      "ĠAv": 4017,
      "formation": 4018,
      "Ġenjoy": 4019,
      "ĠOff": 4020,
      "Ġdrug": 4021,
      "Ġsimply": 4022,
      "tained": 4023,
      "Ġelectric": 4024,
      "Category": 4025,
      "rought": 4026,
      "rd": 4027,
      "Ġsteps": 4028,
      "stitu": 4029,
      "Ġdivid": 4030,
      "ĠNot": 4031,
      "Ġcases": 4032,
      "oma": 4033,
      "Ġbur": 4034,
      "ĠBus": 4035,
      "bl": 4036,
      "ĠOh": 4037,
      "Ġfle": 4038,
      "ĠCamb": 4039,
      "Ġedition": 4040,
      "peror": 4041,
      "Ġchief": 4042,
      "Ġappearance": 4043,
      "Ġpolicy": 4044,
      "Ġsum": 4045,
      "ĠCle": 4046,
      "eder": 4047,
      "Ġplaced": 4048,
      "Ġrate": 4049,
      "Ġrequired": 4050,
      "Ġtrib": 4051,
      "ĠBo": 4052,
      "itted": 4053,
      "ĠAirport": 4054,
      "idents": 4055,
      "ĠSpain": 4056,
      "nds": 4057,
      "Ġ60": 4058,
      "Ġpick": 4059,
      "Ġmethods": 4060,
      "Ð°": 4061,
      "Ġpurpose": 4062,
      "Ġdaughter": 4063,
      "iring": 4064,
      "portun": 4065,
      "ĠRussia": 4066,
      "Ġprior": 4067,
      "Ġlif": 4068,
      "ĠArea": 4069,
      "Ġbattle": 4070,
      "Ġgive": 4071,
      "ĠIII": 4072,
      "Ġheavy": 4073,
      "cel": 4074,
      "Ġsay": 4075,
      "Ġpolitics": 4076,
      "Ġregions": 4077,
      "iance": 4078,
      "Ġcollect": 4079,
      "ione": 4080,
      "Ġ1920": 4081,
      "Ġmatch": 4082,
      "Ġsad": 4083,
      "Ġstudies": 4084,
      "Ġcommunities": 4085,
      "tion": 4086,
      "mond": 4087,
      "ĠFre": 4088,
      "Ġlatter": 4089,
      "ĠAccording": 4090,
      "state": 4091,
      "ny": 4092,
      "Ġanti": 4093,
      "BS": 4094,
      "Ġthr": 4095,
      "ette": 4096,
      "--": 4097,
      "rec": 4098,
      "):": 4099,
      "anned": 4100,
      "uments": 4101,
      "Ġsun": 4102,
      "ĠWind": 4103,
      "Ġscientific": 4104,
      "ita": 4105,
      "Ġinformed": 4106,
      "Ġadditional": 4107,
      "Ġlisted": 4108,
      "ĠAnn": 4109,
      "Ġnight": 4110,
      "Ġactivity": 4111,
      "ĠJoseph": 4112,
      "Ġmerg": 4113,
      "Ġimplement": 4114,
      "Ġera": 4115,
      "ĠCast": 4116,
      "Ġquant": 4117,
      "ĠRadio": 4118,
      "Ġhighly": 4119,
      "akers": 4120,
      "Ġ1962": 4121,
      "imb": 4122,
      "ĠSub": 4123,
      "oston": 4124,
      "isco": 4125,
      "Ġbusinesses": 4126,
      "ĠHot": 4127,
      "Ġunit": 4128,
      "ĠMain": 4129,
      "Ġincreased": 4130,
      "onto": 4131,
      "Ġbelong": 4132,
      "Ġbuildings": 4133,
      "Ġoperating": 4134,
      "Ġtask": 4135,
      ");": 4136,
      "ĠOver": 4137,
      "ĠIslands": 4138,
      "Ġbrief": 4139,
      "ĠForm": 4140,
      "iary": 4141,
      "Ġfootballer": 4142,
      "inem": 4143,
      "ĠHum": 4144,
      "Ġofficially": 4145,
      "ictionary": 4146,
      "ĠWood": 4147,
      "ĠFort": 4148,
      "Ġways": 4149,
      "Ġroom": 4150,
      "ĠClass": 4151,
      "Ġconcer": 4152,
      "ĠGeorg": 4153,
      "nic": 4154,
      "icine": 4155,
      "Ġoldest": 4156,
      "ĠProfess": 4157,
      "Ð¾": 4158,
      "Ġmole": 4159,
      "AS": 4160,
      "ributed": 4161,
      "org": 4162,
      "Ġlaunched": 4163,
      "met": 4164,
      "ropical": 4165,
      "rim": 4166,
      "ua": 4167,
      "Ġcard": 4168,
      "Ġended": 4169,
      "Ġdefined": 4170,
      "ĠTime": 4171,
      "Ġdomin": 4172,
      "ĠService": 4173,
      "uth": 4174,
      "Ġmakes": 4175,
      "zing": 4176,
      "Ġstarring": 4177,
      "Ġsport": 4178,
      "illa": 4179,
      "Ġvisual": 4180,
      "Lily": 4181,
      "Ġavoid": 4182,
      "ĠJr": 4183,
      "isation": 4184,
      "oretical": 4185,
      "ĠPen": 4186,
      "la": 4187,
      "Ġwhom": 4188,
      "Ġoil": 4189,
      "sylvania": 4190,
      "ĠBank": 4191,
      "ĠLord": 4192,
      "Ġstudied": 4193,
      "irit": 4194,
      "Ġlonger": 4195,
      "izes": 4196,
      "Ġregarded": 4197,
      "century": 4198,
      "Ġnine": 4199,
      "Ġ1948": 4200,
      "Ġspl": 4201,
      "ĠUs": 4202,
      "outheast": 4203,
      "Ġaspect": 4204,
      "ĠCoast": 4205,
      "Ġsens": 4206,
      "iced": 4207,
      "Ġrule": 4208,
      "bury": 4209,
      "Ġlove": 4210,
      "Ġchanged": 4211,
      "Ġaffil": 4212,
      "ĠGra": 4213,
      "oper": 4214,
      "ederation": 4215,
      "Ġmove": 4216,
      "ĠKn": 4217,
      "acing": 4218,
      "ishop": 4219,
      "Ġbirth": 4220,
      "ansas": 4221,
      "Ġsuff": 4222,
      "Ġdevices": 4223,
      "Ġeconomy": 4224,
      "Ġteacher": 4225,
      "Ġcomic": 4226,
      "Ġcricket": 4227,
      "ĠId": 4228,
      "ĠOper": 4229,
      "ĠBoston": 4230,
      "Ġ1947": 4231,
      "Ġrecords": 4232,
      "Ġthus": 4233,
      "Ġpath": 4234,
      "ĠPrime": 4235,
      "195": 4236,
      "Ġlevels": 4237,
      "ĠPan": 4238,
      "ĠPortug": 4239,
      "Ġbal": 4240,
      "Ġfinished": 4241,
      "Ġ1961": 4242,
      "Ġmight": 4243,
      "ĠSir": 4244,
      "Ġ1958": 4245,
      "Ġgreen": 4246,
      "Ġheart": 4247,
      "cyclop": 4248,
      "Ġgreatest": 4249,
      "Ġarr": 4250,
      "ĠArg": 4251,
      "Ġgovernor": 4252,
      "Ġcourse": 4253,
      "ĠPennsylvania": 4254,
      "Ġprogramming": 4255,
      "iny": 4256,
      "Ġforeign": 4257,
      "rich": 4258,
      "ĠBas": 4259,
      "Ġcommand": 4260,
      "Ġflag": 4261,
      "ittle": 4262,
      "amily": 4263,
      "agement": 4264,
      "ĠPolish": 4265,
      "western": 4266,
      "Ġrecognized": 4267,
      "Ġteach": 4268,
      "Ġconcepts": 4269,
      "Ġconstitu": 4270,
      "Ġsubs": 4271,
      "ĠBaseball": 4272,
      "ographic": 4273,
      "Ġexecutive": 4274,
      "Ġtarget": 4275,
      "Ġinstall": 4276,
      "Ġrat": 4277,
      "rog": 4278,
      "ĠCorporation": 4279,
      "Ġsafe": 4280,
      "pass": 4281,
      "Ġfict": 4282,
      "ĠLife": 4283,
      "ĠMot": 4284,
      "Ġdistance": 4285,
      "ares": 4286,
      "ĠOl": 4287,
      "Ġmusician": 4288,
      "ias": 4289,
      "ĠCarl": 4290,
      "Ġ1959": 4291,
      "Ġprofessor": 4292,
      "ĠJewish": 4293,
      "ĠNetwork": 4294,
      "ronom": 4295,
      "Ġannual": 4296,
      "eff": 4297,
      "Ġdecision": 4298,
      "ĠKent": 4299,
      "Ġblue": 4300,
      "Ġconserv": 4301,
      "Ġi": 4302,
      "Ġfounder": 4303,
      "itage": 4304,
      "actions": 4305,
      "olved": 4306,
      "ickn": 4307,
      "Ġranked": 4308,
      "ĠProdu": 4309,
      "Ġsoon": 4310,
      "Ġded": 4311,
      "Ġfamil": 4312,
      "Ġdiscovered": 4313,
      "ĠMartin": 4314,
      "Ġquickly": 4315,
      "Ġgained": 4316,
      "Ġclean": 4317,
      "Ġsecurity": 4318,
      "Ġcoin": 4319,
      "Ġvalues": 4320,
      "Ġbasketball": 4321,
      "Ġdevice": 4322,
      "Ġadded": 4323,
      "vement": 4324,
      "ĠSil": 4325,
      "Ġsubsequently": 4326,
      "ruck": 4327,
      "Ġserve": 4328,
      "Ġbaseball": 4329,
      "bec": 4330,
      "Ġcomplete": 4331,
      "Ġsearch": 4332,
      "Ġ1946": 4333,
      "Ġrules": 4334,
      "hens": 4335,
      "Ġclosed": 4336,
      "Ġarm": 4337,
      "Ġkilled": 4338,
      "Ġopportun": 4339,
      "Ġtakes": 4340,
      "Ġfields": 4341,
      "ĠLiberal": 4342,
      "ĠToronto": 4343,
      "iana": 4344,
      "Ġ1956": 4345,
      "ĠPrize": 4346,
      "ĠJud": 4347,
      "Ġaddress": 4348,
      "onym": 4349,
      "itation": 4350,
      "Ġapply": 4351,
      "At": 4352,
      "Ġcommission": 4353,
      "za": 4354,
      "Ġec": 4355,
      "ĠBob": 4356,
      "Ġpasseng": 4357,
      "isms": 4358,
      "Ġwoman": 4359,
      "Ġformat": 4360,
      "ultural": 4361,
      "Ġearned": 4362,
      "ĠUnivers": 4363,
      "Ġnominated": 4364,
      "Ġterritory": 4365,
      "Ġpack": 4366,
      "Ġ179": 4367,
      "ĠFe": 4368,
      "Ġ1944": 4369,
      "Ġspeed": 4370,
      "Ġbrought": 4371,
      "Ġdone": 4372,
      "Ġequipment": 4373,
      "ĠOrgan": 4374,
      "ady": 4375,
      "Ġeas": 4376,
      "ĠĠĠ": 4377,
      "Ġregional": 4378,
      "Sh": 4379,
      "etts": 4380,
      "produ": 4381,
      "ĠConf": 4382,
      "awa": 4383,
      "adel": 4384,
      "ĠAtlantic": 4385,
      "achus": 4386,
      "onse": 4387,
      "ĠDet": 4388,
      "wan": 4389,
      "Ġmission": 4390,
      "Ġpowerful": 4391,
      "Ġlies": 4392,
      "Ġcommunication": 4393,
      "pected": 4394,
      "Ġsucceeded": 4395,
      "His": 4396,
      "ĠEnter": 4397,
      "Ġunits": 4398,
      "Ġimage": 4399,
      "Ġinitially": 4400,
      "Ġderived": 4401,
      "light": 4402,
      "ĠOhio": 4403,
      "Ġelections": 4404,
      "Ġqual": 4405,
      "Ġcareful": 4406,
      "ĠMem": 4407,
      "ĠBoy": 4408,
      "Ġwhether": 4409,
      "Ġdiss": 4410,
      "Ġeffectively": 4411,
      "ĠMinn": 4412,
      "Ġfix": 4413,
      "Ġnoted": 4414,
      "erry": 4415,
      "CC": 4416,
      "Ġpow": 4417,
      "Ġbehavior": 4418,
      "Ġdefeated": 4419,
      "ait": 4420,
      "oles": 4421,
      "45": 4422,
      "ĠImport": 4423,
      "Ġlaws": 4424,
      "found": 4425,
      "ĠSwedish": 4426,
      "Ġ1957": 4427,
      "Ġ80": 4428,
      "ĠSecretary": 4429,
      "Ġdark": 4430,
      "ĠBi": 4431,
      "They": 4432,
      "Ġdirectly": 4433,
      "Ġdistribution": 4434,
      "ĠFred": 4435,
      "Ġcancer": 4436,
      "Ġstore": 4437,
      "ĠHon": 4438,
      "claim": 4439,
      "ĠRh": 4440,
      "Ġcook": 4441,
      "stra": 4442,
      "inger": 4443,
      "Ġfictional": 4444,
      "va": 4445,
      "Ġstudent": 4446,
      "Ġnation": 4447,
      "Ġarmy": 4448,
      "inally": 4449,
      "Ġlargely": 4450,
      "Ġobjects": 4451,
      "Ġindustrial": 4452,
      "When": 4453,
      "ato": 4454,
      "Ġaverage": 4455,
      "Ġsafety": 4456,
      "uty": 4457,
      "Ġspread": 4458,
      "âĢĿ": 4459,
      "35": 4460,
      "Ġacademic": 4461,
      "cles": 4462,
      "urd": 4463,
      "rate": 4464,
      "Ġcontroll": 4465,
      "Ġcontain": 4466,
      "ĠArts": 4467,
      "Ġgradu": 4468,
      "Ġnearly": 4469,
      "ĠRoute": 4470,
      "Ġdial": 4471,
      "Question": 4472,
      "ograp": 4473,
      "anguage": 4474,
      "ken": 4475,
      "imal": 4476,
      "rier": 4477,
      "ella": 4478,
      "Ġhockey": 4479,
      "Ġportray": 4480,
      "ĠOtt": 4481,
      "Ġregul": 4482,
      "chen": 4483,
      "Ġpressure": 4484,
      "aling": 4485,
      "ĠTre": 4486,
      "Ġcrucial": 4487,
      "ĠPop": 4488,
      "Ġincreasing": 4489,
      "Ġfifth": 4490,
      "Ġsus": 4491,
      "ĠLegisl": 4492,
      "Ġglobal": 4493,
      "ĠPlan": 4494,
      "Ġexcited": 4495,
      "Ġcenturies": 4496,
      "ying": 4497,
      "orph": 4498,
      "ĠPers": 4499,
      "Ġestate": 4500,
      "Ġcandidate": 4501,
      "Ġsense": 4502,
      "Ġsingles": 4503,
      "ĠChief": 4504,
      "Ġbra": 4505,
      "ĠOrig": 4506,
      "ĠEr": 4507,
      "Ġprec": 4508,
      "ĠDou": 4509,
      "Ġinstitut": 4510,
      "achusetts": 4511,
      "Ġinh": 4512,
      "Ġ1953": 4513,
      "Ġcart": 4514,
      "can": 4515,
      "rang": 4516,
      "care": 4517,
      "ta": 4518,
      "Ġ35": 4519,
      "ĠLong": 4520,
      "Ġmiddle": 4521,
      "ĠBudd": 4522,
      "ĠBoard": 4523,
      "cend": 4524,
      "ef": 4525,
      "war": 4526,
      "inition": 4527,
      "ĠAlbert": 4528,
      "restling": 4529,
      "ĠHealth": 4530,
      "Ġattention": 4531,
      "Ġstreng": 4532,
      "Ġtool": 4533,
      "istry": 4534,
      "Ġretire": 4535,
      "For": 4536,
      "Ġchampion": 4537,
      "Ġmer": 4538,
      "Ġtourn": 4539,
      "ĠRem": 4540,
      "Ġcontrovers": 4541,
      "fort": 4542,
      "Ġconcern": 4543,
      "arios": 4544,
      "imum": 4545,
      "nam": 4546,
      "oken": 4547,
      "ĠSat": 4548,
      "Ġ1949": 4549,
      "Ġideas": 4550,
      "Ġengineering": 4551,
      "Ġ1955": 4552,
      "Ġmatches": 4553,
      "Ġparliament": 4554,
      "udget": 4555,
      "Ġcondition": 4556,
      "ĠDevelopment": 4557,
      "Ġ1942": 4558,
      "Ġnovels": 4559,
      "Ex": 4560,
      "ĠRel": 4561,
      "Ġdistingu": 4562,
      "ĠBul": 4563,
      "ĠMassachusetts": 4564,
      "Ġnewspaper": 4565,
      "ĠEarl": 4566,
      "ĠHighway": 4567,
      "iful": 4568,
      "amin": 4569,
      "oday": 4570,
      "Ġapplication": 4571,
      "agon": 4572,
      "ĠÎ": 4573,
      "esota": 4574,
      "Ġ1952": 4575,
      "Ġdetermine": 4576,
      "Ġdaily": 4577,
      "ĠTri": 4578,
      "ĠGolden": 4579,
      "To": 4580,
      "ĠQueen": 4581,
      "Ġnort": 4582,
      "ustain": 4583,
      "Ġliber": 4584,
      "Ġcomponents": 4585,
      "Ġparties": 4586,
      "abinet": 4587,
      "inois": 4588,
      "uer": 4589,
      "ĠStan": 4590,
      "ault": 4591,
      "Ġadult": 4592,
      "ancy": 4593,
      "illing": 4594,
      "selves": 4595,
      "Ġdamage": 4596,
      "Ġprofession": 4597,
      "burgh": 4598,
      "Ġ1954": 4599,
      "ĠCam": 4600,
      "ĠVictoria": 4601,
      "book": 4602,
      "Ġcapac": 4603,
      "Ġlack": 4604,
      "ĠJim": 4605,
      "ĠFrancisco": 4606,
      "Ġdisplay": 4607,
      "Ġadvent": 4608,
      "Ġbasic": 4609,
      "Ġeval": 4610,
      "HL": 4611,
      "Ġhop": 4612,
      "riz": 4613,
      "Ġinvestig": 4614,
      "odd": 4615,
      "icted": 4616,
      "illy": 4617,
      "Ġthemselves": 4618,
      "Ġselected": 4619,
      "Ġcitiz": 4620,
      "ĠCro": 4621,
      "Ġcomes": 4622,
      "ky": 4623,
      "water": 4624,
      "Ġremain": 4625,
      "Ġdestroy": 4626,
      "ĠUse": 4627,
      "ais": 4628,
      "ĠTour": 4629,
      "ĠPhilipp": 4630,
      "Ġadapt": 4631,
      "Ġ1943": 4632,
      "ĠRos": 4633,
      "Ġbelow": 4634,
      "ĠMos": 4635,
      "range": 4636,
      "ĠRailway": 4637,
      "Ġdivided": 4638,
      "Ġpit": 4639,
      "Ġfunctions": 4640,
      "ĠKh": 4641,
      "Ġneighbor": 4642,
      "Ġflu": 4643,
      "Ġparish": 4644,
      "ban": 4645,
      "px": 4646,
      "Ġrecording": 4647,
      "ĠSqu": 4648,
      "Ġprocesses": 4649,
      "ĠMinnesota": 4650,
      "Ġurban": 4651,
      "udden": 4652,
      "ugby": 4653,
      "Le": 4654,
      "ĠSpr": 4655,
      "CO": 4656,
      "Ġintended": 4657,
      "perial": 4658,
      "real": 4659,
      "ĠMid": 4660,
      "Ġtried": 4661,
      "Ġinvent": 4662,
      "Ġawards": 4663,
      "Ġcam": 4664,
      "oir": 4665,
      "ati": 4666,
      "ĠJournal": 4667,
      "istical": 4668,
      "Ġtransmit": 4669,
      "ĠCensus": 4670,
      "esp": 4671,
      "Ġpict": 4672,
      "ogen": 4673,
      "Ġsenior": 4674,
      "Ġsolo": 4675,
      "75": 4676,
      "former": 4677,
      "ĠTop": 4678,
      "band": 4679,
      "Ġagric": 4680,
      "ĠMedia": 4681,
      "resp": 4682,
      "Ġx": 4683,
      "Ġalternative": 4684,
      "Ġshape": 4685,
      "world": 4686,
      "Ġ1941": 4687,
      "Ġaudience": 4688,
      "Ġdesignated": 4689,
      "Cl": 4690,
      "unction": 4691,
      "Ġsettle": 4692,
      "ĠAdm": 4693,
      "aria": 4694,
      "ĠTwo": 4695,
      "house": 4696,
      "Ġgarden": 4697,
      "ĠIran": 4698,
      "Ġprison": 4699,
      "ID": 4700,
      "Ġhug": 4701,
      "TA": 4702,
      "Ġprojects": 4703,
      "istance": 4704,
      "ĠDev": 4705,
      "Ġfoot": 4706,
      "ĠFederal": 4707,
      "Ġbasis": 4708,
      "Ġslow": 4709,
      "ĠKong": 4710,
      "ĠBig": 4711,
      "ĠMov": 4712,
      "Ġtrain": 4713,
      "ĠMember": 4714,
      "ĠCross": 4715,
      "ĠLee": 4716,
      "gg": 4717,
      "Ġtools": 4718,
      "Ġaim": 4719,
      "Ġ1951": 4720,
      "ĠMichigan": 4721,
      "Ġclassical": 4722,
      "Ġstarting": 4723,
      "Ġfranch": 4724,
      "Ġneeded": 4725,
      "Ġjournalist": 4726,
      "arters": 4727,
      "Ġmanaged": 4728,
      "Ġreviews": 4729,
      "Ġmunicipality": 4730,
      "een": 4731,
      "Ġclosely": 4732,
      "Ġnickn": 4733,
      "Ġlake": 4734,
      "Ġfrequently": 4735,
      "Ġmotor": 4736,
      "Ġappears": 4737,
      "alle": 4738,
      "Ġdance": 4739,
      "Ġcontemporary": 4740,
      "Ġappearances": 4741,
      "Ġillust": 4742,
      "Ġestimated": 4743,
      "aud": 4744,
      "ii": 4745,
      "ĠBre": 4746,
      "ĠGeorgia": 4747,
      "Ġportion": 4748,
      "thur": 4749,
      "ĠEconom": 4750,
      "teen": 4751,
      "Ġult": 4752,
      "Ġsales": 4753,
      "urer": 4754,
      "Ġsituated": 4755,
      "Ġconne": 4756,
      "Ġchannel": 4757,
      "Ġdefend": 4758,
      "ĠIllinois": 4759,
      "ĠGar": 4760,
      "orry": 4761,
      "ava": 4762,
      "kins": 4763,
      "heastern": 4764,
      "Ġpercent": 4765,
      "ĠPrem": 4766,
      "ĠRome": 4767,
      "Ġachieved": 4768,
      "gor": 4769,
      "Ġapproach": 4770,
      "Ġweb": 4771,
      "William": 4772,
      "Ġenvironmental": 4773,
      "oration": 4774,
      "umber": 4775,
      "ĠBet": 4776,
      "Ġremember": 4777,
      "vant": 4778,
      "Ġreform": 4779,
      "Ġpolice": 4780,
      "Don": 4781,
      "Ġbridge": 4782,
      "Ġcore": 4783,
      "Ġaccur": 4784,
      "Ġwild": 4785,
      "chester": 4786,
      "Ġracing": 4787,
      "Ġresponse": 4788,
      "ĠCur": 4789,
      "ening": 4790,
      "Ġstadium": 4791,
      "ĠSar": 4792,
      "Ġnecessary": 4793,
      "Ġsal": 4794,
      "ĠSong": 4795,
      "Ġdraft": 4796,
      "IA": 4797,
      "Ġtemperature": 4798,
      "Ðµ": 4799,
      "ospital": 4800,
      "ES": 4801,
      "igen": 4802,
      "iro": 4803,
      "Ġhonor": 4804,
      "adelph": 4805,
      "Ġtwice": 4806,
      "Ġstock": 4807,
      "Ġforest": 4808,
      "orders": 4809,
      "Ġ1939": 4810,
      "Ġconver": 4811,
      "ĠOcean": 4812,
      "ĠHung": 4813,
      "urance": 4814,
      "ila": 4815,
      "onia": 4816,
      "Ġcreation": 4817,
      "ĠStep": 4818,
      "Ġelectronic": 4819,
      "Ġbr": 4820,
      "Ġmoving": 4821,
      "Ġadopted": 4822,
      "encies": 4823,
      "Ġbelieved": 4824,
      "osis": 4825,
      "ĠYoung": 4826,
      "ĠLim": 4827,
      "ĠMen": 4828,
      "Ġsister": 4829,
      "Ġsupported": 4830,
      "ura": 4831,
      "Ġopera": 4832,
      "vest": 4833,
      "Ġpresented": 4834,
      "ĠPost": 4835,
      "Ġexhib": 4836,
      "Ġfounding": 4837,
      "odies": 4838,
      "ĠAff": 4839,
      "ĠGal": 4840,
      "Un": 4841,
      "ĠHel": 4842,
      "Ġven": 4843,
      "Ġovers": 4844,
      "ashion": 4845,
      "force": 4846,
      "ki": 4847,
      "ĠTenn": 4848,
      "Ġissue": 4849,
      "ĠEle": 4850,
      "ĠPractical": 4851,
      "ographer": 4852,
      "oral": 4853,
      "ĠMom": 4854,
      "Ġdidn": 4855,
      "Ġcovered": 4856,
      "Ġliterary": 4857,
      "nes": 4858,
      "Ġharm": 4859,
      "usion": 4860,
      "adelphia": 4861,
      "Ġliked": 4862,
      "ĠWomen": 4863,
      "anda": 4864,
      "estic": 4865,
      "Ġchallenges": 4866,
      "Ġtable": 4867,
      "ption": 4868,
      "Ġsimple": 4869,
      "Ġenough": 4870,
      "Ġdirection": 4871,
      "ĠColor": 4872,
      "throp": 4873,
      "Ġallowed": 4874,
      "ĠRepresentatives": 4875,
      "elligence": 4876,
      "Ġcarry": 4877,
      "ĠChampionships": 4878,
      "ĠâĢľ": 4879,
      "Ġrot": 4880,
      "Ġsynt": 4881,
      "Ġvocal": 4882,
      "ĠPakistan": 4883,
      "ube": 4884,
      "Ġentered": 4885,
      "ipe": 4886,
      "Ġvote": 4887,
      "May": 4888,
      "Ġacting": 4889,
      "ching": 4890,
      "ĠShow": 4891,
      "ĠQuebec": 4892,
      "osh": 4893,
      "Ġalongside": 4894,
      "arp": 4895,
      "44": 4896,
      "Ġfolk": 4897,
      "enant": 4898,
      "ĠHy": 4899,
      "ĠPubl": 4900,
      "Ġmuseum": 4901,
      "ĠNations": 4902,
      "uan": 4903,
      "rect": 4904,
      "cest": 4905,
      "ĠViet": 4906,
      "Ġrare": 4907,
      "ĠThat": 4908,
      "abeth": 4909,
      "Ġairport": 4910,
      "resh": 4911,
      "ĠWater": 4912,
      "ĠNFL": 4913,
      "Ġeat": 4914,
      "una": 4915,
      "ĠBillboard": 4916,
      "Ġrepresenting": 4917,
      "ĠJul": 4918,
      "AF": 4919,
      "ĠConst": 4920,
      "Ġnearby": 4921,
      "Ġbass": 4922,
      "Ġ#": 4923,
      "Ġcampus": 4924,
      "Ġbirds": 4925,
      "ĠTro": 4926,
      "Ġsyn": 4927,
      "Ġmale": 4928,
      "Ġnuclear": 4929,
      "Ad": 4930,
      "amil": 4931,
      "Ġseek": 4932,
      "Ġvictory": 4933,
      "itable": 4934,
      "rong": 4935,
      "Ġcovers": 4936,
      "orship": 4937,
      "esh": 4938,
      "Ġcontrast": 4939,
      "Ġacquired": 4940,
      "ela": 4941,
      "stein": 4942,
      "New": 4943,
      "Ġcustomers": 4944,
      "IS": 4945,
      "DP": 4946,
      "ĠGood": 4947,
      "ĠDi": 4948,
      "Ġox": 4949,
      "ĠPhiladelphia": 4950,
      "ĠWars": 4951,
      "more": 4952,
      "ador": 4953,
      "imens": 4954,
      "Ġ+": 4955,
      "Ġdeveloping": 4956,
      "ishes": 4957,
      "Ġstructures": 4958,
      "enty": 4959,
      "ilding": 4960,
      "respond": 4961,
      "ctoral": 4962,
      "Ġgoing": 4963,
      "ĠDictionary": 4964,
      "ĠUk": 4965,
      "Ġlikely": 4966,
      "ĠMur": 4967,
      "aped": 4968,
      "Ġdrop": 4969,
      "Ġut": 4970,
      "inos": 4971,
      "ĠFestival": 4972,
      "ĠChap": 4973,
      "ech": 4974,
      "thing": 4975,
      "Ġtalk": 4976,
      "Ġinfluential": 4977,
      "Ġholds": 4978,
      "Ġmovie": 4979,
      "life": 4980,
      "ĠTw": 4981,
      "Ġscholars": 4982,
      "ĠMo": 4983,
      "Ġfeed": 4984,
      "Ġfru": 4985,
      "39": 4986,
      "Ġstaff": 4987,
      "Ġrenamed": 4988,
      "Ġpaint": 4989,
      "uge": 4990,
      "ĠHockey": 4991,
      "poses": 4992,
      "ĠBlue": 4993,
      "ĠJackson": 4994,
      "Ġarchitecture": 4995,
      "Ġoperation": 4996,
      "ĠConservative": 4997,
      "Ġbear": 4998,
      "Ġowner": 4999,
      "Ġheard": 5000,
      "Ġpoly": 5001,
      "Ġjazz": 5002,
      "Ġmathematics": 5003,
      "Ġ70": 5004,
      "Ġreported": 5005,
      "Ġcontinue": 5006,
      "Ġopening": 5007,
      "PA": 5008,
      "Let": 5009,
      "Ġwhole": 5010,
      "Ġtoys": 5011,
      "Ġsilver": 5012,
      "ĠWay": 5013,
      "ĠEvery": 5014,
      "Ġcombined": 5015,
      "Ġtall": 5016,
      "ĠEncyclop": 5017,
      "inus": 5018,
      "lines": 5019,
      "Ġcalcul": 5020,
      "ructed": 5021,
      "leep": 5022,
      "ĠUr": 5023,
      "Ġpolic": 5024,
      "ucky": 5025,
      "Ġoccurs": 5026,
      "Ġdynasty": 5027,
      "Ġtrees": 5028,
      "Ġmicro": 5029,
      "Ġwhy": 5030,
      "Ġyellow": 5031,
      "36": 5032,
      "ĠHong": 5033,
      "edd": 5034,
      "secut": 5035,
      "ifically": 5036,
      "Ġnotably": 5037,
      "Ġpractical": 5038,
      "Ġgain": 5039,
      "undred": 5040,
      "Ġpartn": 5041,
      "Ġmixed": 5042,
      "Ġarts": 5043,
      "Ġunion": 5044,
      "press": 5045,
      "Ġscared": 5046,
      "Ge": 5047,
      "wealth": 5048,
      "ĠIndust": 5049,
      "Ġretirement": 5050,
      "Be": 5051,
      "Ġinfluenced": 5052,
      "Ġanimal": 5053,
      "Ġroll": 5054,
      "Ġcompeted": 5055,
      "Ġattend": 5056,
      "Ġhighway": 5057,
      "Ġpione": 5058,
      "World": 5059,
      "Ġlawyer": 5060,
      "ĠLabour": 5061,
      "Ġ/": 5062,
      "Ġsummer": 5063,
      "ĠJo": 5064,
      "Ġtradition": 5065,
      "ĠÂ": 5066,
      "ĠBridge": 5067,
      "ĠPrince": 5068,
      "Ġadvoc": 5069,
      "obe": 5070,
      "oba": 5071,
      "ĠWeb": 5072,
      "ĠTownship": 5073,
      "ĠSpace": 5074,
      "Ġtow": 5075,
      "ca": 5076,
      "Ġcars": 5077,
      "TO": 5078,
      "ĠElect": 5079,
      "ĠYour": 5080,
      "aska": 5081,
      "Ġpoor": 5082,
      "Ġislands": 5083,
      "Ġplanning": 5084,
      "ĠFollowing": 5085,
      "Ġtold": 5086,
      "Ġtechnique": 5087,
      "Ġversions": 5088,
      "ĠBusiness": 5089,
      "nding": 5090,
      "Ġcapacity": 5091,
      "Ġconduct": 5092,
      "urning": 5093,
      "48": 5094,
      "Ġpassed": 5095,
      "ĠSports": 5096,
      "38": 5097,
      "ansion": 5098,
      "Ġpreserv": 5099,
      "Ġpeace": 5100,
      "Ġesc": 5101,
      "Ġweight": 5102,
      "ĠMexican": 5103,
      "ĠCE": 5104,
      "ĠLabor": 5105,
      "riage": 5106,
      "Ġpiece": 5107,
      "Ġupper": 5108,
      "Ġships": 5109,
      "www": 5110,
      "otic": 5111,
      "ĠGame": 5112,
      "Ġbelief": 5113,
      "Ġdecades": 5114,
      "Ġhistoric": 5115,
      "ĠNether": 5116,
      "Ġexpress": 5117,
      "Ġhydro": 5118,
      "Ġadap": 5119,
      "ĠAlexander": 5120,
      "Mar": 5121,
      "phy": 5122,
      "RA": 5123,
      "ading": 5124,
      "weet": 5125,
      "uable": 5126,
      "ologies": 5127,
      "Ġbring": 5128,
      "ĠGram": 5129,
      "Ġspect": 5130,
      "Ġuns": 5131,
      "47": 5132,
      "37": 5133,
      "Ġdipl": 5134,
      "Ġvary": 5135,
      "Ġ178": 5136,
      "Ġprice": 5137,
      "ĠConcept": 5138,
      "Ġmulti": 5139,
      "ĠBoth": 5140,
      "ĠOrder": 5141,
      "ĠWrit": 5142,
      "Ġrecently": 5143,
      "aceae": 5144,
      "Ġsymbol": 5145,
      "wegian": 5146,
      "Ġrelatively": 5147,
      "Ġorganized": 5148,
      "Ġpan": 5149,
      "Ġmaster": 5150,
      "antasy": 5151,
      "Ġfavor": 5152,
      "Ġknew": 5153,
      "ĠCambridge": 5154,
      "Ġtrue": 5155,
      "Ġfair": 5156,
      "ĠLittle": 5157,
      "ĠVer": 5158,
      "Ġdescript": 5159,
      "Ġpromote": 5160,
      "ging": 5161,
      "ĠWild": 5162,
      "ĠOk": 5163,
      "Ġoperates": 5164,
      "Ġdetect": 5165,
      "ribute": 5166,
      "ĠOpen": 5167,
      "Ġbad": 5168,
      "ĠPoland": 5169,
      "Ġsand": 5170,
      "weight": 5171,
      "Ġdepartment": 5172,
      "Ġscript": 5173,
      "ĠDisney": 5174,
      "Ġformation": 5175,
      "MS": 5176,
      "Ġphilosophy": 5177,
      "Ġsexual": 5178,
      "Ġmiles": 5179,
      "\"),": 5180,
      "Ġcritics": 5181,
      "Ġprinciples": 5182,
      "ĠAdditionally": 5183,
      "Ġdouble": 5184,
      "insula": 5185,
      "Ġcontext": 5186,
      "Ġoffers": 5187,
      "ĠProvince": 5188,
      "edom": 5189,
      "yes": 5190,
      "Ġmax": 5191,
      "Ġproposed": 5192,
      "ĠIndepend": 5193,
      "Ġuser": 5194,
      "dney": 5195,
      "ĠArgent": 5196,
      "Ġtele": 5197,
      "Ġrapid": 5198,
      "Ġchoose": 5199,
      "Ġgun": 5200,
      "Ġcharg": 5201,
      "ordin": 5202,
      "Ġwear": 5203,
      "rapy": 5204,
      "Ġindependence": 5205,
      "Ġinvestment": 5206,
      "Ġsurrounding": 5207,
      "oura": 5208,
      "etime": 5209,
      "Ġcorrespond": 5210,
      "ĠPo": 5211,
      "ĠLove": 5212,
      "ali": 5213,
      "ĠPict": 5214,
      "Ġhyp": 5215,
      "Ġgrant": 5216,
      "Ġseats": 5217,
      "Ġchain": 5218,
      "ĠNorway": 5219,
      "Ġmyth": 5220,
      "ieval": 5221,
      "Ġmommy": 5222,
      "Ġsplit": 5223,
      "Ġshared": 5224,
      "avig": 5225,
      "Ġtraffic": 5226,
      "ĠCard": 5227,
      "ĠMuslim": 5228,
      "ĠFox": 5229,
      "vis": 5230,
      "iat": 5231,
      "izabeth": 5232,
      "indu": 5233,
      "ĠSweden": 5234,
      "aby": 5235,
      "Ġtoy": 5236,
      "ĠCommonwealth": 5237,
      "Ġfranchise": 5238,
      "Ġhours": 5239,
      "rac": 5240,
      "ighter": 5241,
      "Ġ1936": 5242,
      "ĠMah": 5243,
      "Ġusers": 5244,
      "Ġmonth": 5245,
      "Ġcounter": 5246,
      "Ġheat": 5247,
      "Ġethnic": 5248,
      "49": 5249,
      "ĠJones": 5250,
      "Ġextended": 5251,
      "Ġspoken": 5252,
      "ĠCy": 5253,
      "46": 5254,
      "Ġgreater": 5255,
      "Ġsty": 5256,
      "Ġinitial": 5257,
      "Ġcorn": 5258,
      "Ġemot": 5259,
      "US": 5260,
      "Ġfort": 5261,
      "Ġdivers": 5262,
      "Ġfought": 5263,
      "During": 5264,
      "Ġadministrative": 5265,
      "ogue": 5266,
      "Ġ500": 5267,
      "Ġconcent": 5268,
      "Ġmachine": 5269,
      "ga": 5270,
      "ĠCorn": 5271,
      "ĠFour": 5272,
      "utation": 5273,
      "Ġimmed": 5274,
      "gend": 5275,
      "ieut": 5276,
      "Ġfamilies": 5277,
      "ĠProt": 5278,
      "Ġmodels": 5279,
      "Ġcarried": 5280,
      "Ġthinking": 5281,
      "pret": 5282,
      "rant": 5283,
      "uts": 5284,
      "ĠJohnson": 5285,
      "Ġpoll": 5286,
      "Ġaired": 5287,
      "ĠTelevision": 5288,
      "Pro": 5289,
      "ĠWall": 5290,
      "ĠTeam": 5291,
      "pri": 5292,
      "Ġweap": 5293,
      "file": 5294,
      "Ġextend": 5295,
      "anga": 5296,
      "Ġastronom": 5297,
      "cluding": 5298,
      "Ġheav": 5299,
      "ĠKenn": 5300,
      "Ġflight": 5301,
      "Ġolder": 5302,
      "wing": 5303,
      "Ġraised": 5304,
      "Ġelev": 5305,
      "Ġhumans": 5306,
      "ora": 5307,
      "ĠWat": 5308,
      "rence": 5309,
      "Ġcomment": 5310,
      "ĠAsian": 5311,
      "Ġbeautiful": 5312,
      "Ġhabit": 5313,
      "ception": 5314,
      "Ġrequires": 5315,
      "Ġemb": 5316,
      "100": 5317,
      "ML": 5318,
      "Ġkept": 5319,
      "Ġlongest": 5320,
      "ĠStand": 5321,
      "ĠEp": 5322,
      "apers": 5323,
      "Ġprime": 5324,
      "Ġparents": 5325,
      "Ġadministration": 5326,
      "Ġbillion": 5327,
      "inistry": 5328,
      "ĠEnd": 5329,
      "Ġgoods": 5330,
      "ih": 5331,
      "Ġfollows": 5332,
      "Ġdescribe": 5333,
      "ĠSund": 5334,
      "ĠâĢĶ": 5335,
      "Ġfirm": 5336,
      "ĠWal": 5337,
      "ulpt": 5338,
      "Ġelement": 5339,
      "Ġbudget": 5340,
      "ĠAvenue": 5341,
      "Ġrelationships": 5342,
      "ĠOffice": 5343,
      "come": 5344,
      "ĠLibrary": 5345,
      "Ph": 5346,
      "Ġ1938": 5347,
      "itzer": 5348,
      "ĠNetherlands": 5349,
      "Ġrang": 5350,
      "Ġincome": 5351,
      "Ġ),": 5352,
      "Ġtechnical": 5353,
      "ĠNorwegian": 5354,
      "Ġthreat": 5355,
      "emic": 5356,
      "Ġsomeone": 5357,
      "Ġsupply": 5358,
      "Ġthank": 5359,
      "ĠProgram": 5360,
      "yo": 5361,
      "Ġhands": 5362,
      "ĠBrook": 5363,
      "Ġreign": 5364,
      "eller": 5365,
      "Ġ**": 5366,
      "ĠMountains": 5367,
      "Ġinnov": 5368,
      "ĠNaz": 5369,
      "oln": 5370,
      "aka": 5371,
      "Ġallowing": 5372,
      "Ġpurs": 5373,
      "ĠWilliams": 5374,
      "Ġlicens": 5375,
      "ession": 5376,
      "ĠWho": 5377,
      "Ġreference": 5378,
      "Ġhosted": 5379,
      "ounds": 5380,
      "ĠCharl": 5381,
      "Ġleadership": 5382,
      "aled": 5383,
      "Ġpra": 5384,
      "Ġtropical": 5385,
      "OS": 5386,
      "ĠCub": 5387,
      "Ġrough": 5388,
      "Ġleaves": 5389,
      "Ġstream": 5390,
      "ĠSu": 5391,
      "ĠSupreme": 5392,
      "Ġefficient": 5393,
      "Ġgenre": 5394,
      "ypes": 5395,
      "ĠJac": 5396,
      "Ġmatter": 5397,
      "Ġreplace": 5398,
      "ters": 5399,
      "ĠLy": 5400,
      "Ġreflect": 5401,
      "Ġvehicles": 5402,
      "aniel": 5403,
      "hist": 5404,
      "Ġproced": 5405,
      "Ġpractices": 5406,
      "Ġconnected": 5407,
      "Ed": 5408,
      "ĠMu": 5409,
      "ĠSydney": 5410,
      "Is": 5411,
      "ĠTreat": 5412,
      "ieutenant": 5413,
      "Ã¸": 5414,
      "Ġcompris": 5415,
      "ĠTit": 5416,
      "Ġcrime": 5417,
      "orage": 5418,
      "Ġconsisting": 5419,
      "Ġdepart": 5420,
      "Ġvehicle": 5421,
      "Ġadvert": 5422,
      "ĠBern": 5423,
      "orney": 5424,
      "Ġsupporting": 5425,
      "Ġprincipal": 5426,
      "Ġpil": 5427,
      "venth": 5428,
      "bu": 5429,
      "ĠOs": 5430,
      "uddenly": 5431,
      "ĠEngine": 5432,
      "Ġactions": 5433,
      "Ġpet": 5434,
      "ĠKe": 5435,
      "rm": 5436,
      "Ġrespectively": 5437,
      "Ġvac": 5438,
      "Ġjoint": 5439,
      "Ġepisodes": 5440,
      "Ġir": 5441,
      "ĠCre": 5442,
      "ifying": 5443,
      "Ġprovincial": 5444,
      "65": 5445,
      "Ġprefer": 5446,
      "Ġauthority": 5447,
      "Ġimages": 5448,
      "Ġrecip": 5449,
      "Ġidentity": 5450,
      "ader": 5451,
      "Ġjur": 5452,
      "From": 5453,
      "Ġpieces": 5454,
      "ĠKorea": 5455,
      "Ġguitarist": 5456,
      "Ġresulting": 5457,
      "room": 5458,
      "ĠUN": 5459,
      "ogy": 5460,
      "iano": 5461,
      "Ġremaining": 5462,
      "Ġpresidential": 5463,
      "Fran": 5464,
      "Ġ1937": 5465,
      "Ġidentified": 5466,
      "Ġfigures": 5467,
      "ĠCa": 5468,
      "ĠMr": 5469,
      "ĠJes": 5470,
      "Ġmemory": 5471,
      "ĠDan": 5472,
      "align": 5473,
      "Ġcert": 5474,
      "ĠBerlin": 5475,
      "htt": 5476,
      "Ġsetting": 5477,
      "Ġskin": 5478,
      "Born": 5479,
      "vey": 5480,
      "Ġvirt": 5481,
      "MA": 5482,
      "Ġbright": 5483,
      "place": 5484,
      "ĠSand": 5485,
      "Ġefforts": 5486,
      "Ð½": 5487,
      "pon": 5488,
      "Ġplaces": 5489,
      "Ġarticles": 5490,
      "rizona": 5491,
      "ully": 5492,
      "Ġlabor": 5493,
      "ĠAge": 5494,
      "ronze": 5495,
      "Ġspirit": 5496,
      "ensity": 5497,
      "ownt": 5498,
      "ĠDie": 5499,
      "Ġchairman": 5500,
      "31": 5501,
      "top": 5502,
      "Ġcauses": 5503,
      "ĠPower": 5504,
      "ĠMcC": 5505,
      "gorith": 5506,
      "95": 5507,
      "Ġsubsid": 5508,
      "Ġmedicine": 5509,
      "Ġpresence": 5510,
      "brev": 5511,
      "Ġinducted": 5512,
      "ooth": 5513,
      "Ġrain": 5514,
      "Ġassociation": 5515,
      "Ġletter": 5516,
      "ĠLegislative": 5517,
      "yal": 5518,
      "Ġcycl": 5519,
      "Ġpainter": 5520,
      "Ġbeg": 5521,
      "ĠFer": 5522,
      "ĠEll": 5523,
      "Ġexperiences": 5524,
      "ĠHuman": 5525,
      "ĠBalt": 5526,
      "ĠFar": 5527,
      "ennis": 5528,
      "ĠTem": 5529,
      "utions": 5530,
      "Ġaspects": 5531,
      "ker": 5532,
      "Ġcredited": 5533,
      "set": 5534,
      "Ġdoll": 5535,
      "ĠUl": 5536,
      "Ġlooking": 5537,
      "Ġtheatre": 5538,
      "grad": 5539,
      "Ġexpanded": 5540,
      "Ġadapted": 5541,
      "ĠVan": 5542,
      "Ġperman": 5543,
      "Ġattended": 5544,
      "ĠVen": 5545,
      "ager": 5546,
      "Ġcong": 5547,
      "ĠGall": 5548,
      "ĠFoundation": 5549,
      "ready": 5550,
      "atab": 5551,
      "EC": 5552,
      "olis": 5553,
      "Ġfailed": 5554,
      "Ġfr": 5555,
      "Ġstreet": 5556,
      "ĠModern": 5557,
      "with": 5558,
      "Ġeye": 5559,
      "Ġselect": 5560,
      "Ġbow": 5561,
      "Ġforward": 5562,
      "Ġstandards": 5563,
      "li": 5564,
      "ĠDuke": 5565,
      "Ġrom": 5566,
      "which": 5567,
      "Ġtournament": 5568,
      "uls": 5569,
      "ighth": 5570,
      "Ġstra": 5571,
      "Ġ45": 5572,
      "Ġreligion": 5573,
      "Ġperm": 5574,
      "Ġinspired": 5575,
      "hire": 5576,
      "ĠAndrew": 5577,
      "Ġphen": 5578,
      "ĠKansas": 5579,
      "Ġhistorian": 5580,
      "Ġrepe": 5581,
      "ĠMicro": 5582,
      "Ġsubsequent": 5583,
      "ÑĢ": 5584,
      "Ġcompl": 5585,
      "Ġreceive": 5586,
      "stream": 5587,
      "Ġ1935": 5588,
      "ĠInternet": 5589,
      "But": 5590,
      "Ġswim": 5591,
      "ĠCrit": 5592,
      "ĠArizona": 5593,
      "Ġturned": 5594,
      "ĠNA": 5595,
      "Ġclassified": 5596,
      "Ġreason": 5597,
      "Bl": 5598,
      "ĠWill": 5599,
      "Ġindic": 5600,
      "Ġpurposes": 5601,
      "32": 5602,
      "stone": 5603,
      "sex": 5604,
      "Ġleaving": 5605,
      "Ġpal": 5606,
      "Ġextra": 5607,
      "ĠEst": 5608,
      "Ġseg": 5609,
      "gal": 5610,
      "Ġmedium": 5611,
      "aya": 5612,
      "bell": 5613,
      "ĠAst": 5614,
      "Ġcoal": 5615,
      "Ġdedicated": 5616,
      "ĠJoe": 5617,
      "ĠDirector": 5618,
      "Ġ1933": 5619,
      "ĠJustice": 5620,
      "ĠFle": 5621,
      "Ġdriver": 5622,
      "Ġvaluable": 5623,
      "Ġinstitutions": 5624,
      "ĠField": 5625,
      "ĠJer": 5626,
      "Ġemp": 5627,
      "ĊĠ": 5628,
      "Ġbands": 5629,
      "emy": 5630,
      "Ġpremi": 5631,
      "Ġpolicies": 5632,
      "And": 5633,
      "34": 5634,
      "bourne": 5635,
      "Ġdiplom": 5636,
      "Ġvon": 5637,
      "rator": 5638,
      "ĠAD": 5639,
      "imin": 5640,
      "Ġshown": 5641,
      "iform": 5642,
      "inson": 5643,
      "ĠJean": 5644,
      "Ġfacilities": 5645,
      "Ġflowers": 5646,
      "ĠRegion": 5647,
      "Dav": 5648,
      "mun": 5649,
      "Ġ38": 5650,
      "ĠBal": 5651,
      "Ġshop": 5652,
      "ĠTechnology": 5653,
      "Ġcontinues": 5654,
      "ĠLew": 5655,
      "Ġmel": 5656,
      "mas": 5657,
      ";\"": 5658,
      "ĠStation": 5659,
      "Ġpoetry": 5660,
      "Ġfloor": 5661,
      "...": 5662,
      "Ġsustain": 5663,
      "ĠThree": 5664,
      "Ġdeal": 5665,
      "Ġopposition": 5666,
      "urrican": 5667,
      "Ġstarred": 5668,
      "oes": 5669,
      "Ġhere": 5670,
      "Ġanimated": 5671,
      "Ġceleb": 5672,
      "ulated": 5673,
      "ĠCommons": 5674,
      "Ġmotion": 5675,
      "essee": 5676,
      "ĠToday": 5677,
      "iency": 5678,
      "Ġhair": 5679,
      "ĠCop": 5680,
      "76": 5681,
      "ĠManagement": 5682,
      "ĠCentre": 5683,
      "Ġsolid": 5684,
      "active": 5685,
      "ĠReview": 5686,
      "ĠElizabeth": 5687,
      "Ġmention": 5688,
      "rees": 5689,
      "ĠGh": 5690,
      "Ġfit": 5691,
      "Ġapprec": 5692,
      "cts": 5693,
      "oom": 5694,
      "iminal": 5695,
      "ĠAnna": 5696,
      "Ġsignal": 5697,
      "ructure": 5698,
      "Ġliqu": 5699,
      "Ġ1918": 5700,
      "iling": 5701,
      "190": 5702,
      "'m": 5703,
      "ĠManit": 5704,
      "Ġadvant": 5705,
      "sen": 5706,
      "Ġformal": 5707,
      "Ġcontact": 5708,
      "incoln": 5709,
      "500": 5710,
      "Ġattra": 5711,
      "ĠIslamic": 5712,
      "olid": 5713,
      "ĠKen": 5714,
      "Ġprotection": 5715,
      "Ġcitizens": 5716,
      "Ġfellow": 5717,
      "icon": 5718,
      "Ġforced": 5719,
      "Ġacid": 5720,
      "Ġdomestic": 5721,
      "Sp": 5722,
      "Ġprep": 5723,
      "Ġequal": 5724,
      "Ġrise": 5725,
      "Ġweeks": 5726,
      "Ġheadquarters": 5727,
      "Ġregist": 5728,
      "Ġsculpt": 5729,
      "Ġmarketing": 5730,
      "Ġdemonst": 5731,
      "Ġexerc": 5732,
      "oted": 5733,
      "ĠEmperor": 5734,
      "2000": 5735,
      "lav": 5736,
      "Ġgrowing": 5737,
      "iy": 5738,
      "ĠHome": 5739,
      "ĠTheatre": 5740,
      "uter": 5741,
      "Ġgrew": 5742,
      "Ġsure": 5743,
      "Ġfile": 5744,
      "ĠRay": 5745,
      "term": 5746,
      "ĠChild": 5747,
      "2005": 5748,
      "Ġscore": 5749,
      "Ġ1922": 5750,
      "ĠSus": 5751,
      "Ġcannot": 5752,
      "Ġexam": 5753,
      "ĠGlossary": 5754,
      "Gen": 5755,
      "Ġsquare": 5756,
      "eman": 5757,
      "ibly": 5758,
      "Ġ1934": 5759,
      "Ġoppos": 5760,
      "Ġequival": 5761,
      "TC": 5762,
      "Ġple": 5763,
      "ĠHor": 5764,
      "ĠNight": 5765,
      "mann": 5766,
      "antic": 5767,
      "Ġanalyze": 5768,
      "Ġnegative": 5769,
      "iral": 5770,
      "ba": 5771,
      "Ġcarbon": 5772,
      "iger": 5773,
      "ĠColorado": 5774,
      "ĠTok": 5775,
      "ĠImportance": 5776,
      "Ġtail": 5777,
      "lywood": 5778,
      "ĠHere": 5779,
      "Ġvoc": 5780,
      "ĠPolit": 5781,
      "Ġdry": 5782,
      "ĠTennessee": 5783,
      "Ġbrain": 5784,
      "Ġmis": 5785,
      "August": 5786,
      "ĠNorm": 5787,
      "Ġcombination": 5788,
      "Ġmill": 5789,
      "gu": 5790,
      "Ġpositions": 5791,
      "ĠPremier": 5792,
      "Ġperformances": 5793,
      "Ġtrust": 5794,
      "Ġtheor": 5795,
      "Ġ1932": 5796,
      "Ġwinner": 5797,
      "phas": 5798,
      "pton": 5799,
      "ĠEntertainment": 5800,
      "apes": 5801,
      "unior": 5802,
      "Ġbackground": 5803,
      "omer": 5804,
      "Ġcerem": 5805,
      "ĠStock": 5806,
      "Ġsail": 5807,
      "ĠConference": 5808,
      "Ġhundred": 5809,
      "78": 5810,
      "Ġmental": 5811,
      "Ġskill": 5812,
      "Ġvolume": 5813,
      "Ġreduced": 5814,
      "What": 5815,
      "IC": 5816,
      "Ġcouncil": 5817,
      "Ġbat": 5818,
      "Ġgrass": 5819,
      "Ġamb": 5820,
      "vin": 5821,
      "ĠPit": 5822,
      "ocol": 5823,
      "Ġcompared": 5824,
      "Ġassum": 5825,
      "resents": 5826,
      "Ġuseful": 5827,
      "ĠMore": 5828,
      "ĠHa": 5829,
      "Ġalready": 5830,
      "ieties": 5831,
      "ĠBell": 5832,
      "Ġsixth": 5833,
      "Ġsemi": 5834,
      "Ġinterpret": 5835,
      "ightly": 5836,
      "ĠProfessor": 5837,
      "icks": 5838,
      "Ġresulted": 5839,
      "Ġ36": 5840,
      "Ġspecifically": 5841,
      "enz": 5842,
      "ĠCommunity": 5843,
      "iable": 5844,
      "Ġdistributed": 5845,
      "Ġquestions": 5846,
      "ĠList": 5847,
      "uese": 5848,
      "Ġathlet": 5849,
      "Ġrestrict": 5850,
      "Sc": 5851,
      "Ġvess": 5852,
      "orter": 5853,
      "ouri": 5854,
      "Ġinterests": 5855,
      "Ġfashion": 5856,
      "ĠAk": 5857,
      "contin": 5858,
      "ĠClark": 5859,
      "Ġhealthcare": 5860,
      "ĠSanta": 5861,
      "Ġmarked": 5862,
      "ĠMaryland": 5863,
      "ĠBon": 5864,
      "ĠFI": 5865,
      "__": 5866,
      "Ġrepresents": 5867,
      "ĠBang": 5868,
      "Ġsky": 5869,
      "ĠManitoba": 5870,
      "ĠUSA": 5871,
      "ĠBowl": 5872,
      "ĠRom": 5873,
      "Ġsuppl": 5874,
      "Ġ1929": 5875,
      "Ġcomponent": 5876,
      "Ġconstructed": 5877,
      "ĠBooks": 5878,
      "ĠLight": 5879,
      "We": 5880,
      "ource": 5881,
      "Ġgeneration": 5882,
      "Ġimpl": 5883,
      "enny": 5884,
      "ĠFederation": 5885,
      "chers": 5886,
      "ĠForest": 5887,
      "Ġextensive": 5888,
      "Ġfresh": 5889,
      "Ġdescend": 5890,
      "Ġspons": 5891,
      "ender": 5892,
      "Ġcolumn": 5893,
      "Ġpainting": 5894,
      "Ġwrite": 5895,
      "ĠGuard": 5896,
      "yan": 5897,
      "March": 5898,
      "ĠProject": 5899,
      "alled": 5900,
      "ographical": 5901,
      "You": 5902,
      "Ġnut": 5903,
      "Ġfeaturing": 5904,
      "Ġreading": 5905,
      "load": 5906,
      "Ġthous": 5907,
      "cular": 5908,
      "Ġearliest": 5909,
      "ĠDun": 5910,
      "ĠDesign": 5911,
      "James": 5912,
      "MP": 5913,
      "Ġattract": 5914,
      "igg": 5915,
      "heim": 5916,
      "osen": 5917,
      "ĠFore": 5918,
      "Ġtrains": 5919,
      "ĠSpecial": 5920,
      "Ġitems": 5921,
      "Ġcheck": 5922,
      "where": 5923,
      "ĠAffairs": 5924,
      "Ġlyr": 5925,
      "ĠEs": 5926,
      "Ġminutes": 5927,
      "Ġnarrow": 5928,
      "Ġmind": 5929,
      "mosp": 5930,
      "Ġfinally": 5931,
      "Ġmur": 5932,
      "ĠFree": 5933,
      "ĠDiscuss": 5934,
      "Ġbomb": 5935,
      "Ġdead": 5936,
      "ĠThen": 5937,
      "ocated": 5938,
      "Ġ1927": 5939,
      "acent": 5940,
      "Ġcho": 5941,
      "ĠJeff": 5942,
      "orning": 5943,
      "Ġroyal": 5944,
      "Ġresident": 5945,
      "Ġ1919": 5946,
      "Ġcomed": 5947,
      "ĠHan": 5948,
      "Ġscored": 5949,
      "zech": 5950,
      "Ġalgorith": 5951,
      "Ġconstituency": 5952,
      "Ġdra": 5953,
      "ĠChannel": 5954,
      "ĠMountain": 5955,
      "Ġoccurred": 5956,
      "Tom": 5957,
      "igenous": 5958,
      "Ġopportunities": 5959,
      "Ġtend": 5960,
      "ĠLes": 5961,
      "inity": 5962,
      "Ġtheme": 5963,
      "Ġcosts": 5964,
      "99": 5965,
      "ĠArthur": 5966,
      "ĠAtt": 5967,
      "down": 5968,
      "ype": 5969,
      "ima": 5970,
      "ĠAz": 5971,
      "Ġspin": 5972,
      "ĠKorean": 5973,
      "hesis": 5974,
      "Ġring": 5975,
      "prise": 5976,
      "Ġbed": 5977,
      "Ġscale": 5978,
      "xts": 5979,
      "pet": 5980,
      "Nov": 5981,
      "Ġdad": 5982,
      "Ġsatell": 5983,
      "owntown": 5984,
      "Ġstrugg": 5985,
      "ira": 5986,
      "ĠConstitution": 5987,
      "Ġ90": 5988,
      "Ġepisode": 5989,
      "ĠLater": 5990,
      "amber": 5991,
      "Ġexperim": 5992,
      "bo": 5993,
      "Ġexchange": 5994,
      "key": 5995,
      "mad": 5996,
      "ĠColl": 5997,
      "Ġdesigns": 5998,
      "Ġoccasion": 5999,
      "ĠMetropolitan": 6000,
      "ĠFinn": 6001,
      "ĠStadium": 6002,
      "Ġnormal": 6003,
      "Ġwarm": 6004,
      "Ġpair": 6005,
      "ĠCirc": 6006,
      "Ġwealth": 6007,
      "wise": 6008,
      "Ġfat": 6009,
      "Ġdeliver": 6010,
      "ommend": 6011,
      "Ġinternal": 6012,
      "Ġcool": 6013,
      "ĠJane": 6014,
      "seud": 6015,
      "Ġshoot": 6016,
      "Ġclaimed": 6017,
      "ĠLeon": 6018,
      "Ġclubs": 6019,
      "LA": 6020,
      "Ġfly": 6021,
      "ecause": 6022,
      "Ġrecognition": 6023,
      "Ġpatterns": 6024,
      "arry": 6025,
      "ilton": 6026,
      "Ġlot": 6027,
      "Ġ1924": 6028,
      "larg": 6029,
      "Ġmouth": 6030,
      "Ġdistricts": 6031,
      "Ġpopularity": 6032,
      "Ġ1928": 6033,
      "Ġ1917": 6034,
      "43": 6035,
      "see": 6036,
      "Ġphysics": 6037,
      "42": 6038,
      "Ġbasics": 6039,
      "ĠHarris": 6040,
      "Ñģ": 6041,
      "mouth": 6042,
      "ĠComics": 6043,
      "2004": 6044,
      "ĠLincoln": 6045,
      "Ġ1931": 6046,
      "Her": 6047,
      "Ġbit": 6048,
      "Ġgiving": 6049,
      "Ġbusinessman": 6050,
      "Ġeld": 6051,
      "ottom": 6052,
      "sey": 6053,
      "Ġalign": 6054,
      "Ġcontributions": 6055,
      "eding": 6056,
      "wa": 6057,
      "Ġhouses": 6058,
      "orge": 6059,
      "Ġrob": 6060,
      "ĠMarsh": 6061,
      "list": 6062,
      "uration": 6063,
      "Ġcharge": 6064,
      "Ġbond": 6065,
      "Robert": 6066,
      "Ġmanufacturing": 6067,
      "Ġmunicipal": 6068,
      "Ġcharacteristics": 6069,
      "ĠInst": 6070,
      "ĠStudies": 6071,
      "ĠHead": 6072,
      "Ġdespite": 6073,
      "ĠDespite": 6074,
      "Ġfell": 6075,
      "Ġprotein": 6076,
      "uerto": 6077,
      "ĠRog": 6078,
      "Ġrecover": 6079,
      "Ġleaders": 6080,
      "inking": 6081,
      "Ġremembered": 6082,
      "Ġmap": 6083,
      "raq": 6084,
      "ko": 6085,
      "Ġclimate": 6086,
      "such": 6087,
      "ĠEach": 6088,
      "Ġcolors": 6089,
      "Am": 6090,
      "77": 6091,
      "ĠTay": 6092,
      "Ġmig": 6093,
      "Ġacts": 6094,
      "ĠBh": 6095,
      "ĠIndones": 6096,
      "ĠSa": 6097,
      "Ġphr": 6098,
      "ĠFair": 6099,
      "Ġquestion": 6100,
      "Ġreasons": 6101,
      "othing": 6102,
      "mission": 6103,
      "gar": 6104,
      "Ġemphas": 6105,
      "Can": 6106,
      "Ġheight": 6107,
      "ĠAsh": 6108,
      "Ġcontaining": 6109,
      "Ju": 6110,
      "ĠQueens": 6111,
      "Ġconstitut": 6112,
      "Ġreserv": 6113,
      "ĠPhilippines": 6114,
      "Ġhar": 6115,
      "ĠLuc": 6116,
      "Ġmarriage": 6117,
      "Ġhorse": 6118,
      "Ġconducted": 6119,
      "ĠDec": 6120,
      "Ġshot": 6121,
      "ctic": 6122,
      "\").": 6123,
      "ĠGree": 6124,
      "Ġpublication": 6125,
      "Ġdiagn": 6126,
      "ĠSom": 6127,
      "ĠRam": 6128,
      "Ġtim": 6129,
      "amic": 6130,
      "million": 6131,
      "Ġ1921": 6132,
      "ĠWilson": 6133,
      "Ġvan": 6134,
      "Ġyounger": 6135,
      "kin": 6136,
      "2006": 6137,
      "ĠVietnam": 6138,
      "Ġcinem": 6139,
      "Ġnavig": 6140,
      "organ": 6141,
      "Ġglass": 6142,
      "elly": 6143,
      "55": 6144,
      "ĠBeach": 6145,
      "Ġfully": 6146,
      "Ġquarter": 6147,
      "Ġstorm": 6148,
      "ĠNBA": 6149,
      "SP": 6150,
      "ĠCzech": 6151,
      "Ġmanage": 6152,
      "racy": 6153,
      "aren": 6154,
      "Ġeveryone": 6155,
      "Ġagreement": 6156,
      "ski": 6157,
      "run": 6158,
      "ĠNob": 6159,
      "Ġcoming": 6160,
      "Ġinterview": 6161,
      "Ġrural": 6162,
      "aith": 6163,
      "acter": 6164,
      "Ġrestaur": 6165,
      "66": 6166,
      "ĠWindows": 6167,
      "bro": 6168,
      "iga": 6169,
      "ĠEth": 6170,
      "akh": 6171,
      "ĠOf": 6172,
      "apore": 6173,
      "Ġprobably": 6174,
      "Ġexisting": 6175,
      "Ġcomposition": 6176,
      "iants": 6177,
      "Ġexistence": 6178,
      "atures": 6179,
      "Ġbul": 6180,
      "ĠPortuguese": 6181,
      "ĠMoon": 6182,
      "ĠDNA": 6183,
      "Ġcounties": 6184,
      "Ġelectrical": 6185,
      "Ġnorthwest": 6186,
      "Ġfuel": 6187,
      "Ġscholar": 6188,
      "Ġopposed": 6189,
      "ĠLike": 6190,
      "aph": 6191,
      "erb": 6192,
      "Ġneighborhood": 6193,
      "Ġevolution": 6194,
      "Ġcorpor": 6195,
      "Ġinstrument": 6196,
      "erick": 6197,
      "Ġwave": 6198,
      "ptoms": 6199,
      "ĠHawai": 6200,
      "Ġsongwriter": 6201,
      "Ġmedieval": 6202,
      "41": 6203,
      "Ġcopies": 6204,
      "no": 6205,
      "antly": 6206,
      "ja": 6207,
      "ĠMic": 6208,
      "rip": 6209,
      "Ġdifference": 6210,
      "Ġrevolution": 6211,
      "hetic": 6212,
      "Ġdiam": 6213,
      "Ġdepending": 6214,
      "Ġremoved": 6215,
      "Ġaccessed": 6216,
      "Ġholding": 6217,
      "ancing": 6218,
      "ayer": 6219,
      "Ġmerged": 6220,
      "secutive": 6221,
      "Ġones": 6222,
      "ĠLet": 6223,
      "center": 6224,
      "ws": 6225,
      "Ġcateg": 6226,
      "Ġbutter": 6227,
      "Ġappearing": 6228,
      "January": 6229,
      "ĠManchester": 6230,
      "Ġpatients": 6231,
      "soft": 6232,
      "Ġissued": 6233,
      "Ġaer": 6234,
      "from": 6235,
      "ĠBol": 6236,
      "ugar": 6237,
      "Ġmonarch": 6238,
      "rine": 6239,
      "elle": 6240,
      "ĠJan": 6241,
      "aming": 6242,
      "Ġsets": 6243,
      "Ġinstruments": 6244,
      "Ġserious": 6245,
      "Ġassistant": 6246,
      "alo": 6247,
      "Ġperforming": 6248,
      "regon": 6249,
      "ĠPuerto": 6250,
      "Ġhero": 6251,
      "ĠSciences": 6252,
      "Ġveget": 6253,
      "Ġplot": 6254,
      "Ġbuy": 6255,
      "October": 6256,
      "Ġegg": 6257,
      "Ġtaught": 6258,
      "Ġrecommend": 6259,
      "Ġeducational": 6260,
      "aug": 6261,
      "Ġcouldn": 6262,
      "Ġtiss": 6263,
      "Ġ1926": 6264,
      "ĠMissouri": 6265,
      "usband": 6266,
      "Ġproud": 6267,
      "aven": 6268,
      "AR": 6269,
      "ello": 6270,
      "ĠBelg": 6271,
      "ji": 6272,
      "ĠCD": 6273,
      "prene": 6274,
      "Ġcombat": 6275,
      "Ġmut": 6276,
      "ĠTerrit": 6277,
      "reprene": 6278,
      "ĠGreece": 6279,
      "Ġdecor": 6280,
      "hyth": 6281,
      "worth": 6282,
      "Ġemployees": 6283,
      "Ġdeclared": 6284,
      "Ġtowns": 6285,
      "ĠAlb": 6286,
      "fred": 6287,
      "Ġsites": 6288,
      "Ġscene": 6289,
      "Ġsurg": 6290,
      "oly": 6291,
      "ĠConcepts": 6292,
      "Ġexpansion": 6293,
      "roit": 6294,
      "Ġfocused": 6295,
      "zy": 6296,
      "Ġ1914": 6297,
      "Ġpun": 6298,
      "Deb": 6299,
      "Ġ1900": 6300,
      "des": 6301,
      "ĠYorkshire": 6302,
      "Ġdialect": 6303,
      "ĠCreek": 6304,
      "Ġincorporated": 6305,
      "Ġax": 6306,
      "Ġcorrect": 6307,
      "Ġearth": 6308,
      "Ġlimit": 6309,
      "ĠMun": 6310,
      "Ġpatient": 6311,
      "Ġnob": 6312,
      "Ġoccas": 6313,
      "Ġaudio": 6314,
      "Ġeyes": 6315,
      "ĠAthlet": 6316,
      "April": 6317,
      "ĠKar": 6318,
      "September": 6319,
      "ĠAmericans": 6320,
      "rupt": 6321,
      "Ġresear": 6322,
      "Ġeasily": 6323,
      "Ġborough": 6324,
      "ĠNap": 6325,
      "ureau": 6326,
      "Ġregularly": 6327,
      "chestra": 6328,
      "Ġflat": 6329,
      "Ġcustomer": 6330,
      "Ġadvanced": 6331,
      "enses": 6332,
      "Ġtransportation": 6333,
      "antry": 6334,
      "Ġoffices": 6335,
      "No": 6336,
      "Ġetc": 6337,
      "Ġmurder": 6338,
      "Ġlat": 6339,
      "Ġstorage": 6340,
      "Ġsynd": 6341,
      "ĠTransport": 6342,
      "van": 6343,
      "December": 6344,
      "Ġatmosp": 6345,
      "eline": 6346,
      "Ġtherefore": 6347,
      "By": 6348,
      "gn": 6349,
      "July": 6350,
      "85": 6351,
      "ĠBir": 6352,
      "Ġ1910": 6353,
      "TS": 6354,
      "ĠMontreal": 6355,
      "Ġprint": 6356,
      "Ġsequence": 6357,
      "ER": 6358,
      "ĠBand": 6359,
      "David": 6360,
      "inth": 6361,
      "Ġwine": 6362,
      "ĠTai": 6363,
      "Ġ1923": 6364,
      "ĠPrim": 6365,
      "ĠSecurity": 6366,
      "ĠABC": 6367,
      "odox": 6368,
      "Ġcaptain": 6369,
      "Ġkingdom": 6370,
      "Ġing": 6371,
      "lyn": 6372,
      "Ġopin": 6373,
      "Ġoffered": 6374,
      "ĠSingapore": 6375,
      "Ġplans": 6376,
      "equ": 6377,
      "Ġmathematical": 6378,
      "Ġstyles": 6379,
      "lete": 6380,
      "Ġsecondary": 6381,
      "Ġparticipated": 6382,
      "allel": 6383,
      "Ġacclaim": 6384,
      "AC": 6385,
      "bi": 6386,
      "Ġcompar": 6387,
      "Ġmobile": 6388,
      "Ġperfect": 6389,
      "Ġgeomet": 6390,
      "Ġtasks": 6391,
      "ĠEncyclopedia": 6392,
      "osm": 6393,
      "profit": 6394,
      "Ġ39": 6395,
      "Ġbrown": 6396,
      "Ġnetworks": 6397,
      "ragon": 6398,
      "Ġphilosopher": 6399,
      "osa": 6400,
      "ÑĤ": 6401,
      "Ġhistorically": 6402,
      "ĠPass": 6403,
      "2007": 6404,
      "Ġapparent": 6405,
      "ĠDig": 6406,
      "Ġbatt": 6407,
      "Ġmayor": 6408,
      "ĠStephen": 6409,
      "Ġcontrolled": 6410,
      "aved": 6411,
      "ĠCastle": 6412,
      "ĠCape": 6413,
      "iac": 6414,
      "Ġsides": 6415,
      "Ġreaction": 6416,
      "ĠIraq": 6417,
      "ĠJesus": 6418,
      "All": 6419,
      "Â°": 6420,
      "ĠCas": 6421,
      "Ġsecret": 6422,
      "ears": 6423,
      "ĠHindu": 6424,
      "Ġabbrev": 6425,
      "Ġagent": 6426,
      "2003": 6427,
      "Ġphenomen": 6428,
      "Ġfer": 6429,
      "Ġdisp": 6430,
      "Ġplanet": 6431,
      "Ġeasy": 6432,
      "Ġvent": 6433,
      "Ġlett": 6434,
      "veland": 6435,
      "ĠHou": 6436,
      "Ġancest": 6437,
      "Ġsoil": 6438,
      "Ġdescribes": 6439,
      "Ġproducing": 6440,
      "PS": 6441,
      "iar": 6442,
      "glas": 6443,
      "Ġcommissioned": 6444,
      "umes": 6445,
      "Ġcharacterized": 6446,
      "ĠJoh": 6447,
      "Ġjourn": 6448,
      "Ġimmig": 6449,
      "ĠMississ": 6450,
      "Ġbronze": 6451,
      "elve": 6452,
      "Ġweather": 6453,
      "Ġflows": 6454,
      "ĠHollywood": 6455,
      "ĠHistoric": 6456,
      "Ġapplying": 6457,
      "ĠAdminist": 6458,
      "issance": 6459,
      "',": 6460,
      "icketer": 6461,
      "Ġresidents": 6462,
      "Ġedge": 6463,
      "ĠRod": 6464,
      "Ġwall": 6465,
      "Ġconsequ": 6466,
      "unte": 6467,
      "ĠAnton": 6468,
      "Ġtranslated": 6469,
      "Ġequivalent": 6470,
      "king": 6471,
      "ĠEc": 6472,
      "Ġwriters": 6473,
      "Ġlandsc": 6474,
      "Ġanalyzing": 6475,
      "car": 6476,
      "ĠArm": 6477,
      "Ġsettlement": 6478,
      "irty": 6479,
      "Ġhtt": 6480,
      "Ġrepresentative": 6481,
      "Ġnortheast": 6482,
      "Ġnoise": 6483,
      "ĠWinter": 6484,
      "ois": 6485,
      "ĠKey": 6486,
      "Ġconsecutive": 6487,
      "hedul": 6488,
      "Ġelectron": 6489,
      "Ġ32": 6490,
      "ippi": 6491,
      "itled": 6492,
      "Ġbran": 6493,
      "Ġ1925": 6494,
      "Ġdiseases": 6495,
      "ĠUt": 6496,
      "Ġlyrics": 6497,
      "Ġsouthwest": 6498,
      "ocese": 6499,
      "Ġreputation": 6500,
      "November": 6501,
      "June": 6502,
      "gebra": 6503,
      "Ġstrength": 6504,
      "hess": 6505,
      "icing": 6506,
      "Ġmetropolitan": 6507,
      "fficient": 6508,
      "Ġstress": 6509,
      "ĠHeritage": 6510,
      "aks": 6511,
      "Ġstrategies": 6512,
      "Ġtheat": 6513,
      "Ġclaims": 6514,
      "Ġbodies": 6515,
      "Ġarchae": 6516,
      "formerly": 6517,
      "raine": 6518,
      "ĠPur": 6519,
      "ĠDanish": 6520,
      "Ġdemand": 6521,
      "Ġtitled": 6522,
      "ĠBarb": 6523,
      "Ġflav": 6524,
      "ÅĤ": 6525,
      "Ġriding": 6526,
      "Ġbriefly": 6527,
      "Ġconnection": 6528,
      "isf": 6529,
      "Ġdetails": 6530,
      "Ġvice": 6531,
      "ori": 6532,
      "Ġgraduated": 6533,
      "Ġhealthy": 6534,
      "Ġsoutheast": 6535,
      "ĠKentucky": 6536,
      "Ġpowers": 6537,
      "ĠBrad": 6538,
      "Ġbey": 6539,
      "Ġinse": 6540,
      "Pl": 6541,
      "ture": 6542,
      "olly": 6543,
      "ĠDC": 6544,
      "Ġpup": 6545,
      "ĠHun": 6546,
      "Ġdang": 6547,
      "Ġmessage": 6548,
      "emeter": 6549,
      "Ġdefinition": 6550,
      "pool": 6551,
      "wich": 6552,
      "Ġsole": 6553,
      "ĠVill": 6554,
      "ĠIndiana": 6555,
      "Ġsurvey": 6556,
      "Ġretail": 6557,
      "ĠImperial": 6558,
      "Although": 6559,
      "Ġadjacent": 6560,
      "ĠNic": 6561,
      "Ġmeasures": 6562,
      "oa": 6563,
      "wick": 6564,
      "Ġcycle": 6565,
      "ĠOregon": 6566,
      "Ġaccomp": 6567,
      "uther": 6568,
      "ĠBat": 6569,
      "Ġtransform": 6570,
      "ĠMarket": 6571,
      "da": 6572,
      "Ġworkers": 6573,
      "Ġcabinet": 6574,
      "Ġsequel": 6575,
      "Ġdrum": 6576,
      "related": 6577,
      "86": 6578,
      "Ġsleep": 6579,
      "Ġpassenger": 6580,
      "ĠPhys": 6581,
      "elsh": 6582,
      "Ġjudge": 6583,
      "ĠMelbourne": 6584,
      "keep": 6585,
      "ĠServices": 6586,
      "coh": 6587,
      "Ġoriginated": 6588,
      "ĠFrancis": 6589,
      "Ġbeyond": 6590,
      "mat": 6591,
      "ĠHoly": 6592,
      "ĠMetro": 6593,
      "Ġcategory": 6594,
      "Ġhusband": 6595,
      "Ġyouth": 6596,
      "Ġappropri": 6597,
      "Ġkit": 6598,
      "ĠThrough": 6599,
      "hors": 6600,
      "Ġsorry": 6601,
      "Ġcelebr": 6602,
      "ĠSum": 6603,
      "Ġgives": 6604,
      "Ġreducing": 6605,
      "Ġfram": 6606,
      "Ġengineer": 6607,
      "Ġdocuments": 6608,
      "atabase": 6609,
      "urricane": 6610,
      "including": 6611,
      "ĠFamily": 6612,
      "Ġvo": 6613,
      "Ġdefeat": 6614,
      "Ġfacility": 6615,
      "ĠInformation": 6616,
      "Ġcold": 6617,
      "ĠWalk": 6618,
      "Ġtroops": 6619,
      "Ġarms": 6620,
      "Ġchosen": 6621,
      "79": 6622,
      "ĠSever": 6623,
      "ĠDetroit": 6624,
      "Ġtruck": 6625,
      "Ġdegrees": 6626,
      "inals": 6627,
      "Ġaccepted": 6628,
      "thony": 6629,
      "Ġcolonial": 6630,
      "Ġpromoted": 6631,
      "Ġtransferred": 6632,
      "Since": 6633,
      "don": 6634,
      "ctors": 6635,
      "ĠAnother": 6636,
      "iately": 6637,
      "ĠOffic": 6638,
      "Ġlingu": 6639,
      "Ġpublisher": 6640,
      "uster": 6641,
      "Ġspot": 6642,
      "ĠSher": 6643,
      "ĠCO": 6644,
      "Ġshowed": 6645,
      "ĠConfeder": 6646,
      "Ġcup": 6647,
      "abet": 6648,
      "February": 6649,
      "Ġexclus": 6650,
      "73": 6651,
      "Ġsuccessor": 6652,
      "ĠTypes": 6653,
      "Ġoperate": 6654,
      "haps": 6655,
      "hum": 6656,
      "Ġwinter": 6657,
      "level": 6658,
      "Some": 6659,
      "ĠCountry": 6660,
      "Ġruled": 6661,
      "Acc": 6662,
      "aked": 6663,
      "rete": 6664,
      "omot": 6665,
      "Ġlocations": 6666,
      "2001": 6667,
      "El": 6668,
      "ifications": 6669,
      "artered": 6670,
      "idge": 6671,
      "ĠHal": 6672,
      "ĠWhe": 6673,
      "emetery": 6674,
      "Ġspeech": 6675,
      "mes": 6676,
      "ĠForces": 6677,
      "ĠMir": 6678,
      "Ġcontribute": 6679,
      "ĠCleveland": 6680,
      "ĠRang": 6681,
      "Ġinvolve": 6682,
      "Ġboat": 6683,
      "Ġtank": 6684,
      "Ġroughly": 6685,
      "ĠJon": 6686,
      "Ġfixed": 6687,
      "Ġletters": 6688,
      "ĠSym": 6689,
      "Ġteaching": 6690,
      "ateur": 6691,
      "ĠStr": 6692,
      "ads": 6693,
      "Ġgenetic": 6694,
      "Ġwidesp": 6695,
      "Ġwidespread": 6696,
      "ĊĠĠĠ": 6697,
      "ĠUpper": 6698,
      "Ġexpression": 6699,
      "Ġjuris": 6700,
      "Ġresistance": 6701,
      "Ġmovements": 6702,
      "ĠChair": 6703,
      "Ġsnow": 6704,
      "tenance": 6705,
      "ĠHay": 6706,
      "Ġinfection": 6707,
      "ĠSab": 6708,
      "ĠTony": 6709,
      "ĠLewis": 6710,
      "Ġcontributed": 6711,
      "Ġaccident": 6712,
      "ĠMedal": 6713,
      "``": 6714,
      "Ġmusicians": 6715,
      "Ġcomplet": 6716,
      "Ġelectoral": 6717,
      "Ġextinct": 6718,
      "Ġstores": 6719,
      "ccessful": 6720,
      "oured": 6721,
      "Ġrugby": 6722,
      "2002": 6723,
      "ĠIdent": 6724,
      "lets": 6725,
      "Ġresigned": 6726,
      "Ġcricketer": 6727,
      "onsin": 6728,
      "erald": 6729,
      "ĠJose": 6730,
      "ĠBefore": 6731,
      "Ġstrategy": 6732,
      "Ġleave": 6733,
      "Ġwithd": 6734,
      "iot": 6735,
      "vard": 6736,
      "Ġfeet": 6737,
      "Ġprocessing": 6738,
      "ceived": 6739,
      "Questions": 6740,
      "Ġtouch": 6741,
      "rome": 6742,
      "Ġbalance": 6743,
      "ĠFront": 6744,
      "Ġclassification": 6745,
      "IT": 6746,
      "Ġcrew": 6747,
      "swers": 6748,
      "law": 6749,
      "ĠGirl": 6750,
      "ĠEarly": 6751,
      "ĠAtlanta": 6752,
      "ellation": 6753,
      "ĠScen": 6754,
      "Ġfighting": 6755,
      "74": 6756,
      "Ġdress": 6757,
      "aret": 6758,
      "isconsin": 6759,
      "Ġ1912": 6760,
      "inction": 6761,
      "Ġhits": 6762,
      "ĠMaster": 6763,
      "Ġtwenty": 6764,
      "Î±": 6765,
      "Ġplanned": 6766,
      "Ġgovernments": 6767,
      "Ġintroduction": 6768,
      "Ġsubsidiary": 6769,
      "Ġengines": 6770,
      "ĠCorps": 6771,
      "rix": 6772,
      "Ġtopics": 6773,
      "Ġinstitution": 6774,
      "uis": 6775,
      "Ġremov": 6776,
      "ĠConnect": 6777,
      "Ġreaching": 6778,
      "ĠPeninsula": 6779,
      "72": 6780,
      "ĠBorn": 6781,
      "Ġevalu": 6782,
      "ĠGrammy": 6783,
      "ĠWrestling": 6784,
      "Ġwaters": 6785,
      "Ġdoub": 6786,
      "Ġce": 6787,
      "Ġrequirements": 6788,
      "SO": 6789,
      "inder": 6790,
      "Ġble": 6791,
      "Ġprol": 6792,
      "Ġcriminal": 6793,
      "ĠBru": 6794,
      "Ġthemes": 6795,
      "Ġclassic": 6796,
      "Ġdrive": 6797,
      "Ġpoem": 6798,
      "SR": 6799,
      "Ġintelligence": 6800,
      "ĠOb": 6801,
      "Ġstrip": 6802,
      "Ġsteel": 6803,
      "Ġpartner": 6804,
      "ĠTaylor": 6805,
      "Ġcredit": 6806,
      "ĠReport": 6807,
      "Ġpersonality": 6808,
      "Ġnegot": 6809,
      "agan": 6810,
      "Ġconqu": 6811,
      "ĠRegional": 6812,
      "Ġrates": 6813,
      "ulate": 6814,
      "Ġfailure": 6815,
      "orer": 6816,
      "ĠVis": 6817,
      "ĠBall": 6818,
      "ova": 6819,
      "enge": 6820,
      "oster": 6821,
      "Ġnomination": 6822,
      "Ġlicensed": 6823,
      "2008": 6824,
      "Ġtraditions": 6825,
      "Ġliquid": 6826,
      "ĠNBC": 6827,
      "ĠCricket": 6828,
      "ĠMississippi": 6829,
      "Ġ1915": 6830,
      "88": 6831,
      "Ġuniversities": 6832,
      "achel": 6833,
      "Re": 6834,
      "Ġsac": 6835,
      "Ġdoing": 6836,
      "Ġinhabit": 6837,
      "ĠForeign": 6838,
      "à¤": 6839,
      "64": 6840,
      "eek": 6841,
      "ĠSet": 6842,
      "ĠDam": 6843,
      "Ġfruit": 6844,
      "vements": 6845,
      "ĠPier": 6846,
      "Ġagency": 6847,
      "Ġdifferences": 6848,
      "Ġstudying": 6849,
      "Ġsolution": 6850,
      "Ġentertainment": 6851,
      "How": 6852,
      "hing": 6853,
      "Ġarrest": 6854,
      "2010": 6855,
      "Ġscenarios": 6856,
      "Ġdecre": 6857,
      "Ġplate": 6858,
      "cop": 6859,
      "thodox": 6860,
      "sur": 6861,
      "Ġjum": 6862,
      "ĠConvention": 6863,
      "Ġheavily": 6864,
      "Ġreve": 6865,
      "adow": 6866,
      "ĠHart": 6867,
      "Ġstudios": 6868,
      "ĠMill": 6869,
      "Ġassigned": 6870,
      "Ġgod": 6871,
      "erse": 6872,
      "Ġtrial": 6873,
      "Ġplatforms": 6874,
      "Ġupd": 6875,
      "ĠBa": 6876,
      "ĠHard": 6877,
      "III": 6878,
      "aste": 6879,
      "Ġdiverse": 6880,
      "ĠWisconsin": 6881,
      "ĠSelf": 6882,
      "ache": 6883,
      "Ġindustries": 6884,
      "Ġvotes": 6885,
      "rin": 6886,
      "ĠMaria": 6887,
      "Tim": 6888,
      "Ġstated": 6889,
      "Ġ65": 6890,
      "Ġiron": 6891,
      "Ġdistinguished": 6892,
      "Ġmaintained": 6893,
      "Ġmeeting": 6894,
      "Ġcollaboration": 6895,
      "ĠInf": 6896,
      "phone": 6897,
      "Ġsymptoms": 6898,
      "ifican": 6899,
      "Ġkil": 6900,
      "ghan": 6901,
      "Ġcultures": 6902,
      "ĠBrazilian": 6903,
      "?**": 6904,
      "Ð¾Ð": 6905,
      "ĠLiter": 6906,
      "Comm": 6907,
      "ĠDown": 6908,
      "ĠKir": 6909,
      "Ġpicture": 6910,
      "Ġstret": 6911,
      "olph": 6912,
      "lers": 6913,
      "otan": 6914,
      "ĠStone": 6915,
      "Î¿": 6916,
      "Ġpages": 6917,
      "imore": 6918,
      "aine": 6919,
      "Ġjustice": 6920,
      "intend": 6921,
      "onder": 6922,
      "Ġprogress": 6923,
      "ificance": 6924,
      "ĠCost": 6925,
      "Ġinvasion": 6926,
      "ĠPhilip": 6927,
      "uous": 6928,
      "ĠBureau": 6929,
      "Ġ1916": 6930,
      "Ġvisible": 6931,
      "ĠHills": 6932,
      "Ġcoordin": 6933,
      "Ġentry": 6934,
      "ector": 6935,
      "span": 6936,
      "Ġhugged": 6937,
      "ĠDar": 6938,
      "Ġpron": 6939,
      "ĠMP": 6940,
      "Ġyet": 6941,
      "Ġconcert": 6942,
      "ĠStory": 6943,
      "oen": 6944,
      "ĠIV": 6945,
      "ĠNatural": 6946,
      "Mich": 6947,
      "ĠData": 6948,
      "ĠFire": 6949,
      "ĠOnce": 6950,
      "Ġmentioned": 6951,
      "IV": 6952,
      "Ġabsor": 6953,
      "Ġliberal": 6954,
      "Ġmaximum": 6955,
      "Ġpermanent": 6956,
      "Ġunknown": 6957,
      "Ġdesigner": 6958,
      "Ġfeeling": 6959,
      "Ġultimately": 6960,
      "ĠPC": 6961,
      "ĠLt": 6962,
      "Ġtraditionally": 6963,
      "Ġwalking": 6964,
      "Ġonto": 6965,
      "Ġ1908": 6966,
      "Ġperspect": 6967,
      "ĠCare": 6968,
      "Ġnaval": 6969,
      "Ġportrayed": 6970,
      "ĠMemorial": 6971,
      "boy": 6972,
      "Ġrose": 6973,
      "ĠAustria": 6974,
      "Ġrepresentation": 6975,
      "Ġslightly": 6976,
      "Ġentirely": 6977,
      "ardens": 6978,
      "ĠTurkey": 6979,
      "rance": 6980,
      "Ġrelative": 6981,
      "Ġmanaging": 6982,
      "Ġbecomes": 6983,
      "Ġschedul": 6984,
      "Ġpurchased": 6985,
      "Ġloud": 6986,
      "Ġdoor": 6987,
      "Ġrich": 6988,
      "rane": 6989,
      "fish": 6990,
      "ĠWelsh": 6991,
      "96": 6992,
      "hol": 6993,
      "ĠTal": 6994,
      "Ġstone": 6995,
      "py": 6996,
      "iser": 6997,
      "ĠNazi": 6998,
      "ez": 6999,
      "ĠTrust": 7000,
      "ĠHand": 7001,
      "IN": 7002,
      "aki": 7003,
      "compass": 7004,
      "cules": 7005,
      "Ġmist": 7006,
      "ĠRoss": 7007,
      "Ġ55": 7008,
      "Ġactivist": 7009,
      "ĠDavis": 7010,
      "antine": 7011,
      "unch": 7012,
      "ĠAncient": 7013,
      "Ġdiet": 7014,
      "channel": 7015,
      "rait": 7016,
      "enna": 7017,
      "lah": 7018,
      "Ġ400": 7019,
      "ĠAuthor": 7020,
      "Ġmoment": 7021,
      "Ġbelieve": 7022,
      "uv": 7023,
      "Ġmanufacturer": 7024,
      "omy": 7025,
      "Ġoutput": 7026,
      "box": 7027,
      "Ġdates": 7028,
      "ĠBrother": 7029,
      "ĠRon": 7030,
      "ĠApple": 7031,
      "ĠGulf": 7032,
      "Ġarrang": 7033,
      "Char": 7034,
      "after": 7035,
      "Ġclasses": 7036,
      "Ġcompletely": 7037,
      "Ġingred": 7038,
      "Ġbroke": 7039,
      "Mom": 7040,
      "kes": 7041,
      "ĠImp": 7042,
      "hythm": 7043,
      "urches": 7044,
      "ĠPot": 7045,
      "Ġspring": 7046,
      "mm": 7047,
      "ĠTreaty": 7048,
      "ilation": 7049,
      "style": 7050,
      "ĠBab": 7051,
      "osy": 7052,
      "Ġnovelist": 7053,
      "Ind": 7054,
      "ĠOrganization": 7055,
      "Ġexperien": 7056,
      "Ġbranches": 7057,
      "orous": 7058,
      "aga": 7059,
      "oto": 7060,
      "Ġ33": 7061,
      "Ġsave": 7062,
      "nel": 7063,
      "oples": 7064,
      "ĠMicrosoft": 7065,
      "Ġconsult": 7066,
      "endar": 7067,
      "Ġmonitor": 7068,
      "ĠBulg": 7069,
      "Ġtranslation": 7070,
      "ĠHouston": 7071,
      "rations": 7072,
      "Ġcontroversial": 7073,
      "rency": 7074,
      "Ġtal": 7075,
      "Ġfantasy": 7076,
      "Ġattacks": 7077,
      "68": 7078,
      "'re": 7079,
      "hedral": 7080,
      "taining": 7081,
      "commun": 7082,
      "Ġmetres": 7083,
      "Ġexplored": 7084,
      "Ġneut": 7085,
      "ĠGlobal": 7086,
      "ĠBroadway": 7087,
      "Ġabol": 7088,
      "hips": 7089,
      "Ġextrem": 7090,
      "Ġcrater": 7091,
      "making": 7092,
      "ogether": 7093,
      "Ġinsurance": 7094,
      "ĠMorris": 7095,
      "roup": 7096,
      "Ġactually": 7097,
      "uses": 7098,
      "igious": 7099,
      "asters": 7100,
      "ĠCBS": 7101,
      "Ġsweet": 7102,
      "Ġinjury": 7103,
      "Ġchoice": 7104,
      "Ġadvance": 7105,
      "Ġbatter": 7106,
      "Ġoverl": 7107,
      "Ġlands": 7108,
      "ĠGreg": 7109,
      "Ġparallel": 7110,
      "ĠBroadcast": 7111,
      "Ġgranted": 7112,
      "Ġimmediately": 7113,
      "ĠInvest": 7114,
      "ĠSupport": 7115,
      "Ġdetermined": 7116,
      "Ġresemb": 7117,
      "Ġcloser": 7118,
      "ĠSquare": 7119,
      "uary": 7120,
      "Ġmarg": 7121,
      "ami": 7122,
      "Ġcomfort": 7123,
      "Ġbenefit": 7124,
      "Ġflew": 7125,
      "ĠCreat": 7126,
      "ĠHamp": 7127,
      "ĠFact": 7128,
      "tic": 7129,
      "ĠFord": 7130,
      "ĠSix": 7131,
      "urally": 7132,
      "Ġobserved": 7133,
      "ĠGre": 7134,
      "Ġassess": 7135,
      "ht": 7136,
      "Ġsecure": 7137,
      "2009": 7138,
      "cow": 7139,
      "Ġpul": 7140,
      "andon": 7141,
      "Ab": 7142,
      "GA": 7143,
      "Ġocean": 7144,
      "fly": 7145,
      "inding": 7146,
      "Ġfestival": 7147,
      "Ġgraduate": 7148,
      "amental": 7149,
      "Ġaffected": 7150,
      "east": 7151,
      "Ġisol": 7152,
      "Ġexact": 7153,
      "Ġproduces": 7154,
      "gency": 7155,
      "Ġcausing": 7156,
      "1999": 7157,
      "Ġunc": 7158,
      "ĠBad": 7159,
      "Ġmarine": 7160,
      "Ġnom": 7161,
      "Ġdoctor": 7162,
      "ĠHoward": 7163,
      "Ġmac": 7164,
      "unny": 7165,
      "ĠSenator": 7166,
      "Ġhospital": 7167,
      "Ġseventh": 7168,
      "Ġprepar": 7169,
      "olas": 7170,
      "agu": 7171,
      "Ġconvers": 7172,
      "VD": 7173,
      "ĠMalays": 7174,
      "Ġ49": 7175,
      "Ġsolutions": 7176,
      "ĠAbb": 7177,
      "Ġcommander": 7178,
      "Ġvariable": 7179,
      "71": 7180,
      "ĠLind": 7181,
      "Man": 7182,
      "ĠPoint": 7183,
      "Ġimproved": 7184,
      "Ġphase": 7185,
      "ĠSteve": 7186,
      "Ġtherm": 7187,
      "Ġload": 7188,
      "ĠLow": 7189,
      "Ġalle": 7190,
      "ĠOttoman": 7191,
      "Ġmedals": 7192,
      "ework": 7193,
      "ĠJews": 7194,
      "asure": 7195,
      "ĠStatistical": 7196,
      "Ġimag": 7197,
      "Ġrab": 7198,
      "Ġtesting": 7199,
      "hat": 7200,
      "ĠDem": 7201,
      "agues": 7202,
      "Ġheadquartered": 7203,
      "fare": 7204,
      "abilities": 7205,
      "ĠRemember": 7206,
      "Ġprovinces": 7207,
      "rastructure": 7208,
      "Ġneuro": 7209,
      "2011": 7210,
      "ĠDouglas": 7211,
      "ublin": 7212,
      "rack": 7213,
      "ĠHamilton": 7214,
      "idel": 7215,
      "Ġlisten": 7216,
      "ĠMagazine": 7217,
      "Ġaffiliated": 7218,
      "Ġselling": 7219,
      "ĠChart": 7220,
      "Ġ1911": 7221,
      "Ġweapons": 7222,
      "Ġ1905": 7223,
      "anna": 7224,
      "ĠFinland": 7225,
      "rell": 7226,
      "Ġsmooth": 7227,
      "ĠSee": 7228,
      "Ġcaptured": 7229,
      "Ġjurisd": 7230,
      "Ġtracks": 7231,
      "itzerland": 7232,
      "dale": 7233,
      "ĠEqu": 7234,
      "ĠAud": 7235,
      "Ġalone": 7236,
      "Ġmarkets": 7237,
      "Ġcircuit": 7238,
      "irt": 7239,
      "1990": 7240,
      "ĠBuilding": 7241,
      "ĠSwiss": 7242,
      "Ġmagnitude": 7243,
      "ĠLat": 7244,
      "allas": 7245,
      "athan": 7246,
      "Ġdecade": 7247,
      "iner": 7248,
      "Ġhill": 7249,
      "Ġalcoh": 7250,
      "isp": 7251,
      "Ġreality": 7252,
      "Ġ1913": 7253,
      "Ġtower": 7254,
      "ĠTokyo": 7255,
      "Ġsurf": 7256,
      "inical": 7257,
      "Ġclim": 7258,
      "Ġformally": 7259,
      "zen": 7260,
      "ĠBow": 7261,
      "Ġrival": 7262,
      "Ġinvolving": 7263,
      "Ġchampionships": 7264,
      "ĠLo": 7265,
      "bean": 7266,
      "RC": 7267,
      "Ġfoundation": 7268,
      "ĠEnvironment": 7269,
      "bar": 7270,
      "Ġsubmar": 7271,
      "Ġencompass": 7272,
      "ellect": 7273,
      "Ġsatellite": 7274,
      "Ġcamera": 7275,
      "ĠMunicip": 7276,
      "ĠFinnish": 7277,
      "iop": 7278,
      "abama": 7279,
      "Ġperiods": 7280,
      "ĠBrun": 7281,
      "Ġgal": 7282,
      "ĠMinistry": 7283,
      "Ġhorror": 7284,
      "ĠPolice": 7285,
      "Bar": 7286,
      "Ġsell": 7287,
      "Ġnice": 7288,
      "Ġexpected": 7289,
      "ĠAdv": 7290,
      "orrow": 7291,
      "ĠMike": 7292,
      "Ġevolved": 7293,
      "Ġadjust": 7294,
      "Ġwet": 7295,
      "election": 7296,
      "While": 7297,
      "ĠCarib": 7298,
      "Ġshortly": 7299,
      "ĠCroat": 7300,
      "EE": 7301,
      "Ġrisks": 7302,
      "Ġ300": 7303,
      "Ġschem": 7304,
      "ĠAnaly": 7305,
      "ĠBaltimore": 7306,
      "iel": 7307,
      "Ġpseud": 7308,
      "omic": 7309,
      "ĠDenmark": 7310,
      "Ġtypical": 7311,
      "DA": 7312,
      "ĠRena": 7313,
      "Ġcollected": 7314,
      "Ġdomain": 7315,
      "Ġpartnership": 7316,
      "rehens": 7317,
      "Ġalph": 7318,
      "According": 7319,
      "language": 7320,
      "under": 7321,
      "ĠAustrian": 7322,
      "ĠGreater": 7323,
      "Sir": 7324,
      "Ġwaste": 7325,
      "Ġlibrary": 7326,
      "owa": 7327,
      "Ġcoastal": 7328,
      "ĠSerb": 7329,
      "uccessful": 7330,
      "ĠBasketball": 7331,
      "Ġwing": 7332,
      "Ġcrown": 7333,
      "Ġlaunch": 7334,
      "Col": 7335,
      "ĠBecause": 7336,
      "ĠAllen": 7337,
      "Ġeducated": 7338,
      "Ġsituation": 7339,
      "Ġconvent": 7340,
      "Ġnotes": 7341,
      "outheastern": 7342,
      "ĠSwitzerland": 7343,
      "ĠSav": 7344,
      "Ġnations": 7345,
      "Ġsoap": 7346,
      "Ġhelping": 7347,
      "Michael": 7348,
      "ĠSeattle": 7349,
      "ĠPitts": 7350,
      "lock": 7351,
      "Ġvert": 7352,
      "Ġterritories": 7353,
      "oons": 7354,
      "uing": 7355,
      "issions": 7356,
      "Ġcomputers": 7357,
      "lahoma": 7358,
      "Ġsections": 7359,
      "Ġviews": 7360,
      "58": 7361,
      "98": 7362,
      "largest": 7363,
      "Ġending": 7364,
      "Ġcable": 7365,
      "Rich": 7366,
      "Ġselection": 7367,
      "ĠPage": 7368,
      "Ġlegend": 7369,
      "Ġdesignation": 7370,
      "Ġrivers": 7371,
      "ĠOak": 7372,
      "ĠMarg": 7373,
      "Ġoppon": 7374,
      "ĠCrown": 7375,
      "ĠOnline": 7376,
      "Ġstatement": 7377,
      "ĠAppl": 7378,
      "ĠFormula": 7379,
      "Ġadventure": 7380,
      "Ġmanga": 7381,
      "Ġmaintaining": 7382,
      "ĠRights": 7383,
      "ictions": 7384,
      "Ġemployed": 7385,
      "Ġtransmitter": 7386,
      "ĠHeb": 7387,
      "Ġextens": 7388,
      "ĠTurn": 7389,
      "Ġlots": 7390,
      "ĠNative": 7391,
      "Ġpromotion": 7392,
      "General": 7393,
      "ructions": 7394,
      "ĠMarine": 7395,
      "Ġflood": 7396,
      "ĠNow": 7397,
      "ĠObs": 7398,
      "Ġbroken": 7399,
      "ĠPrin": 7400,
      "ĠLady": 7401,
      "ante": 7402,
      "06": 7403,
      "ĠAlabama": 7404,
      "FC": 7405,
      "ĠContin": 7406,
      "ĠLouisiana": 7407,
      "Ġstring": 7408,
      "Ġwa": 7409,
      "ĠBarn": 7410,
      "Ġdefense": 7411,
      "iveness": 7412,
      "ĠAfghan": 7413,
      "Ġpossess": 7414,
      "ĠTurkish": 7415,
      "Ġcreative": 7416,
      "gest": 7417,
      "ĠDur": 7418,
      "estyle": 7419,
      "ĠChristmas": 7420,
      "ĠEconomic": 7421,
      "Ġrecipient": 7422,
      "Ġnewly": 7423,
      "Ġofficers": 7424,
      "ranean": 7425,
      "Ġsignificantly": 7426,
      "Ġadaptation": 7427,
      "ĠSpring": 7428,
      "ĠGarden": 7429,
      "Ġunus": 7430,
      "sky": 7431,
      "ĠCommunist": 7432,
      "emocracy": 7433,
      "Ġagricultural": 7434,
      "Ġhypot": 7435,
      "Ġcod": 7436,
      "Ġfoss": 7437,
      "apolis": 7438,
      "iami": 7439,
      "Christ": 7440,
      "ivals": 7441,
      "Ġimpr": 7442,
      "Ġbrothers": 7443,
      "umin": 7444,
      "ĠWhit": 7445,
      "ĠPublishing": 7446,
      "Ġsustainable": 7447,
      "ologists": 7448,
      "Ġago": 7449,
      "Ġenjoyed": 7450,
      "Ġhotel": 7451,
      "ĠHarry": 7452,
      "Ġarrived": 7453,
      "ĠHeart": 7454,
      "ĠSunday": 7455,
      "Ġexpand": 7456,
      "Ġcompetitive": 7457,
      "atch": 7458,
      "ĠDraft": 7459,
      "Ġtwelve": 7460,
      "Ġdescription": 7461,
      "Åĵ": 7462,
      "Ġfra": 7463,
      "ĠGuide": 7464,
      "ĠFinal": 7465,
      "wright": 7466,
      "Ġfocuses": 7467,
      "ĠDor": 7468,
      "Ġauthors": 7469,
      "lan": 7470,
      "ĠFM": 7471,
      "Ġweak": 7472,
      "Ġtechnologies": 7473,
      "Ġpromoting": 7474,
      "Ġstraight": 7475,
      "ĠFIFA": 7476,
      "ĠBack": 7477,
      "Ne": 7478,
      "ĠWW": 7479,
      "Ġpublishing": 7480,
      "Ġspecialized": 7481,
      "ompl": 7482,
      "ques": 7483,
      "Ġexisted": 7484,
      "Ġdrummer": 7485,
      "Ġdocumentary": 7486,
      "star": 7487,
      "Ġlegislature": 7488,
      "onian": 7489,
      "Ġ1890": 7490,
      "rama": 7491,
      "uh": 7492,
      "Ġserial": 7493,
      "ĠOklahoma": 7494,
      "rates": 7495,
      "track": 7496,
      "Ġrent": 7497,
      "fielder": 7498,
      "Ġestablishment": 7499,
      "ĠDomin": 7500,
      "Ġopposite": 7501,
      "Ġdefensive": 7502,
      "Ġdriving": 7503,
      "Ben": 7504,
      "ĠBah": 7505,
      "Ġconcerns": 7506,
      "áħ": 7507,
      "icut": 7508,
      "agen": 7509,
      "acteria": 7510,
      "áĦ": 7511,
      "ĠLive": 7512,
      "elected": 7513,
      "Ġpurchase": 7514,
      "ĠLanguage": 7515,
      "Ġrelevant": 7516,
      "Ġusage": 7517,
      "Ġfactor": 7518,
      "unnel": 7519,
      "ĠTheoretical": 7520,
      "Ġsituations": 7521,
      "rot": 7522,
      "Ġforming": 7523,
      "Ġshell": 7524,
      "Ġcapture": 7525,
      "alysis": 7526,
      "ĠBeng": 7527,
      "ĠMarc": 7528,
      "Ġinters": 7529,
      "Ġcas": 7530,
      "Ġdestroyed": 7531,
      "ĠMoscow": 7532,
      "ĠPy": 7533,
      "Ġ48": 7534,
      "Ġshel": 7535,
      "Ġagreed": 7536,
      "orig": 7537,
      "Ġinternet": 7538,
      "Ġspaces": 7539,
      "ĠEnergy": 7540,
      "Ġcryst": 7541,
      "ĠThird": 7542,
      "Ġconfused": 7543,
      "rons": 7544,
      "Ġwaves": 7545,
      "ĠNHL": 7546,
      "05": 7547,
      "Ġcopy": 7548,
      "ĠFood": 7549,
      "Ġsettled": 7550,
      "Ġborders": 7551,
      "ĠPictures": 7552,
      "Ġ75": 7553,
      "Ġalgebra": 7554,
      "Ġblocks": 7555,
      "ĠHug": 7556,
      "nee": 7557,
      "Ġeconomics": 7558,
      "BM": 7559,
      "Ġfil": 7560,
      "Ġproteins": 7561,
      "cers": 7562,
      "Ġ:": 7563,
      "Ġtherapy": 7564,
      "1998": 7565,
      "Ġmaintenance": 7566,
      "ĠHarvard": 7567,
      "Ġfrequency": 7568,
      "Ġratio": 7569,
      "Ġunsuccessful": 7570,
      "ĠDiego": 7571,
      "anning": 7572,
      "Ġorganic": 7573,
      "ĠArgentina": 7574,
      "Ġaid": 7575,
      "Ġpreced": 7576,
      "Ġalt": 7577,
      "ulty": 7578,
      "Ġpublications": 7579,
      "Ġefficiency": 7580,
      "Ġlaid": 7581,
      "ĠAmong": 7582,
      "Ġchap": 7583,
      "Ġcontest": 7584,
      "Ġagg": 7585,
      "ĠRo": 7586,
      "arsh": 7587,
      "icit": 7588,
      "ĠBrand": 7589,
      "Ġgather": 7590,
      "Ġtransition": 7591,
      "Ġnominations": 7592,
      "Ġperhaps": 7593,
      "Ġreceiving": 7594,
      "Ġvocals": 7595,
      "ĠBelgium": 7596,
      "Ġplane": 7597,
      "Ġraces": 7598,
      "Ġmythology": 7599,
      "ygen": 7600,
      "Ġsuburb": 7601,
      "Ġsolve": 7602,
      "ĠPersian": 7603,
      "har": 7604,
      "ordon": 7605,
      "Ġpaid": 7606,
      "ĠDublin": 7607,
      "ĠVi": 7608,
      "ĠHo": 7609,
      "Ġ34": 7610,
      "ĠLiver": 7611,
      "Ġsignificance": 7612,
      "1997": 7613,
      "Thomas": 7614,
      "Ġbiological": 7615,
      "ĠEmmy": 7616,
      "oli": 7617,
      "IP": 7618,
      "Ġoptions": 7619,
      "Ġstopped": 7620,
      "onial": 7621,
      "ĠBible": 7622,
      "Ġcomprises": 7623,
      "Ġsoldiers": 7624,
      "Ġcorner": 7625,
      "Ġoccasionally": 7626,
      "Ġclothing": 7627,
      "ected": 7628,
      "Ġresign": 7629,
      "Ġphrase": 7630,
      "oven": 7631,
      "92": 7632,
      "Ðº": 7633,
      "ĠDaniel": 7634,
      "ificial": 7635,
      "Ġsinging": 7636,
      "Ġattorney": 7637,
      "lig": 7638,
      "Ġflying": 7639,
      "oming": 7640,
      "ĠRoy": 7641,
      "ĠAlberta": 7642,
      "LC": 7643,
      "ĠBorough": 7644,
      "ĠLook": 7645,
      "Ġvalley": 7646,
      "Ġpassengers": 7647,
      "Ġspiritual": 7648,
      "Ġsuccessfully": 7649,
      "Ġabandon": 7650,
      "Ġfinding": 7651,
      "âĪ": 7652,
      "ĠLas": 7653,
      "atern": 7654,
      "Ġpopulations": 7655,
      "amics": 7656,
      "RS": 7657,
      "Ġthick": 7658,
      "ĠUkraine": 7659,
      "Ġmerch": 7660,
      "uties": 7661,
      "Ġsimpl": 7662,
      "aux": 7663,
      "ĠBou": 7664,
      "Ġbeliefs": 7665,
      "Paul": 7666,
      "Ġwire": 7667,
      "ĠTrad": 7668,
      "ĠExpl": 7669,
      "Ġpossibly": 7670,
      "ĠDoctor": 7671,
      "Ġhousing": 7672,
      "ĠDer": 7673,
      "Ġquantum": 7674,
      "62": 7675,
      "othe": 7676,
      "ĠRand": 7677,
      "Ġradiation": 7678,
      "Ġauthorities": 7679,
      "67": 7680,
      "ĠMiami": 7681,
      "ĠGil": 7682,
      "ĠLtd": 7683,
      "aver": 7684,
      "handed": 7685,
      "Ġenroll": 7686,
      "Ġappropriate": 7687,
      "Ġfab": 7688,
      "ecutive": 7689,
      "Ġpicked": 7690,
      "Ġprogramme": 7691,
      "Ġdowntown": 7692,
      "elta": 7693,
      "Ġ1907": 7694,
      "ĠUsing": 7695,
      "Ġaware": 7696,
      "ĠPope": 7697,
      "Ġaccompl": 7698,
      "Ġvocalist": 7699,
      "Ġotherwise": 7700,
      "ĠPlace": 7701,
      "94": 7702,
      "Ġstages": 7703,
      "fe": 7704,
      "ouver": 7705,
      "Ġgar": 7706,
      "ĠKhan": 7707,
      "Ġmanufactured": 7708,
      "Ġexperiment": 7709,
      "Ġcircum": 7710,
      "ĠSound": 7711,
      "Ġgram": 7712,
      "Ġgenera": 7713,
      "Ġmeasured": 7714,
      "Ġtennis": 7715,
      "erage": 7716,
      "Ġlosing": 7717,
      "ules": 7718,
      "ĠNeb": 7719,
      "ET": 7720,
      "anz": 7721,
      "Ġsevere": 7722,
      "borough": 7723,
      "icial": 7724,
      "Ġmart": 7725,
      "Ġactual": 7726,
      "ĠAdvent": 7727,
      "ĠSystems": 7728,
      "Ġrout": 7729,
      "Ġencoura": 7730,
      "ĠLimited": 7731,
      "sm": 7732,
      "abil": 7733,
      "Ġparliamentary": 7734,
      "En": 7735,
      "ĠMand": 7736,
      "Ġmathematician": 7737,
      "Ġtexts": 7738,
      "Ġgrown": 7739,
      "Ġexpert": 7740,
      "ĠBos": 7741,
      "Ġinput": 7742,
      "ĠTs": 7743,
      "Ġnucle": 7744,
      "ĠOrthodox": 7745,
      "pa": 7746,
      "ĠVolume": 7747,
      "Ġcharts": 7748,
      "63": 7749,
      "ito": 7750,
      "roph": 7751,
      "Ġtopic": 7752,
      "Ġsolar": 7753,
      "Ġcatch": 7754,
      "Ġped": 7755,
      "Ġjoining": 7756,
      "Ġpredomin": 7757,
      "ails": 7758,
      "ĠMarvel": 7759,
      "annels": 7760,
      "Or": 7761,
      "Ġshares": 7762,
      "Des": 7763,
      "ĠPap": 7764,
      "ĠPerform": 7765,
      "ĠJacob": 7766,
      "atus": 7767,
      "Ġ64": 7768,
      "'.": 7769,
      "Ġcrop": 7770,
      "ogle": 7771,
      "ext": 7772,
      "Ġfunding": 7773,
      "61": 7774,
      "mod": 7775,
      "Ġsought": 7776,
      "Ġcloud": 7777,
      "ecution": 7778,
      "iterranean": 7779,
      "Ġsuffered": 7780,
      "eric": 7781,
      "ĠSud": 7782,
      "usal": 7783,
      "ĠOriginally": 7784,
      "alia": 7785,
      "iture": 7786,
      "ĠMach": 7787,
      "iki": 7788,
      "Ġ150": 7789,
      "Ġadvertising": 7790,
      "ĠCook": 7791,
      "osed": 7792,
      "ĠMcG": 7793,
      "ĠSarah": 7794,
      "ĠBerg": 7795,
      "going": 7796,
      "Ġburied": 7797,
      "ĠSoutheast": 7798,
      "Ġreprodu": 7799,
      "aurus": 7800,
      "crib": 7801,
      "Ġsugar": 7802,
      "Ġattempts": 7803,
      "Ġboundary": 7804,
      "Ġoccupied": 7805,
      "Ġbiggest": 7806,
      "Ġrein": 7807,
      "ĠPlant": 7808,
      "ĠGlobe": 7809,
      "ĠPittsburgh": 7810,
      "Ġmamm": 7811,
      "ĠCaribbean": 7812,
      "rade": 7813,
      "Ġvel": 7814,
      "ĠCommand": 7815,
      "ĠMiller": 7816,
      "Ġcultiv": 7817,
      "Ġlayer": 7818,
      "olar": 7819,
      "Ġrecre": 7820,
      "Ġgall": 7821,
      "aints": 7822,
      "Ġfunds": 7823,
      "ĠOd": 7824,
      "Ġexternal": 7825,
      "Ġenemy": 7826,
      "Ġsubstant": 7827,
      "With": 7828,
      "ĠArk": 7829,
      "Ġflower": 7830,
      "Ġthanked": 7831,
      "family": 7832,
      "ĠAh": 7833,
      "ĠMia": 7834,
      "ĠEnt": 7835,
      "maker": 7836,
      "Ġclimb": 7837,
      "ĠExpress": 7838,
      "Ġinternationally": 7839,
      "Ġuniverse": 7840,
      "Ġfundamental": 7841,
      "ĠHampshire": 7842,
      "rav": 7843,
      "Ġobtained": 7844,
      "Ġcastle": 7845,
      "aware": 7846,
      "ridges": 7847,
      "Ġairline": 7848,
      "Ġstands": 7849,
      "Ġexped": 7850,
      "ĠFinally": 7851,
      "uma": 7852,
      "Ġassets": 7853,
      "Ġmachines": 7854,
      "Ġownership": 7855,
      "ĠBuck": 7856,
      "Ġimproving": 7857,
      "Ġprotected": 7858,
      "Ġconverted": 7859,
      "Ġanyone": 7860,
      "Ġgetting": 7861,
      "rus": 7862,
      "Ġconstant": 7863,
      "Î¹": 7864,
      "Ġconsisted": 7865,
      "Ġreports": 7866,
      "Ġ1909": 7867,
      "Ġnicknamed": 7868,
      "Charles": 7869,
      "outs": 7870,
      "Ġphysician": 7871,
      "selling": 7872,
      "ughed": 7873,
      "ective": 7874,
      "2012": 7875,
      "Ġagriculture": 7876,
      "FM": 7877,
      "inners": 7878,
      "93": 7879,
      "Ġchanging": 7880,
      "Ġsatisf": 7881,
      "Ġsubjects": 7882,
      "Ġdiscovery": 7883,
      "eenth": 7884,
      "George": 7885,
      "Ġfrag": 7886,
      "Ġtrying": 7887,
      "Ġpitcher": 7888,
      "Ġhun": 7889,
      "Ġnet": 7890,
      "Ġorganisms": 7891,
      "Ġ1906": 7892,
      "Ġcovering": 7893,
      "eland": 7894,
      "Ġmountains": 7895,
      "Under": 7896,
      "ĠRaj": 7897,
      "Ġlaughed": 7898,
      "Ġrailroad": 7899,
      "97": 7900,
      "Ġrevenue": 7901,
      "ikh": 7902,
      "script": 7903,
      "tered": 7904,
      "iley": 7905,
      "Sam": 7906,
      "ĠLanc": 7907,
      "ĠRose": 7908,
      "ĠCry": 7909,
      "ĠAnthony": 7910,
      "Ġpunk": 7911,
      "ĠMovement": 7912,
      "Ġexpos": 7913,
      "Ġarmed": 7914,
      "ĠÂ£": 7915,
      "Ġwins": 7916,
      "ĠSem": 7917,
      "ĠAnswers": 7918,
      "Ġbag": 7919,
      "ĠSchools": 7920,
      "ĠSon": 7921,
      "ĠMediterranean": 7922,
      "ĠThough": 7923,
      "Ġmeant": 7924,
      "Ġsitcom": 7925,
      "Yes": 7926,
      "yd": 7927,
      "Ġdropped": 7928,
      "ĠConnecticut": 7929,
      "ĠBor": 7930,
      "Ġstick": 7931,
      "Ġbeach": 7932,
      "ĠColomb": 7933,
      "Ġvisit": 7934,
      "Step": 7935,
      "Ġenh": 7936,
      "ĠAnglo": 7937,
      "ĠPrix": 7938,
      "Ġhomes": 7939,
      "ĠPortugal": 7940,
      "argo": 7941,
      "Ġscientists": 7942,
      "ĠNon": 7943,
      "Ġ1904": 7944,
      "otes": 7945,
      "ĠDallas": 7946,
      "Ġvision": 7947,
      "Ġviolence": 7948,
      "ĠWalter": 7949,
      "ĠTrib": 7950,
      "unc": 7951,
      "TE": 7952,
      "fall": 7953,
      "Ġlinear": 7954,
      "ĠHistorical": 7955,
      "Ġconservative": 7956,
      "bal": 7957,
      "tery": 7958,
      "Ġreact": 7959,
      "Ġcompete": 7960,
      "Ġbought": 7961,
      "Ġdensity": 7962,
      "enez": 7963,
      "ĠPrior": 7964,
      "ordan": 7965,
      "Ġpilot": 7966,
      "Ġcelebrated": 7967,
      "ĠFur": 7968,
      "ĠKal": 7969,
      "TP": 7970,
      "Ġ().": 7971,
      "Ġfleet": 7972,
      "ĠSilver": 7973,
      "Ġadvantage": 7974,
      "ĠTaiwan": 7975,
      "Ġcarefully": 7976,
      "NS": 7977,
      "Ġtheoretical": 7978,
      "ĠHu": 7979,
      "Ġattached": 7980,
      "Ġmorning": 7981,
      "Ġgiant": 7982,
      "type": 7983,
      "ĠStanley": 7984,
      "hatt": 7985,
      "Ġseparated": 7986,
      "Ġdecline": 7987,
      "Ġdrugs": 7988,
      "merce": 7989,
      "Ġactors": 7990,
      "ĠIndependent": 7991,
      "point": 7992,
      "ĠTrade": 7993,
      "Ġemerged": 7994,
      "iration": 7995,
      "Ġunderground": 7996,
      "ĠSimon": 7997,
      "ancouver": 7998,
      "ĠWell": 7999,
      "ĠAlan": 8000,
      "Ġspelled": 8001,
      "Ġpredecess": 8002,
      "Ġmovies": 8003,
      "arks": 8004,
      "Ġfluid": 8005,
      "Ġannually": 8006,
      "ĠChapter": 8007,
      "Ġapart": 8008,
      "Ġthousands": 8009,
      "ĠNY": 8010,
      "ĠOt": 8011,
      "Ġentreprene": 8012,
      "ims": 8013,
      "Ġcenters": 8014,
      "Ġreturning": 8015,
      "ĠNev": 8016,
      "ĠIndonesia": 8017,
      "ĠCru": 8018,
      "Ġ1901": 8019,
      "ĠArabic": 8020,
      "ĠSri": 8021,
      "Ġpeoples": 8022,
      "isa": 8023,
      "door": 8024,
      "icious": 8025,
      "Ġju": 8026,
      "Ġflo": 8027,
      "ĠRol": 8028,
      "ĠLower": 8029,
      "Ġprofit": 8030,
      "ĠActress": 8031,
      "Ġprices": 8032,
      "Ġcommunicate": 8033,
      "Ġelectricity": 8034,
      "rub": 8035,
      "roc": 8036,
      "ĠNort": 8037,
      "Ġphotography": 8038,
      "ĠInn": 8039,
      "Ġexpect": 8040,
      "ĠDeath": 8041,
      "ĠAlliance": 8042,
      "Ġsurviving": 8043,
      "ĠLawrence": 8044,
      "oyd": 8045,
      "2013": 8046,
      "lected": 8047,
      "Ġproport": 8048,
      "ĠNobel": 8049,
      "Ġinhabitants": 8050,
      "song": 8051,
      "inian": 8052,
      "Ġkeyboard": 8053,
      "Ġoptim": 8054,
      "West": 8055,
      "ĠScient": 8056,
      "ruption": 8057,
      "onymous": 8058,
      "ĠCra": 8059,
      "ĠCulture": 8060,
      "awn": 8061,
      "Star": 8062,
      "ĠChem": 8063,
      "Ġjourney": 8064,
      "Ġvolunte": 8065,
      "ĠDak": 8066,
      "Ġindigenous": 8067,
      "ĠNar": 8068,
      "ĠArmen": 8069,
      "Ġcontinuous": 8070,
      "burn": 8071,
      "ĠRober": 8072,
      "Ġassass": 8073,
      "ĠMilitary": 8074,
      "Ġcolour": 8075,
      "ista": 8076,
      "Ġextension": 8077,
      "ĠAgency": 8078,
      "Ġhosts": 8079,
      "itarian": 8080,
      "Ġapproved": 8081,
      "Ġsharing": 8082,
      "Ġdrink": 8083,
      "ĠChristianity": 8084,
      "tes": 8085,
      "Ġwants": 8086,
      "ĠDick": 8087,
      "Ġspeakers": 8088,
      "Ġchemistry": 8089,
      "cope": 8090,
      "Ġfiles": 8091,
      "ensis": 8092,
      "Ġ1903": 8093,
      "Ġinaug": 8094,
      "ĠTen": 8095,
      "iang": 8096,
      "Ġroots": 8097,
      "ĠLate": 8098,
      "ĠSaf": 8099,
      "Ġparticles": 8100,
      "Ġwalked": 8101,
      "Ġwrest": 8102,
      "1996": 8103,
      "Ġ1896": 8104,
      "Ġcards": 8105,
      "acc": 8106,
      "Ġfurn": 8107,
      "Ġpros": 8108,
      "Ġconvention": 8109,
      "Ġartistic": 8110,
      "Ġboundaries": 8111,
      "gers": 8112,
      "Ġnickname": 8113,
      "aire": 8114,
      "agh": 8115,
      "Ġ37": 8116,
      "ĠBetween": 8117,
      "las": 8118,
      "idency": 8119,
      "ĠWolf": 8120,
      "ĠAnne": 8121,
      "Ġzone": 8122,
      "Ġguest": 8123,
      "ĠDyn": 8124,
      "Ġcartoon": 8125,
      "Ġfrog": 8126,
      "Ġbehavi": 8127,
      "zz": 8128,
      "ĠMes": 8129,
      "iva": 8130,
      "Ġmechanical": 8131,
      "Ġdistinctive": 8132,
      "leans": 8133,
      "eway": 8134,
      "icas": 8135,
      "Ġbill": 8136,
      "udes": 8137,
      "Ġsale": 8138,
      "cha": 8139,
      "Ã¦": 8140,
      "Ġinfrastructure": 8141,
      "Ġappreciate": 8142,
      "Ġmic": 8143,
      "ĠDream": 8144,
      "ĠUtah": 8145,
      "ĠGene": 8146,
      "ĠChris": 8147,
      "cious": 8148,
      "Ġcomedian": 8149,
      "Car": 8150,
      "olving": 8151,
      "Ġmembership": 8152,
      "ĠTar": 8153,
      "allow": 8154,
      "ĠAlaska": 8155,
      "ĠDead": 8156,
      "Ġfreedom": 8157,
      "jection": 8158,
      "ĠVancouver": 8159,
      "Ġsomew": 8160,
      "Ġfans": 8161,
      "obi": 8162,
      "hero": 8163,
      "Ġrenew": 8164,
      "Ġfishing": 8165,
      "ĠAlso": 8166,
      "Ġtransmission": 8167,
      "jective": 8168,
      "Ġintellect": 8169,
      "ĠĠĠĠĠĠĠĠĠĠĠĠ": 8170,
      "Ġatmosphere": 8171,
      "Ġmuscle": 8172,
      "ĠSeveral": 8173,
      "nold": 8174,
      "Ġtips": 8175,
      "stract": 8176,
      "Ġaccounts": 8177,
      "USS": 8178,
      "Ġbroadcasting": 8179,
      "ED": 8180,
      "ĠEgyptian": 8181,
      "Ġvenue": 8182,
      "So": 8183,
      "ĠStaff": 8184,
      "ĠCentury": 8185,
      "vens": 8186,
      "ĠPeace": 8187,
      "Ġcandidates": 8188,
      "Ġpopulous": 8189,
      "Ġflex": 8190,
      "olt": 8191,
      "ĠVice": 8192,
      "Ġinstance": 8193,
      "ĠBeat": 8194,
      "Ġresponsibility": 8195,
      "jan": 8196,
      "Ġamateur": 8197,
      "ĠGuine": 8198,
      "idden": 8199,
      "Ġmagnetic": 8200,
      "Ġchoosing": 8201,
      "ĠComple": 8202,
      "ĠStandard": 8203,
      "ĠPalest": 8204,
      "ĠEngineering": 8205,
      "ugs": 8206,
      "Ġtownship": 8207,
      "ĠMedical": 8208,
      "Ġwars": 8209,
      "Ġtheories": 8210,
      "Ġfilled": 8211,
      "Ġaged": 8212,
      "Ġpropos": 8213,
      "Ġroutes": 8214,
      "Ġaccurate": 8215,
      "urrent": 8216,
      "69": 8217,
      "ĠBuff": 8218,
      "Ġtheorem": 8219,
      "yard": 8220,
      "ĠMit": 8221,
      "Ġanime": 8222,
      "Ġsecretary": 8223,
      "ĠStudios": 8224,
      "ĠQueensland": 8225,
      "Ġkilomet": 8226,
      "ĠWy": 8227,
      "Ġcris": 8228,
      "Ġattempted": 8229,
      "Ġheritage": 8230,
      "Ġinteract": 8231,
      "ĠCaptain": 8232,
      "math": 8233,
      "Ġstable": 8234,
      "appe": 8235,
      "Example": 8236,
      "ĠAM": 8237,
      "ĠPhill": 8238,
      "Ġguide": 8239,
      "Ġsurgery": 8240,
      "Ġpig": 8241,
      "ĠLin": 8242,
      "ika": 8243,
      "Ġfunctional": 8244,
      "omes": 8245,
      "stan": 8246,
      "http": 8247,
      "ĠDue": 8248,
      "Ġexcell": 8249,
      "imensional": 8250,
      "Ġpremiered": 8251,
      "ĠHell": 8252,
      "Ġgene": 8253,
      "ĠSoft": 8254,
      "ĠDigital": 8255,
      "ĠBrian": 8256,
      "riers": 8257,
      "Ġexists": 8258,
      "ĠKings": 8259,
      "Ġcoverage": 8260,
      "ĠScenarios": 8261,
      "Ġteen": 8262,
      "Ġwatch": 8263,
      "Ġsteam": 8264,
      "ĠApply": 8265,
      "Ġprofessionally": 8266,
      "ĠRenaissance": 8267,
      "Ġinner": 8268,
      "esis": 8269,
      "ĠGib": 8270,
      "emed": 8271,
      "Ġsuggested": 8272,
      "do": 8273,
      "ĠDark": 8274,
      "ĠNich": 8275,
      "anton": 8276,
      "Ġprinciple": 8277,
      "53": 8278,
      "ogan": 8279,
      "brid": 8280,
      "Ġpitch": 8281,
      "ĠAqu": 8282,
      "ĠRico": 8283,
      "ĠLaure": 8284,
      "ĠFA": 8285,
      "ĠSin": 8286,
      "utt": 8287,
      "ennial": 8288,
      "icide": 8289,
      "Ġcomprehens": 8290,
      "Ġcalendar": 8291,
      "Ġham": 8292,
      "Richard": 8293,
      "âĪĴ": 8294,
      "Ġorganisation": 8295,
      "fecture": 8296,
      "Ġpaintings": 8297,
      "Ġhip": 8298,
      "Ġchannels": 8299,
      "ili": 8300,
      "Ġedited": 8301,
      "Ġstanding": 8302,
      "ourses": 8303,
      "Ġsed": 8304,
      "apping": 8305,
      "ĠHungarian": 8306,
      "Ġcinema": 8307,
      "bass": 8308,
      "anes": 8309,
      "ĠChile": 8310,
      "net": 8311,
      "Ġromantic": 8312,
      "08": 8313,
      "long": 8314,
      "itis": 8315,
      "RT": 8316,
      "Ġautonom": 8317,
      "Ġbanks": 8318,
      "Se": 8319,
      "Ġdrafted": 8320,
      "oslav": 8321,
      "Ġsquad": 8322,
      "ĠHind": 8323,
      "ĠChampion": 8324,
      "ĠKennedy": 8325,
      "ĠLear": 8326,
      "ĠPatrick": 8327,
      "jo": 8328,
      "Ġincreasingly": 8329,
      "ĠStew": 8330,
      "angel": 8331,
      "Ġrecordings": 8332,
      "ĠAuthority": 8333,
      "hard": 8334,
      "ĠAlfred": 8335,
      "ĠFrederick": 8336,
      "ĠHebrew": 8337,
      "ĠErn": 8338,
      "Ġexperienced": 8339,
      "Ġwalls": 8340,
      "Ġlocomot": 8341,
      "2014": 8342,
      "Ġtrading": 8343,
      "Ġlasted": 8344,
      "ĠBurn": 8345,
      "irmed": 8346,
      "ĠFund": 8347,
      "ĠEdition": 8348,
      "hattan": 8349,
      "Ġpiano": 8350,
      "ĠMas": 8351,
      "ĠBenef": 8352,
      "ĠNation": 8353,
      "----": 8354,
      "ĠTa": 8355,
      "Ġexpensive": 8356,
      "Ġsons": 8357,
      "ailed": 8358,
      "Ġterminus": 8359,
      "Ġengaged": 8360,
      "graduate": 8361,
      "Ġpret": 8362,
      "Ġconservation": 8363,
      "ĠJohann": 8364,
      "asts": 8365,
      "angle": 8366,
      "celand": 8367,
      "ĠTerritory": 8368,
      "Ġreject": 8369,
      "ocks": 8370,
      "ĠAlexand": 8371,
      "hu": 8372,
      "ĠOrleans": 8373,
      "Ġingredients": 8374,
      "po": 8375,
      "oca": 8376,
      "Ġdeaths": 8377,
      "ĠBilly": 8378,
      "di": 8379,
      "erate": 8380,
      "ĠFranklin": 8381,
      "zym": 8382,
      "Ġgenres": 8383,
      "Ġgrav": 8384,
      "RO": 8385,
      "Ġtom": 8386,
      "ĠIsraeli": 8387,
      "Ġrecept": 8388,
      "Ġforests": 8389,
      "ĠSn": 8390,
      "ĠLyn": 8391,
      "Ġpassing": 8392,
      "Ġoccasions": 8393,
      "athy": 8394,
      "ĠGrant": 8395,
      "Ġmolecules": 8396,
      "Ġbreat": 8397,
      "Ġformula": 8398,
      "Ġmodified": 8399,
      "ĠMathemat": 8400,
      "ĠTemple": 8401,
      "alog": 8402,
      "ocation": 8403,
      "Ġsubstance": 8404,
      "ĠHem": 8405,
      "istant": 8406,
      "ĠKim": 8407,
      "Ġinterior": 8408,
      "Ġrespond": 8409,
      "Ġcrypt": 8410,
      "Ġmilk": 8411,
      "ĠLiverpool": 8412,
      "Ġmoral": 8413,
      "Ġmanner": 8414,
      "ĠFellow": 8415,
      "Ġscoring": 8416,
      "Ġleads": 8417,
      "Ġevaluate": 8418,
      "cluded": 8419,
      "Ġcongress": 8420,
      "Ġfaster": 8421,
      "olia": 8422,
      "ĠVar": 8423,
      "EFA": 8424,
      "ĠChildren": 8425,
      "Ġabbreviated": 8426,
      "ĠOri": 8427,
      "Ġbattles": 8428,
      "Ġtribe": 8429,
      "chang": 8430,
      "Ġoxygen": 8431,
      "Ġcategories": 8432,
      "ented": 8433,
      "etary": 8434,
      "oker": 8435,
      "Ġfinance": 8436,
      "DS": 8437,
      "rors": 8438,
      "Ġnormally": 8439,
      "pan": 8440,
      "ĠDefense": 8441,
      "Ġbeauty": 8442,
      "Ġbottom": 8443,
      "ĠNi": 8444,
      "Ġaffairs": 8445,
      "Ġofficials": 8446,
      "Ġinterested": 8447,
      "pur": 8448,
      "Ġcorporate": 8449,
      "iders": 8450,
      "eas": 8451,
      "father": 8452,
      "ĠBishop": 8453,
      "1995": 8454,
      "ĠHawaii": 8455,
      "Ġvirtual": 8456,
      "ĠAdministration": 8457,
      "Ġhole": 8458,
      "ĠLank": 8459,
      "ibl": 8460,
      "hammad": 8461,
      "Ð»": 8462,
      "Ġfinish": 8463,
      "ĠTy": 8464,
      "ĠNaval": 8465,
      "Ġrub": 8466,
      "Ġfavorite": 8467,
      "Ġemperor": 8468,
      "La": 8469,
      "Ġextremely": 8470,
      "83": 8471,
      "ummy": 8472,
      "Ġexperimental": 8473,
      "Ġlandscape": 8474,
      "intendo": 8475,
      "Eng": 8476,
      "ĠÃ": 8477,
      "Ġideal": 8478,
      "Ġsoldier": 8479,
      "ĠSky": 8480,
      "Hist": 8481,
      "Ġfold": 8482,
      "Ġgender": 8483,
      "pop": 8484,
      "Ġtrained": 8485,
      "Ġsuperv": 8486,
      "Ġcrisis": 8487,
      "nce": 8488,
      "ovak": 8489,
      "Ġphone": 8490,
      "cia": 8491,
      "Ġmand": 8492,
      "dule": 8493,
      "Ġtell": 8494,
      "Ġeighth": 8495,
      "ĠMars": 8496,
      "Ġhardware": 8497,
      "Ġneighbour": 8498,
      "ĠMaine": 8499,
      "89": 8500,
      "enh": 8501,
      "Ġgross": 8502,
      "Ġendemic": 8503,
      "ĠExecutive": 8504,
      "inter": 8505,
      "elson": 8506,
      "Har": 8507,
      "eton": 8508,
      "Ġorb": 8509,
      "Ġconstellation": 8510,
      "Ġalgorithm": 8511,
      "Ġcapable": 8512,
      "uality": 8513,
      "ĠBush": 8514,
      "Ġorbit": 8515,
      "ounded": 8516,
      "Ġguard": 8517,
      "Ġ1880": 8518,
      "ĠMoh": 8519,
      "ĠPow": 8520,
      "Ġcalls": 8521,
      "Ġfaith": 8522,
      "ĠSel": 8523,
      "ĠAnderson": 8524,
      "ĠSocialist": 8525,
      "Ġsalt": 8526,
      "Ġagencies": 8527,
      "Ġvoted": 8528,
      "Ġwrong": 8529,
      "ĠSign": 8530,
      "ĠWeek": 8531,
      "Ġsignals": 8532,
      "ĠNick": 8533,
      "Ġdeals": 8534,
      "uation": 8535,
      "Ġwrestling": 8536,
      "iversary": 8537,
      "Ġsounds": 8538,
      "01": 8539,
      "Ġvolumes": 8540,
      "cm": 8541,
      "kee": 8542,
      "inburgh": 8543,
      "Ġmotiv": 8544,
      "ĠCow": 8545,
      "Ġmir": 8546,
      "ilip": 8547,
      "ĠMethod": 8548,
      "ĠBelgian": 8549,
      "Ġshopping": 8550,
      "onna": 8551,
      "Ġfaced": 8552,
      "ĠShort": 8553,
      "Ġequation": 8554,
      "Ġelimin": 8555,
      "Ġsan": 8556,
      "Ġshapes": 8557,
      "ommod": 8558,
      "Ġframe": 8559,
      "Ġkitchen": 8560,
      "AN": 8561,
      "ĠLucy": 8562,
      "lades": 8563,
      "ĠNintendo": 8564,
      "Ġplastic": 8565,
      "ibilities": 8566,
      "PC": 8567,
      "ĠIron": 8568,
      "Ġdisorder": 8569,
      "ersonal": 8570,
      "Ġtheater": 8571,
      "Ġlect": 8572,
      "Ġarc": 8573,
      "Ġflowering": 8574,
      "Mc": 8575,
      "ĠGer": 8576,
      "chell": 8577,
      "Ġvisitors": 8578,
      "Ġillness": 8579,
      "52": 8580,
      "Ġforg": 8581,
      "Ġbegins": 8582,
      "82": 8583,
      "rena": 8584,
      "speaking": 8585,
      "eless": 8586,
      "ĠMong": 8587,
      "ĠLi": 8588,
      "Ġcommitted": 8589,
      "Ġwider": 8590,
      "84": 8591,
      "ĠHop": 8592,
      "def": 8593,
      "ĠNep": 8594,
      "iece": 8595,
      "Ġparticipate": 8596,
      "ĠDaily": 8597,
      "Ġveter": 8598,
      "vo": 8599,
      "ĠEston": 8600,
      "Ġcommit": 8601,
      "phony": 8602,
      "bes": 8603,
      "2015": 8604,
      "Ġorigins": 8605,
      "ĠManhattan": 8606,
      "Ġdebate": 8607,
      "gi": 8608,
      "Ġcake": 8609,
      "Ġmolecular": 8610,
      "ĠRab": 8611,
      "Ġmining": 8612,
      "Ġpeaked": 8613,
      "ĠBroadcasting": 8614,
      "Ġbats": 8615,
      "ĠPhilos": 8616,
      "ĠFinancial": 8617,
      "Ġeasier": 8618,
      "iph": 8619,
      "Ġoutl": 8620,
      "Ġtrends": 8621,
      "ĠJava": 8622,
      "Ġdism": 8623,
      "ĠAges": 8624,
      "anth": 8625,
      "Ġhyper": 8626,
      "CAA": 8627,
      "Ġidentifying": 8628,
      "rants": 8629,
      "ĠShip": 8630,
      "Ġsupports": 8631,
      "Ġbrave": 8632,
      "wall": 8633,
      "Ġcream": 8634,
      "Jack": 8635,
      "Ġtests": 8636,
      "ĠEag": 8637,
      "Ġdepos": 8638,
      "Ġvillages": 8639,
      "Ġregistered": 8640,
      "Ġturb": 8641,
      "aza": 8642,
      "Ġexercise": 8643,
      "itness": 8644,
      "ĠAfghanistan": 8645,
      "inations": 8646,
      "Ġhurt": 8647,
      "ĠFried": 8648,
      "ĠAli": 8649,
      "Ġroads": 8650,
      "Ġlinked": 8651,
      "ĠLieutenant": 8652,
      "ĠPolitical": 8653,
      "Ġalcohol": 8654,
      "Pr": 8655,
      "Ġworth": 8656,
      "ancell": 8657,
      "Ġrepeated": 8658,
      "Ġresidential": 8659,
      "Ġordered": 8660,
      "Ġhat": 8661,
      "ourse": 8662,
      "pir": 8663,
      "ĠActor": 8664,
      "Ġeggs": 8665,
      "ĠIowa": 8666,
      "Ġmyster": 8667,
      "mn": 8668,
      "Ġdish": 8669,
      "Ġchurches": 8670,
      "ĠWarner": 8671,
      "Ġcited": 8672,
      "Ġfine": 8673,
      "Ob": 8674,
      "Ġ1902": 8675,
      "ĠInterstate": 8676,
      "forcement": 8677,
      "ĠCemetery": 8678,
      "Ġtissue": 8679,
      "flow": 8680,
      "aded": 8681,
      "Ġsover": 8682,
      "Ġensuring": 8683,
      "Ġangry": 8684,
      "ĠCart": 8685,
      "Ġgeometry": 8686,
      "Ġenhance": 8687,
      "07": 8688,
      "Ġloan": 8689,
      "Ġdominant": 8690,
      "Ġresearchers": 8691,
      "ĠUEFA": 8692,
      "Ġvide": 8693,
      "irds": 8694,
      "bridge": 8695,
      "Ġappoint": 8696,
      "Ġtemple": 8697,
      "AM": 8698,
      "Ġadding": 8699,
      "ĠFounded": 8700,
      "ĠBuddh": 8701,
      "Ġaccompan": 8702,
      "ĠKit": 8703,
      "ĠTele": 8704,
      "Ġtreaty": 8705,
      "ĠPsych": 8706,
      "ĠExper": 8707,
      "Ġdisput": 8708,
      "Ġ42": 8709,
      "Ġaffiliate": 8710,
      "Ġ1898": 8711,
      "ĠEmer": 8712,
      "ĠAC": 8713,
      "ĠTower": 8714,
      "ĠAthens": 8715,
      "ĠRussell": 8716,
      "opter": 8717,
      "Ġexpressed": 8718,
      "59": 8719,
      "Ġdream": 8720,
      "Ġstatistical": 8721,
      "87": 8722,
      "Ġdatabase": 8723,
      "Ġremove": 8724,
      "ĠAgric": 8725,
      "cons": 8726,
      "thlete": 8727,
      "ĠGab": 8728,
      "ĠPatri": 8729,
      "dam": 8730,
      "Ġunusual": 8731,
      "Ġherself": 8732,
      "Ġinstrumental": 8733,
      "Ġbacteria": 8734,
      "ĠRio": 8735,
      "ĠCEO": 8736,
      "ĠAdam": 8737,
      "Ġready": 8738,
      "Ġscreenwriter": 8739,
      "Ġpioneer": 8740,
      "Ġthing": 8741,
      "steroid": 8742,
      "Ġhappened": 8743,
      "Sm": 8744,
      "town": 8745,
      "Ġinher": 8746,
      "Ġprof": 8747,
      "ymn": 8748,
      "uzz": 8749,
      "Ġpool": 8750,
      "Ġouter": 8751,
      "Ġduo": 8752,
      "Hen": 8753,
      "stic": 8754,
      "ĠML": 8755,
      "ĠHans": 8756,
      "300": 8757,
      "Ġstim": 8758,
      "achelor": 8759,
      "Ġlists": 8760,
      "Ġinterpre": 8761,
      "ĠCapital": 8762,
      "Ġthrone": 8763,
      "ĠNevada": 8764,
      "Ġranks": 8765,
      "ĠSac": 8766,
      "ĠSport": 8767,
      "56": 8768,
      "Ġtells": 8769,
      "ĠLast": 8770,
      "Ġrhythm": 8771,
      "ellar": 8772,
      "ophical": 8773,
      "Ġcourts": 8774,
      "Ġscheduled": 8775,
      "ĠSue": 8776,
      "axy": 8777,
      "Ġgoes": 8778,
      "1993": 8779,
      "onies": 8780,
      "oche": 8781,
      "Ġgraphics": 8782,
      "Ġban": 8783,
      "iking": 8784,
      "Ġprinted": 8785,
      "jamin": 8786,
      "ĠRen": 8787,
      "ĠFarm": 8788,
      "Ġgenerated": 8789,
      "Ġhistorians": 8790,
      "ĠBanglades": 8791,
      "Ġsort": 8792,
      "izer": 8793,
      "Ġscientist": 8794,
      "Ġroot": 8795,
      "ĠMake": 8796,
      "ĠProgressive": 8797,
      "thew": 8798,
      "Ġends": 8799,
      "ĠTitle": 8800,
      "ĠConfederate": 8801,
      "Ġswing": 8802,
      "ĠEver": 8803,
      "Ġ1895": 8804,
      "\";": 8805,
      "uits": 8806,
      "ĠIceland": 8807,
      "Ġranking": 8808,
      "ĠRoll": 8809,
      "Ġdrawing": 8810,
      "ĠPear": 8811,
      "Ġreleases": 8812,
      "ĠPalace": 8813,
      "Ġworn": 8814,
      "Ġdiscip": 8815,
      "ĠSamuel": 8816,
      "mund": 8817,
      "oqu": 8818,
      "ĠNord": 8819,
      "Ġhousehold": 8820,
      "Ġlicense": 8821,
      "Ġtact": 8822,
      "Ġneck": 8823,
      "ĠPhoen": 8824,
      "Ġdepth": 8825,
      "ĠBan": 8826,
      "ĠDal": 8827,
      "Ġdivisions": 8828,
      "auc": 8829,
      "Ġwor": 8830,
      "Ġexecuted": 8831,
      "Ġcoalition": 8832,
      "Ġcontained": 8833,
      "Ġextent": 8834,
      "was": 8835,
      "ĠHold": 8836,
      "AP": 8837,
      "roke": 8838,
      "ĠHungary": 8839,
      "SC": 8840,
      "ĠHospital": 8841,
      "kay": 8842,
      "Ġchrom": 8843,
      "ĠDVD": 8844,
      "ĠKarl": 8845,
      "Ġartificial": 8846,
      "Ġvalid": 8847,
      "Ġ1899": 8848,
      "Ġsuggest": 8849,
      "ĠProtest": 8850,
      "Ġwings": 8851,
      "Ġstood": 8852,
      "Ġthrow": 8853,
      "ĠLam": 8854,
      "rik": 8855,
      "ĠIns": 8856,
      "04": 8857,
      "ĠGordon": 8858,
      "Ġarran": 8859,
      "Ġdiameter": 8860,
      "Ġpercentage": 8861,
      "GB": 8862,
      "Ġspending": 8863,
      "ĠMalaysia": 8864,
      "Ġdating": 8865,
      "Ġsettings": 8866,
      "comes": 8867,
      "ĠBruce": 8868,
      "NO": 8869,
      "osph": 8870,
      "Ġarena": 8871,
      "Ġdefin": 8872,
      "54": 8873,
      "Ġweekly": 8874,
      "operation": 8875,
      "Ġsector": 8876,
      "overning": 8877,
      "ĠChristopher": 8878,
      "being": 8879,
      "Peter": 8880,
      "ĠCabinet": 8881,
      "Ġcompounds": 8882,
      "ĠEdinburgh": 8883,
      "Ġregarding": 8884,
      "BE": 8885,
      "addy": 8886,
      "Ġbone": 8887,
      "ĠJordan": 8888,
      "owned": 8889,
      "Ġrocks": 8890,
      "Ġtoward": 8891,
      "Ġrow": 8892,
      "Ġsmart": 8893,
      "Ġaffects": 8894,
      "ĠDakota": 8895,
      "Ġtenure": 8896,
      "ĠMess": 8897,
      "ĠEff": 8898,
      "Ġproved": 8899,
      "Ġconference": 8900,
      "Ġconvicted": 8901,
      "Ġretiring": 8902,
      "uscript": 8903,
      "ĠYug": 8904,
      "ĠReading": 8905,
      "Ap": 8906,
      "ĠAntonio": 8907,
      "1980": 8908,
      "ĠBenefits": 8909,
      "ĠDonald": 8910,
      "ĠIl": 8911,
      "Ġhall": 8912,
      "ĠManu": 8913,
      "ĠRegister": 8914,
      "Ġbiology": 8915,
      "Ġiniti": 8916,
      "uy": 8917,
      "Ġfal": 8918,
      "ĠOrchestra": 8919,
      "oga": 8920,
      "Ġcompound": 8921,
      "Ġbeat": 8922,
      "Ġteeth": 8923,
      "ĠGuinea": 8924,
      "Ġaccommod": 8925,
      "Ġpersonnel": 8926,
      "kh": 8927,
      "Ġmainstream": 8928,
      "Ġ1894": 8929,
      "mingham": 8930,
      "ME": 8931,
      "ĠLang": 8932,
      "ĠReserve": 8933,
      "Ġelse": 8934,
      "Ġshut": 8935,
      "shaped": 8936,
      "Ġscreenplay": 8937,
      "Ġcriticism": 8938,
      "Ġfame": 8939,
      "ĠAdams": 8940,
      "inton": 8941,
      "Ġdescent": 8942,
      "Ġfib": 8943,
      "ĠYears": 8944,
      "mus": 8945,
      "ĠPle": 8946,
      "opes": 8947,
      "Ġmort": 8948,
      "Ġresort": 8949,
      "1994": 8950,
      "amps": 8951,
      "Ġdiplomat": 8952,
      "BO": 8953,
      "cano": 8954,
      "Ġentitled": 8955,
      "Ġcolony": 8956,
      "erals": 8957,
      "ĠRugby": 8958,
      "Ġ43": 8959,
      "Ġdistribut": 8960,
      "ceae": 8961,
      "Ġextreme": 8962,
      "Ġaqu": 8963,
      "ushed": 8964,
      "ĠRailroad": 8965,
      "Ġrend": 8966,
      "ipher": 8967,
      "ĠSurvey": 8968,
      "Ġhabitat": 8969,
      "Ġmeat": 8970,
      "Ġconnects": 8971,
      "evin": 8972,
      "ĠNat": 8973,
      "ĠNig": 8974,
      "Ġpasses": 8975,
      "ĠBernard": 8976,
      "lon": 8977,
      "ĠRun": 8978,
      "ĠMuhammad": 8979,
      "Ġthin": 8980,
      "ifies": 8981,
      "Ġcaps": 8982,
      "Com": 8983,
      "Ġpictures": 8984,
      "Ġtrav": 8985,
      "Ġindicate": 8986,
      "songwriter": 8987,
      "Following": 8988,
      "Ġuniform": 8989,
      "That": 8990,
      "ĠProductions": 8991,
      "Ġcharges": 8992,
      "Ant": 8993,
      "aro": 8994,
      "Ġpretty": 8995,
      "Ġsample": 8996,
      "iege": 8997,
      "berry": 8998,
      "Ġprest": 8999,
      "ĠFranco": 9000,
      "Ġconsumer": 9001,
      "otton": 9002,
      "ulu": 9003,
      "03": 9004,
      "Ġtone": 9005,
      "Ġplaywright": 9006,
      "Ġ1897": 9007,
      "ĠMotor": 9008,
      "Ġemergency": 9009,
      "ĠRevolutionary": 9010,
      "ĠUniversal": 9011,
      "Ġbaby": 9012,
      "Ġvast": 9013,
      "Ġreliable": 9014,
      "Mus": 9015,
      "ĠCall": 9016,
      "ĠDog": 9017,
      "ĠAngl": 9018,
      "Ġconstitution": 9019,
      "ĠKy": 9020,
      "Ġindex": 9021,
      "Ġconfig": 9022,
      "ĠOttawa": 9023,
      "Ġcharged": 9024,
      "Ġdeleg": 9025,
      "gow": 9026,
      "Ġhurricane": 9027,
      "51": 9028,
      "zer": 9029,
      "Ġchess": 9030,
      "ĠRef": 9031,
      "Ġ1870": 9032,
      "ĠMoore": 9033,
      "Ġcul": 9034,
      "Ġswimming": 9035,
      "Ġign": 9036,
      "Ġshiny": 9037,
      "ĠCer": 9038,
      "Ġcarrier": 9039,
      "1992": 9040,
      "Ġvessels": 9041,
      "Ġtribut": 9042,
      "Ġwhereas": 9043,
      "ĠAndre": 9044,
      "rainian": 9045,
      "Ġbishop": 9046,
      "ĠMult": 9047,
      "Ġfavour": 9048,
      "Ġassumed": 9049,
      "eler": 9050,
      "ĠCanal": 9051,
      "Ġvariables": 9052,
      "called": 9053,
      "Ġcous": 9054,
      "rett": 9055,
      "Ġengage": 9056,
      "unct": 9057,
      "mers": 9058,
      "Ġdepict": 9059,
      "caster": 9060,
      "Ġcogn": 9061,
      "Ġda": 9062,
      "ĠAlong": 9063,
      "Ġcontroversy": 9064,
      "ĠNorman": 9065,
      "ĠAnim": 9066,
      "Ø§": 9067,
      "ĠComputer": 9068,
      "Ġterror": 9069,
      "ĠEven": 9070,
      "ultane": 9071,
      "Ġlegislation": 9072,
      "Ġresc": 9073,
      "Ġcurrency": 9074,
      "Ġbelonging": 9075,
      "ĠWinn": 9076,
      "Ġrapidly": 9077,
      "case": 9078,
      "Ġorient": 9079,
      "ĠGlas": 9080,
      "Ġstatistics": 9081,
      "ĠSingles": 9082,
      "ĠBrooklyn": 9083,
      "Ġframework": 9084,
      "ĠFive": 9085,
      "ĠIndustry": 9086,
      "je": 9087,
      "Ġdemocrat": 9088,
      "Ġprofessionals": 9089,
      "ĠSara": 9090,
      "Ġconstitutional": 9091,
      "rass": 9092,
      "Ġruler": 9093,
      "Ġexcess": 9094,
      "cription": 9095,
      "Ġcommittee": 9096,
      "Ġanything": 9097,
      "icular": 9098,
      "away": 9099,
      "Ġfriendly": 9100,
      "Ġorders": 9101,
      "usalem": 9102,
      "thumb": 9103,
      "ĠProvin": 9104,
      "Ġinvented": 9105,
      "Ġexposure": 9106,
      "Ste": 9107,
      "ĠTig": 9108,
      "Ġtrail": 9109,
      "Ġwindow": 9110,
      "ĠNapole": 9111,
      "ĠAP": 9112,
      "2016": 9113,
      "Ġvoting": 9114,
      "Ġduck": 9115,
      "ĠVienna": 9116,
      "ĠCold": 9117,
      "ĠMaur": 9118,
      "scale": 9119,
      "ĠBed": 9120,
      "ffee": 9121,
      "Ġhoriz": 9122,
      "icist": 9123,
      "otte": 9124,
      "iffer": 9125,
      "iscount": 9126,
      "ĠAle": 9127,
      "Ġ44": 9128,
      "Ġanimation": 9129,
      "winning": 9130,
      "ĠCurrent": 9131,
      "Ġalleged": 9132,
      "ĠWalt": 9133,
      "Ġannoun": 9134,
      "ĠRest": 9135,
      "rating": 9136,
      "Ġcampaigns": 9137,
      "Ġdiscussed": 9138,
      "Ġranging": 9139,
      "Ġwheel": 9140,
      "Ġenzym": 9141,
      "Ġ47": 9142,
      "apped": 9143,
      "ĠLith": 9144,
      "ĠControl": 9145,
      "Ġadults": 9146,
      "emor": 9147,
      "ĠMayor": 9148,
      "ĠArchitect": 9149,
      "Ġmechanism": 9150,
      "isted": 9151,
      "obby": 9152,
      "ĠPrincip": 9153,
      "Ġille": 9154,
      "Ġ46": 9155,
      "Ġextensively": 9156,
      "NFL": 9157,
      "Ġski": 9158,
      "ĠStewart": 9159,
      "dimensional": 9160,
      "Ġmeets": 9161,
      "ĠByz": 9162,
      "Ġsoutheastern": 9163,
[...]
