{
  "version": "1.0",
  "truncation": null,
  "padding": null,
  "added_tokens": [
    {
      "id": 0,
      "content": "<|endoftext|>",
      "single_word": false,
      "lstrip": false,
      "rstrip": false,
      "normalized": false,
      "special": true
    }
  ],
  "normalizer": null,
  "pre_tokenizer": {
    "type": "ByteLevel",
    "add_prefix_space": false,
    "trim_offsets": true,
    "use_regex": true
  },
  "post_processor": {
    "type": "ByteLevel",
    "add_prefix_space": true,
    "trim_offsets": false,
    "use_regex": true
  },
  "decoder": {
    "type": "ByteLevel",
    "add_prefix_space": true,
    "trim_offsets": true,
    "use_regex": true
  },
  "model": {
    "type": "BPE",
    "dropout": null,
    "unk_token": "[UNK]",
    "continuing_subword_prefix": null,
    "end_of_word_suffix": null,
    "fuse_unk": false,
    "byte_fallback": false,
    "ignore_merges": false,
    "vocab": {
      "<|endoftext|>": 0,
      "!": 1,
      "$": 2,
      "&": 3,
      "'": 4,
      ",": 5,
      "-": 6,
      ".": 7,
      "3": 8,
      ":": 9,
      ";": 10,
      "?": 11,
      "A": 12,
      "B": 13,
      "C": 14,
      "D": 15,
      "E": 16,
      "F": 17,
      "G": 18,
      "H": 19,
      "I": 20,
      "J": 21,
      "K": 22,
      "L": 23,
      "M": 24,
      "N": 25,
      "O": 26,
      "P": 27,
      "Q": 28,
      "R": 29,
      "S": 30,
      "T": 31,
      "U": 32,
      "V": 33,
      "W": 34,
      "X": 35,
      "Y": 36,
      "Z": 37,
      "a": 38,
      "b": 39,
      "c": 40,
      "d": 41,
      "e": 42,
      "f": 43,
      "g": 44,
      "h": 45,
      "i": 46,
      "j": 47,
      "k": 48,
      "l": 49,
      "m": 50,
      "n": 51,
      "o": 52,
      "p": 53,
      "q": 54,
      "r": 55,
      "s": 56,
      "t": 57,
      "u": 58,
      "v": 59,
      "w": 60,
      "x": 61,
      "y": 62,
      "z": 63,
      "Ċ": 64,
      "Ġ": 65,
      "Ġt": 66,
      "he": 67,
      "Ġa": 68,
      "ou": 69,
      "Ġs": 70,
      "Ġm": 71,
      "in": 72,
      "Ġw": 73,
      "re": 74,
      "ha": 75,
      "nd": 76,
      "Ġthe": 77,
      "Ġb": 78,
      "is": 79,
      "or": 80,
      "Ġf": 81,
      "er": 82,
      "ll": 83,
      "it": 84,
      "on": 85,
      "Ġd": 86,
      "Ġc": 87,
      "es": 88,
      "en": 89,
      "Ġn": 90,
      "Ġl": 91,
      "Ġy": 92,
      "Ġth": 93,
      "ar": 94,
      "Ġh": 95,
      "Ġo": 96,
      "Ġto": 97,
      "Ġyou": 98,
      "Ġp": 99,
      "hat": 100,
      "ĠI": 101,
      "Ġhe": 102,
      "ve": 103,
      "ot": 104,
      "st": 105,
      "Ġand": 106,
      "ow": 107,
      "ing": 108,
      "an": 109,
      "Ġof": 110,
      "om": 111,
      "Ġg": 112,
      "at": 113,
      "Ġbe": 114,
      "se": 115,
      "Ġmy": 116,
      "Ġin": 117,
      "ce": 118,
      "Ġha": 119,
      "le": 120,
      "ay": 121,
      "ld": 122,
      "ir": 123,
      "et": 124,
      "ed": 125,
      "ut": 126,
      "Ġme": 127,
      "im": 128,
      "ith": 129,
      "'s": 130,
      "Ġnot": 131,
      "ch": 132,
      "Ġthat": 133,
      "Ġis": 134,
      "gh": 135,
      "And": 136,
      "Ġfor": 137,
      "ke": 138,
      "Ġu": 139,
      "our": 140,
      "Ġwe": 141,
      "oo": 142,
      "ill": 143,
      "Ġe": 144,
      "her": 145,
      "Ġwith": 146,
      "ent": 147,
      "Ġit": 148,
      "Ġyour": 149,
      "ad": 150,
      "ri": 151,
      "Ġthou": 152,
      "Ġst": 153,
      "'d": 154,
      "Ġk": 155,
      "ome": 156,
      "Ġhis": 157,
      "ght": 158,
      "EN": 159,
      "ord": 160,
      "id": 161,
      "The": 162,
      "as": 163,
      "Ġre": 164,
      "Ġhave": 165,
      "IN": 166,
      "ly": 167,
      "ra": 168,
      "Ġli": 169,
      "Ġhim": 170,
      "ur": 171,
      "Ġthis": 172,
      "al": 173,
      "IO": 174,
      "Ġso": 175,
      "Ġas": 176,
      "Ġde": 177,
      "Ġon": 178,
      "ore": 179,
      "ro": 180,
      "AR": 181,
      "hi": 182,
      "ould": 183,
      "ood": 184,
      "ck": 185,
      "ain": 186,
      "ver": 187,
      "est": 188,
      "Ġthy": 189,
      "Ġsha": 190,
      "ess": 191,
      "ea": 192,
      "Ġdo": 193,
      "Ġwill": 194,
      "am": 195,
      "Ġno": 196,
      "Ġbut": 197,
      "us": 198,
      "and": 199,
      "US": 200,
      "if": 201,
      "Ġse": 202,
      "ge": 203,
      "Th": 204,
      "Ġall": 205,
      "ake": 206,
      "Ġsu": 207,
      "To": 208,
      "Ġher": 209,
      "ru": 210,
      "ion": 211,
      "th": 212,
      "Ġan": 213,
      "ter": 214,
      "ard": 215,
      "Ġlo": 216,
      "han": 217,
      "ell": 218,
      "ear": 219,
      "Ġsp": 220,
      "Ġthee": 221,
      "Ġour": 222,
      "Ġfa": 223,
      "Ġshall": 224,
      "Ġby": 225,
      "UC": 226,
      "il": 227,
      "Ġare": 228,
      "ING": 229,
      "ĠC": 230,
      "rom": 231,
      "Ġne": 232,
      "ho": 233,
      "Ġkn": 234,
      "AN": 235,
      "ĠR": 236,
      "That": 237,
      "Ġv": 238,
      "ER": 239,
      "OR": 240,
      "ast": 241,
      "ct": 242,
      "ous": 243,
      "Ġwhat": 244,
      "ight": 245,
      "Ġsh": 246,
      "ul": 247,
      "ET": 248,
      "Ġ'": 249,
      "ant": 250,
      "ES": 251,
      "Ġup": 252,
      "sel": 253,
      "qu": 254,
      "But": 255,
      "art": 256,
      "Ġgood": 257,
      "row": 258,
      "ine": 259,
      "ath": 260,
      "Ġlord": 261,
      "hich": 262,
      "nt": 263,
      "ust": 264,
      "'ll": 265,
      "one": 266,
      "Ġpr": 267,
      "Ġcom": 268,
      "Ġat": 269,
      "Ġman": 270,
      "What": 271,
      "ĠM": 272,
      "Ġwhe": 273,
      "ĠE": 274,
      "KING": 275,
      "Ġam": 276,
      "end": 277,
      "ic": 278,
      "Ġcon": 279,
      "ble": 280,
      "ry": 281,
      "ong": 282,
      "ie": 283,
      "ive": 284,
      "Ġbl": 285,
      "Ġfrom": 286,
      "ven": 287,
      "ĠG": 288,
      "For": 289,
      "Ġshe": 290,
      "em": 291,
      "Ġgo": 292,
      "are": 293,
      "Ġmore": 294,
      "IC": 295,
      "out": 296,
      "Ġthem": 297,
      "au": 298,
      "Ġwas": 299,
      "oth": 300,
      "other": 301,
      "He": 302,
      "Ġsir": 303,
      "ol": 304,
      "Ġnow": 305,
      "ĠL": 306,
      "Ġhat": 307,
      "ost": 308,
      "Ġif": 309,
      "LO": 310,
      "ind": 311,
      "Ġthere": 312,
      "Ġwould": 313,
      "Ġknow": 314,
      "Ġcan": 315,
      "ers": 316,
      "IUS": 317,
      "ep": 318,
      "self": 319,
      "ARD": 320,
      "ather": 321,
      "fe": 322,
      "ond": 323,
      "res": 324,
      "ate": 325,
      "Ġsay": 326,
      "Ġhere": 327,
      "Ġlove": 328,
      "Ġsw": 329,
      "Ġtheir": 330,
      "Ġbr": 331,
      "pp": 332,
      "Ġor": 333,
      "--": 334,
      "all": 335,
      "ĠS": 336,
      "Ġthan": 337,
      "Ġthen": 338,
      "Ġking": 339,
      "Ġus": 340,
      "ĠO": 341,
      "ĠB": 342,
      "Ġthey": 343,
      "Ġar": 344,
      "od": 345,
      "My": 346,
      "Ġlet": 347,
      "Ġun": 348,
      "ig": 349,
      "Ġwor": 350,
      "ure": 351,
      "ink": 352,
      "ĠH": 353,
      "ort": 354,
      "hy": 355,
      "ĠV": 356,
      "ame": 357,
      "fore": 358,
      "As": 359,
      "Ġmay": 360,
      "el": 361,
      "Ġqu": 362,
      "Ġcome": 363,
      "ook": 364,
      "Whe": 365,
      "ish": 366,
      "LI": 367,
      "Ġwell": 368,
      "KE": 369,
      "ves": 370,
      "Ġj": 371,
      "Ġone": 372,
      "Ġhath": 373,
      "irst": 374,
      "You": 375,
      "Ġmake": 376,
      "reat": 377,
      "ak": 378,
      "gain": 379,
      "Ġmust": 380,
      "ound": 381,
      "ng": 382,
      "Ġgra": 383,
      "Ġwere": 384,
      "Ġho": 385,
      "ci": 386,
      "Ġsee": 387,
      "Ġlike": 388,
      "ue": 389,
      "eak": 390,
      "TIO": 391,
      "Ġshould": 392,
      "ity": 393,
      "Ġpro": 394,
      "ĠP": 395,
      "Ġsa": 396,
      "Ġmad": 397,
      "um": 398,
      "Ġpl": 399,
      "Ġfather": 400,
      "RO": 401,
      "AU": 402,
      "Ġhad": 403,
      "Ġdid": 404,
      "pe": 405,
      "ime": 406,
      "Ġupon": 407,
      "ice": 408,
      "ON": 409,
      "Ġtoo": 410,
      "ence": 411,
      "ĠW": 412,
      "ward": 413,
      "ist": 414,
      "Ġdeath": 415,
      "own": 416,
      "man": 417,
      "ose": 418,
      "Ġen": 419,
      "un": 420,
      "IS": 421,
      "ful": 422,
      "nce": 423,
      "Ġr": 424,
      "Ġpo": 425,
      "Ġspeak": 426,
      "de": 427,
      "entle": 428,
      "io": 429,
      "Ġout": 430,
      "pt": 431,
      "Ġwhich": 432,
      "ICH": 433,
      "Ġfri": 434,
      "OL": 435,
      "DU": 436,
      "Ġagain": 437,
      "DUKE": 438,
      "Ġhow": 439,
      "EL": 440,
      "ick": 441,
      "ĠA": 442,
      "Ġtru": 443,
      "Ġheart": 444,
      "Ġyet": 445,
      "Ġhand": 446,
      "CA": 447,
      "Thou": 448,
      "very": 449,
      "ICHARD": 450,
      "ENTIO": 451,
      "With": 452,
      "ign": 453,
      "Ġsome": 454,
      "ance": 455,
      "Ġwho": 456,
      "Which": 457,
      "If": 458,
      "Ġwhen": 459,
      "ies": 460,
      "Ġmar": 461,
      "ire": 462,
      "Ġmine": 463,
      "Ġhon": 464,
      "har": 465,
      "orn": 466,
      "Ġoff": 467,
      "ince": 468,
      "INC": 469,
      "In": 470,
      "ack": 471,
      "ĠY": 472,
      "Ġson": 473,
      "Ġdis": 474,
      "Ġal": 475,
      "'t": 476,
      "We": 477,
      "uch": 478,
      "wn": 479,
      "Ġhea": 480,
      "First": 481,
      "oy": 482,
      "Ġtime": 483,
      "Ġhear": 484,
      "AB": 485,
      "ec": 486,
      "Ġsuch": 487,
      "ness": 488,
      "LA": 489,
      "Ġbrother": 490,
      "Of": 491,
      "Ġblood": 492,
      "ither": 493,
      "Ġab": 494,
      "UE": 495,
      "Why": 496,
      "Ġthese": 497,
      "No": 498,
      "Ġgive": 499,
      "Ġfo": 500,
      "Ġday": 501,
      "ĠII": 502,
      "Ġear": 503,
      "ĠRICHARD": 504,
      "TER": 505,
      "Ġro": 506,
      "ise": 507,
      "Ġex": 508,
      "Ġlife": 509,
      "This": 510,
      "eet": 511,
      "Ġtell": 512,
      "So": 513,
      "Ġlook": 514,
      "Ġthink": 515,
      "UCH": 516,
      "oul": 517,
      "Ġword": 518,
      "Ġey": 519,
      "Ġwhere": 520,
      "ag": 521,
      "age": 522,
      "een": 523,
      "ther": 524,
      "GLO": 525,
      "Ġtake": 526,
      "UCES": 527,
      "Ġfriend": 528,
      "GLOUCES": 529,
      "GLOUCESTER": 530,
      "ef": 531,
      "erv": 532,
      "ady": 533,
      "rown": 534,
      "Ġdes": 535,
      "ings": 536,
      "ave": 537,
      "not": 538,
      "Ġgentle": 539,
      "urse": 540,
      "How": 541,
      "RY": 542,
      "Ġri": 543,
      "ase": 544,
      "QUE": 545,
      "way": 546,
      "INCENTIO": 547,
      "QUEEN": 548,
      "Ġlea": 549,
      "tis": 550,
      "ĠOF": 551,
      "Ġart": 552,
      "Ġmost": 553,
      "Where": 554,
      "Ġhonour": 555,
      "LAN": 556,
      "Ġmuch": 557,
      "Ġsl": 558,
      "Ġwar": 559,
      "Ġfl": 560,
      "urn": 561,
      "Ġmade": 562,
      "ment": 563,
      "Now": 564,
      "Ġhast": 565,
      "Ġtw": 566,
      "Ġfear": 567,
      "ĠT": 568,
      "Ġbet": 569,
      "ENRY": 570,
      "aught": 571,
      "Is": 572,
      "LE": 573,
      "ber": 574,
      "ff": 575,
      "ĠGod": 576,
      "ough": 577,
      "ved": 578,
      "Ġbre": 579,
      "cc": 580,
      "ower": 581,
      "Ġnever": 582,
      "ĠVINCENTIO": 583,
      "Be": 584,
      "ap": 585,
      "igh": 586,
      "ĠK": 587,
      "Ġgreat": 588,
      "Ġfair": 589,
      "Who": 590,
      "ee": 591,
      "tle": 592,
      "Ġmen": 593,
      "orrow": 594,
      "Ġcou": 595,
      "Ġnew": 596,
      "ĠRome": 597,
      "aster": 598,
      "uke": 599,
      "iz": 600,
      "old": 601,
      "ORK": 602,
      "Ġpart": 603,
      "ation": 604,
      "INIUS": 605,
      "ss": 606,
      "ree": 607,
      "ide": 608,
      "Or": 609,
      "Ġcall": 610,
      "ple": 611,
      "Ġany": 612,
      "Ġheaven": 613,
      "Ġad": 614,
      "Ġcomm": 615,
      "It": 616,
      "Your": 617,
      "Ġstand": 618,
      "Ġcannot": 619,
      "Ġtrue": 620,
      "DW": 621,
      "Ġname": 622,
      "Ġbeen": 623,
      "ears": 624,
      "DWARD": 625,
      "Ġcl": 626,
      "Ġpre": 627,
      "Ġsweet": 628,
      ",--": 629,
      "Ġdoth": 630,
      "Ġpray": 631,
      "hing": 632,
      "PET": 633,
      "UM": 634,
      "Ġnoble": 635,
      "LUC": 636,
      "MEN": 637,
      "TH": 638,
      "Ġown": 639,
      "Ġple": 640,
      "ass": 641,
      "ĠD": 642,
      "ouse": 643,
      "Ġper": 644,
      "Ay": 645,
      "Come": 646,
      "ull": 647,
      "There": 648,
      "Ġwr": 649,
      "Ġdone": 650,
      "ife": 651,
      "aw": 652,
      "Ġtr": 653,
      "Ġway": 654,
      "Ġother": 655,
      "Ġhead": 656,
      "Ġmean": 657,
      "li": 658,
      "red": 659,
      "When": 660,
      "dward": 661,
      "Ġnor": 662,
      "EO": 663,
      "MEO": 664,
      "Ġsc": 665,
      "Ġsoul": 666,
      "Ġpres": 667,
      "ROMEO": 668,
      "ace": 669,
      "ving": 670,
      "Ġnight": 671,
      "Ġbear": 672,
      "ENIUS": 673,
      "aint": 674,
      "ĠCl": 675,
      "Ġworld": 676,
      "MENENIUS": 677,
      "ger": 678,
      "Ġbefore": 679,
      "ause": 680,
      "Ġboth": 681,
      "Ġqueen": 682,
      "per": 683,
      "Then": 684,
      "aughter": 685,
      "RUCH": 686,
      "ock": 687,
      "Ġchi": 688,
      "Here": 689,
      "PETRUCH": 690,
      "PETRUCHIO": 691,
      "OM": 692,
      "able": 693,
      "Ġvery": 694,
      "Ġdead": 695,
      "TES": 696,
      "By": 697,
      "Ġra": 698,
      "ite": 699,
      "Than": 700,
      "the": 701,
      "Ġke": 702,
      "ab": 703,
      "les": 704,
      "ĠF": 705,
      "Ġdown": 706,
      "to": 707,
      "Ġapp": 708,
      "Ġmyself": 709,
      "Ġcont": 710,
      "GR": 711,
      "HA": 712,
      "Ġwh": 713,
      "Ġrem": 714,
      "ĠLord": 715,
      "Ġarm": 716,
      "Ġthus": 717,
      "IOLAN": 718,
      "ilt": 719,
      "ORIOLAN": 720,
      "ORIOLANUS": 721,
      "CORIOLANUS": 722,
      "Sec": 723,
      "Ġleave": 724,
      "Second": 725,
      "Ġbeing": 726,
      "ction": 727,
      "ĠEdward": 728,
      "Nor": 729,
      "sw": 730,
      "Ġunt": 731,
      "ress": 732,
      "Ġgrace": 733,
      "less": 734,
      "Ġbeg": 735,
      "Ġeyes": 736,
      "BA": 737,
      "land": 738,
      "Ġmother": 739,
      "ran": 740,
      "Ġma": 741,
      "Ġold": 742,
      "Ġim": 743,
      "INA": 744,
      "ĠEDWARD": 745,
      "itiz": 746,
      "itizen": 747,
      "ps": 748,
      "Ġlong": 749,
      "Ġever": 750,
      "ĠMar": 751,
      "Ġlive": 752,
      "Ġchild": 753,
      "Let": 754,
      "me": 755,
      "Ġwife": 756,
      "She": 757,
      "Ġaway": 758,
      "Ġrep": 759,
      "ĠIII": 760,
      "Ġwom": 761,
      "Ġpoor": 762,
      "Ġfriends": 763,
      "come": 764,
      "for": 765,
      "wick": 766,
      "Ġaf": 767,
      "Ġmight": 768,
      "nder": 769,
      "Ġstay": 770,
      "eace": 771,
      "ks": 772,
      "oud": 773,
      "Ġdie": 774,
      "atch": 775,
      "led": 776,
      "ĠJ": 777,
      "Ġru": 778,
      "arwick": 779,
      "Ġcomes": 780,
      "Ġcons": 781,
      "Ġcrown": 782,
      "ows": 783,
      "Ġmany": 784,
      "Ġpe": 785,
      "Tis": 786,
      "hall": 787,
      "ison": 788,
      "Ġle": 789,
      "ĠYORK": 790,
      "lo": 791,
      "uck": 792,
      "iss": 793,
      "Ġhouse": 794,
      "Ġhar": 795,
      "Ġthought": 796,
      "Ġrest": 797,
      "ISAB": 798,
      "ELLA": 799,
      "ISABELLA": 800,
      "ian": 801,
      "erc": 802,
      "Ġcour": 803,
      "RAN": 804,
      "Ġent": 805,
      "Ġlie": 806,
      "che": 807,
      "Ġset": 808,
      "JU": 809,
      "well": 810,
      "ors": 811,
      "atter": 812,
      "LIET": 813,
      "ONTES": 814,
      "ĠWarwick": 815,
      "LEONTES": 816,
      "JULIET": 817,
      "Nay": 818,
      "int": 819,
      "ittle": 820,
      "Ġdaughter": 821,
      "Ġgone": 822,
      "Ġbetter": 823,
      "MI": 824,
      "rant": 825,
      "ought": 826,
      "Ġprince": 827,
      "DY": 828,
      "His": 829,
      "Ġtong": 830,
      "Ġwit": 831,
      "Ġnothing": 832,
      "CE": 833,
      "VOL": 834,
      "ENCE": 835,
      "LADY": 836,
      "BR": 837,
      "TA": 838,
      "cl": 839,
      "ied": 840,
      "Ġkeep": 841,
      "Go": 842,
      "Well": 843,
      "ces": 844,
      "ious": 845,
      "os": 846,
      "Ġsle": 847,
      "Ġres": 848,
      "hard": 849,
      "Ġnews": 850,
      "SIC": 851,
      "ft": 852,
      "ier": 853,
      "Ġtri": 854,
      "Ġmo": 855,
      "ret": 856,
      "ont": 857,
      "Ġthose": 858,
      "Ġgri": 859,
      "ool": 860,
      "une": 861,
      "SICINIUS": 862,
      "Not": 863,
      "Ġlittle": 864,
      "Ġlords": 865,
      "Ġagainst": 866,
      "ford": 867,
      "Ġbest": 868,
      "Ġhour": 869,
      "Ġhence": 870,
      "ardon": 871,
      "akes": 872,
      "lse": 873,
      "Ġacc": 874,
      "sed": 875,
      "Ġface": 876,
      "ult": 877,
      "Ġfoll": 878,
      "On": 879,
      "ew": 880,
      "ud": 881,
      "ark": 882,
      "Ġyoung": 883,
      "Ġend": 884,
      "ork": 885,
      "Ġthing": 886,
      "Ġstill": 887,
      "Ġkind": 888,
      "ield": 889,
      "ST": 890,
      "Ġpri": 891,
      "Ġpur": 892,
      "alk": 893,
      "Thy": 894,
      "Ġcomp": 895,
      "LUCIO": 896,
      "ale": 897,
      "ins": 898,
      "ert": 899,
      "Ġput": 900,
      "Ġpower": 901,
      "ĠIV": 902,
      "ichard": 903,
      "Ġtwo": 904,
      "Ġcha": 905,
      "Ġhimself": 906,
      "Pro": 907,
      "iness": 908,
      "Ġfirst": 909,
      "Ġpeace": 910,
      "Ġgu": 911,
      "Ġelse": 912,
      "ried": 913,
      "Ġdear": 914,
      "cious": 915,
      "Sir": 916,
      "ail": 917,
      "ty": 918,
      "ason": 919,
      "hile": 920,
      "Ġsub": 921,
      "Ġunto": 922,
      "ile": 923,
      "ray": 924,
      "Ġtill": 925,
      "Ġsm": 926,
      "uty": 927,
      "RI": 928,
      "ZAB": 929,
      "ect": 930,
      "Ġtra": 931,
      "Ġbid": 932,
      "Ġback": 933,
      "Ġdre": 934,
      "Ġhus": 935,
      "ETH": 936,
      "ĠELI": 937,
      "Ġtherefore": 938,
      "Ġearth": 939,
      "Ġwords": 940,
      "Ġcount": 941,
      "ZABETH": 942,
      "ĠELIZABETH": 943,
      "Have": 944,
      "band": 945,
      "ius": 946,
      "men": 947,
      "ople": 948,
      "yal": 949,
      "Ġfind": 950,
      "Ġcould": 951,
      "Ġtongue": 952,
      "orse": 953,
      "Ġlady": 954,
      "Ġthine": 955,
      "Ġneed": 956,
      "ĠYork": 957,
      "HENRY": 958,
      "get": 959,
      "tw": 960,
      "Ġtre": 961,
      "Ġfell": 962,
      "enry": 963,
      "Ġhigh": 964,
      "Ġforth": 965,
      "Ġhope": 966,
      "MER": 967,
      "St": 968,
      "lp": 969,
      "Ġhome": 970,
      "vere": 971,
      "eth": 972,
      "Ġseem": 973,
      "eech": 974,
      "ĠRomeo": 975,
      "Ġhusband": 976,
      "CL": 977,
      "Ġduke": 978,
      "Ġright": 979,
      "GE": 980,
      "WAR": 981,
      "WIC": 982,
      "fort": 983,
      "ĠWhat": 984,
      "rer": 985,
      "Ġban": 986,
      "uth": 987,
      "Ġthough": 988,
      "ĠVI": 989,
      "WARWIC": 990,
      "WARWICK": 991,
      "UT": 992,
      "ach": 993,
      "ix": 994,
      "Ġmind": 995,
      "Ġbra": 996,
      "ister": 997,
      "Ġche": 998,
      "Ġchar": 999,
      "hip": 1000,
      "ĠHENRY": 1001,
      "Ġpeople": 1002,
      "Nurse": 1003,
      "ds": 1004,
      "ged": 1005,
      "ĠCitizen": 1006,
      "ren": 1007,
      "They": 1008,
      "ĠHenry": 1009,
      "HAM": 1010,
      "IAN": 1011,
      "LET": 1012,
      "PU": 1013,
      "eed": 1014,
      "Ġbri": 1015,
      "Ġchan": 1016,
      "Ġlaw": 1017,
      "ĠRichard": 1018,
      "Ġshow": 1019,
      "Ġconf": 1020,
      "Ġhands": 1021,
      "PULET": 1022,
      "EY": 1023,
      "be": 1024,
      "Ġmaster": 1025,
      "Ġwhy": 1026,
      "Ġco": 1027,
      "Ġcause": 1028,
      "Ġgl": 1029,
      "Ġonce": 1030,
      "Ġsaid": 1031,
      "Ġimp": 1032,
      "Good": 1033,
      "MIO": 1034,
      "Shall": 1035,
      "Ġbod": 1036,
      "Ġnone": 1037,
      "ousin": 1038,
      "Ġjoy": 1039,
      "ervant": 1040,
      "All": 1041,
      "bt": 1042,
      "Ġfort": 1043,
      "Ġbring": 1044,
      "Yet": 1045,
      "Ġdou": 1046,
      "ates": 1047,
      "Ġevery": 1048,
      "UCKING": 1049,
      "BRUT": 1050,
      "UCKINGHAM": 1051,
      "BRUTUS": 1052,
      "BRO": 1053,
      "BUCKINGHAM": 1054,
      "From": 1055,
      "TRAN": 1056,
      "iet": 1057,
      "Ġmist": 1058,
      "Ġpass": 1059,
      "ird": 1060,
      "Ġlight": 1061,
      "INGBRO": 1062,
      "ESS": 1063,
      "ĠBOL": 1064,
      "TRANIO": 1065,
      "INGBROKE": 1066,
      "ĠBOLINGBROKE": 1067,
      "Do": 1068,
      "Will": 1069,
      "lt": 1070,
      "vost": 1071,
      "Ġwo": 1072,
      "Ġnat": 1073,
      "Ġthr": 1074,
      "Ġroyal": 1075,
      "swer": 1076,
      "PER": 1077,
      "TIS": 1078,
      "cle": 1079,
      "Ġtears": 1080,
      "its": 1081,
      "Ġcame": 1082,
      "ary": 1083,
      "ĠMAR": 1084,
      "Ġwhose": 1085,
      "Ġplease": 1086,
      "lf": 1087,
      "vy": 1088,
      "ory": 1089,
      "Ġpardon": 1090,
      "roke": 1091,
      "ĠAn": 1092,
      "Cl": 1093,
      "GAR": 1094,
      "NE": 1095,
      "pose": 1096,
      "Ġbes": 1097,
      "Ġboy": 1098,
      "Ġfull": 1099,
      "arry": 1100,
      "Ġheard": 1101,
      "Ġhapp": 1102,
      "Ġdev": 1103,
      "Ġjust": 1104,
      "Ġwrong": 1105,
      "Ġpresent": 1106,
      "ĠMARGAR": 1107,
      "ĠMARGARET": 1108,
      "ATH": 1109,
      "eel": 1110,
      "Ġsince": 1111,
      "Ġmis": 1112,
      "ens": 1113,
      "Ġland": 1114,
      "Ġlast": 1115,
      "Ġere": 1116,
      "Ġstate": 1117,
      "Ġplace": 1118,
      "MIL": 1119,
      "bl": 1120,
      "sand": 1121,
      "Ġmeet": 1122,
      "Ġunder": 1123,
      "Ġkill": 1124,
      "Ġafter": 1125,
      "HOR": 1126,
      "cent": 1127,
      "Ġsorrow": 1128,
      "ition": 1129,
      "Ġcare": 1130,
      "Ġthousand": 1131,
      "esty": 1132,
      "ANGE": 1133,
      "ORD": 1134,
      "Ġhold": 1135,
      "GRE": 1136,
      "ANGELO": 1137,
      "CU": 1138,
      "Our": 1139,
      "Ġhelp": 1140,
      "ARINA": 1141,
      "arence": 1142,
      "Ġwhom": 1143,
      "Ġfollow": 1144,
      "KATH": 1145,
      "day": 1146,
      "Ġfar": 1147,
      "Ġless": 1148,
      "Ġhither": 1149,
      "ceive": 1150,
      "irt": 1151,
      "Ġweep": 1152,
      "Ġshame": 1153,
      "selves": 1154,
      "cius": 1155,
      "Ġenem": 1156,
      "Ġabout": 1157,
      "Ġeye": 1158,
      "KATHARINA": 1159,
      "iol": 1160,
      "Ġfal": 1161,
      "Ġfool": 1162,
      "ons": 1163,
      "Ġpat": 1164,
      "urde": 1165,
      "Ġsun": 1166,
      "Ġanswer": 1167,
      "air": 1168,
      "Ġch": 1169,
      "asure": 1170,
      "Ġfall": 1171,
      "Ġmaid": 1172,
      "LUS": 1173,
      "Un": 1174,
      "Up": 1175,
      "ount": 1176,
      "Ġbus": 1177,
      "Ġcousin": 1178,
      "thy": 1179,
      "ESCA": 1180,
      "Ġhate": 1181,
      "Ġgracious": 1182,
      "Ġgentleman": 1183,
      "ĠKing": 1184,
      "Ġgrief": 1185,
      "ESCALUS": 1186,
      "An": 1187,
      "ject": 1188,
      "ove": 1189,
      "Ġmakes": 1190,
      "Ġinto": 1191,
      "imes": 1192,
      "Ġstri": 1193,
      "Hath": 1194,
      "iv": 1195,
      "ild": 1196,
      "Ġstre": 1197,
      "ĠEng": 1198,
      "Ġwoman": 1199,
      "DUCH": 1200,
      "Ġturn": 1201,
      "Ġhum": 1202,
      "Ġbel": 1203,
      "alt": 1204,
      "Ġdost": 1205,
      "Ġcomfort": 1206,
      "ices": 1207,
      "Ġcoun": 1208,
      "ĠDuke": 1209,
      "Ġcourt": 1210,
      "Ġsleep": 1211,
      "urderer": 1212,
      "DUCHESS": 1213,
      "Lord": 1214,
      "pher": 1215,
      "Ġtalk": 1216,
      "itor": 1217,
      "Ġover": 1218,
      "Ġbody": 1219,
      "morrow": 1220,
      "Ġwilt": 1221,
      "Ġbu": 1222,
      "Ġgr": 1223,
      "ute": 1224,
      "gelo": 1225,
      "deed": 1226,
      "ĠMarcius": 1227,
      "IA": 1228,
      "ience": 1229,
      "Ġi": 1230,
      "ised": 1231,
      "Ġbed": 1232,
      "Ġfault": 1233,
      "Ġatt": 1234,
      "ieve": 1235,
      "Ġprove": 1236,
      "Ġplay": 1237,
      "CAMIL": 1238,
      "ĠClarence": 1239,
      "CAMILLO": 1240,
      "God": 1241,
      "ere": 1242,
      "ily": 1243,
      "Ġsound": 1244,
      "Ġdra": 1245,
      "ans": 1246,
      "omet": 1247,
      "Ġinst": 1248,
      "Ġwel": 1249,
      "ade": 1250,
      "Ġret": 1251,
      "Ġdeed": 1252,
      "Ġthank": 1253,
      "TEN": 1254,
      "Ġser": 1255,
      "Ġbo": 1256,
      "Ġfight": 1257,
      "Ġindeed": 1258,
      "illain": 1259,
      "hold": 1260,
      "Ġvo": 1261,
      "Ġsword": 1262,
      "ĠAngelo": 1263,
      "HORTEN": 1264,
      "Ġfalse": 1265,
      "HORTENS": 1266,
      "FRI": 1267,
      "Sh": 1268,
      "Ġuse": 1269,
      "Ġeven": 1270,
      "Ġsovere": 1271,
      "Ġanother": 1272,
      "Ġgrave": 1273,
      "Ġadv": 1274,
      "Provost": 1275,
      "Ġfellow": 1276,
      "Upon": 1277,
      "HORTENSIO": 1278,
      "FRIAR": 1279,
      ",'": 1280,
      "PTIS": 1281,
      "eal": 1282,
      "Ġcur": 1283,
      "Ġhas": 1284,
      "Ġem": 1285,
      "ury": 1286,
      "pect": 1287,
      "BAPTIS": 1288,
      "Ġbanish": 1289,
      "Ġfortune": 1290,
      "BAPTISTA": 1291,
      "CUS": 1292,
      "COM": 1293,
      "TOL": 1294,
      "YCUS": 1295,
      "pl": 1296,
      "pen": 1297,
      "ouch": 1298,
      "Ġmerc": 1299,
      "Ġmatter": 1300,
      "Ġwant": 1301,
      "Ġreven": 1302,
      "Ġass": 1303,
      "Ġsend": 1304,
      "Ġprison": 1305,
      "fect": 1306,
      "AUTOL": 1307,
      "Ġrather": 1308,
      "Ġcountry": 1309,
      "Ġdoubt": 1310,
      "COMINIUS": 1311,
      "AUTOLYCUS": 1312,
      ".'": 1313,
      "Are": 1314,
      "Even": 1315,
      "More": 1316,
      "Ġwish": 1317,
      "Ġyears": 1318,
      "Ġreason": 1319,
      "Ġlies": 1320,
      "Ġonly": 1321,
      "ARENCE": 1322,
      "Third": 1323,
      "Ġvirt": 1324,
      "Ġtruth": 1325,
      "Would": 1326,
      "ior": 1327,
      "ms": 1328,
      "of": 1329,
      "rance": 1330,
      "ĠBut": 1331,
      "Ġdan": 1332,
      "Ġpers": 1333,
      "any": 1334,
      "Ġbreath": 1335,
      "Ġarms": 1336,
      "Ġdream": 1337,
      "CLARENCE": 1338,
      "pherd": 1339,
      "BEN": 1340,
      "MAR": 1341,
      "NOR": 1342,
      "dd": 1343,
      "der": 1344,
      "Ġsent": 1345,
      "ener": 1346,
      "Ġgi": 1347,
      "Ġstra": 1348,
      "Ġshalt": 1349,
      "Ġdisc": 1350,
      "VOLIO": 1351,
      "Clown": 1352,
      "Ġbusiness": 1353,
      "BENVOLIO": 1354,
      "Al": 1355,
      "At": 1356,
      "PRO": 1357,
      "SPER": 1358,
      "by": 1359,
      "hed": 1360,
      "Ġsen": 1361,
      "Ġprom": 1362,
      "Ġholy": 1363,
      "Ġenough": 1364,
      "erving": 1365,
      "Ġcommand": 1366,
      "UMIO": 1367,
      "GRUMIO": 1368,
      "PROSPER": 1369,
      "PROSPERO": 1370,
      "ia": 1371,
      "ken": 1372,
      "Ġsea": 1373,
      "Ġwind": 1374,
      "itt": 1375,
      "Ġcra": 1376,
      "Ġlay": 1377,
      "ars": 1378,
      "Ġpity": 1379,
      "ator": 1380,
      "Ġbea": 1381,
      "Ġhang": 1382,
      "Ġstran": 1383,
      "Ġsold": 1384,
      "Ġspir": 1385,
      "Ġfare": 1386,
      "Ġproud": 1387,
      "ĠMurderer": 1388,
      "Ġswear": 1389,
      "Ġcontent": 1390,
      "MERCU": 1391,
      "MERCUTIO": 1392,
      "ike": 1393,
      "Ġdare": 1394,
      "eter": 1395,
      "Ġlives": 1396,
      "Ġdep": 1397,
      "Ġsec": 1398,
      "Ġvillain": 1399,
      "gainst": 1400,
      "ĠKate": 1401,
      "LUCENTIO": 1402,
      "Ġremem": 1403,
      "Ġnature": 1404,
      "Ġwelcome": 1405,
      "POM": 1406,
      "Tw": 1407,
      "com": 1408,
      "unt": 1409,
      "Ġtend": 1410,
      "ham": 1411,
      "Ġfree": 1412,
      "Ġgre": 1413,
      "Ġget": 1414,
      "Ġint": 1415,
      "Ġwithin": 1416,
      "Ġkiss": 1417,
      "ester": 1418,
      "ĠCome": 1419,
      "Ġgods": 1420,
      "Ġsaw": 1421,
      "Ġmadam": 1422,
      "LAND": 1423,
      "Ġhappy": 1424,
      "Ġsovereign": 1425,
      "POMP": 1426,
      "LINA": 1427,
      "PAU": 1428,
      "apt": 1429,
      "Ġserv": 1430,
      "Ġsister": 1431,
      "Ġsomet": 1432,
      "hal": 1433,
      "Ġfoul": 1434,
      "Ġcity": 1435,
      "vers": 1436,
      "Were": 1437,
      "Ġbeseech": 1438,
      "PAULINA": 1439,
      "YORK": 1440,
      "ient": 1441,
      "use": 1442,
      "ery": 1443,
      "Ġden": 1444,
      "Ġyield": 1445,
      "Ġthree": 1446,
      "Ġoath": 1447,
      "Ġyours": 1448,
      "onder": 1449,
      "ague": 1450,
      "Ġbreak": 1451,
      "Ġmeans": 1452,
      "Ġsubject": 1453,
      "gether": 1454,
      "GREMIO": 1455,
      "POMPEY": 1456,
      "NIA": 1457,
      "OLI": 1458,
      "POLI": 1459,
      "XEN": 1460,
      "balt": 1461,
      "ybalt": 1462,
      "ĠNor": 1463,
      "Ġaw": 1464,
      "Ġmer": 1465,
      "Ġwhile": 1466,
      "Ġborn": 1467,
      "Ġthings": 1468,
      "Ġhorse": 1469,
      "anc": 1470,
      "usic": 1471,
      "ANT": 1472,
      "Ġbloody": 1473,
      "Ġlooks": 1474,
      "eft": 1475,
      "UMNIA": 1476,
      "like": 1477,
      "ches": 1478,
      "VOLUMNIA": 1479,
      "POLIXEN": 1480,
      "POLIXENES": 1481,
      "GON": 1482,
      "Her": 1483,
      "rong": 1484,
      "up": 1485,
      "ues": 1486,
      "Ġtem": 1487,
      "Ġwin": 1488,
      "Ġwound": 1489,
      "Ġfire": 1490,
      "enger": 1491,
      "Ġyourself": 1492,
      "Ġsupp": 1493,
      "Ġspo": 1494,
      "Ġfaith": 1495,
      "INGS": 1496,
      "ĠServing": 1497,
      "Ġmaj": 1498,
      "STINGS": 1499,
      "Ġtraitor": 1500,
      "centio": 1501,
      "ĠServingman": 1502,
      "RENCE": 1503,
      "Say": 1504,
      "bs": 1505,
      "broke": 1506,
      "rem": 1507,
      "Ġdru": 1508,
      "Ġlam": 1509,
      "essenger": 1510,
      "ĠLAU": 1511,
      "Ġmark": 1512,
      "Ġcommon": 1513,
      "HASTINGS": 1514,
      "Ġchildren": 1515,
      "ertain": 1516,
      "Ġmistress": 1517,
      "ĠLAURENCE": 1518,
      "BY": 1519,
      "BER": 1520,
      "Ġcond": 1521,
      "Ġbeat": 1522,
      "Ġrequ": 1523,
      "Ġdef": 1524,
      "Ġval": 1525,
      "Ġuncle": 1526,
      "Therefore": 1527,
      "form": 1528,
      "Ġmajesty": 1529,
      "CLI": 1530,
      "FF": 1531,
      "Look": 1532,
      "Was": 1533,
      "Ġaff": 1534,
      "Ġsin": 1535,
      "Ġmet": 1536,
      "Ġlate": 1537,
      "Ġleft": 1538,
      "Ġtold": 1539,
      "Ġsoon": 1540,
      "Ġseen": 1541,
      "Ġsave": 1542,
      "Ġdays": 1543,
      "UMBER": 1544,
      "THUMBER": 1545,
      "Ġwoe": 1546,
      "ĠEngland": 1547,
      "NORTHUMBER": 1548,
      "Ġtender": 1549,
      "CLIFF": 1550,
      "NORTHUMBERLAND": 1551,
      "ID": 1552,
      "Take": 1553,
      "bed": 1554,
      "ever": 1555,
      "ring": 1556,
      "ten": 1557,
      "Ġsight": 1558,
      "Ġmon": 1559,
      "Ġgener": 1560,
      "ides": 1561,
      "idow": 1562,
      "Ġdoes": 1563,
      "Though": 1564,
      "Ġreturn": 1565,
      "Ġmercy": 1566,
      "Ġfarewell": 1567,
      "ac": 1568,
      "dom": 1569,
      "mp": 1570,
      "ĠAN": 1571,
      "hes": 1572,
      "Ġsit": 1573,
      "Ġsad": 1574,
      "rel": 1575,
      "Ġdeep": 1576,
      "ters": 1577,
      "Ġgold": 1578,
      "unes": 1579,
      "Ġmarry": 1580,
      "Ġheavy": 1581,
      "Ġfoot": 1582,
      "Ġwarrant": 1583,
      "ĠJul": 1584,
      "Ġpurpose": 1585,
      "Ġthrough": 1586,
      "Ġdanger": 1587,
      "ĠANNE": 1588,
      "Ah": 1589,
      "Did": 1590,
      "Give": 1591,
      "PR": 1592,
      "aim": 1593,
      "ict": 1594,
      "mer": 1595,
      "so": 1596,
      "und": 1597,
      "vent": 1598,
      "Ġill": 1599,
      "Ġcho": 1600,
      "Ġcold": 1601,
      "Ġnurse": 1602,
      "Ġtogether": 1603,
      "Ġgrow": 1604,
      "ours": 1605,
      "ifford": 1606,
      "Ġsure": 1607,
      "earn": 1608,
      "CAPULET": 1609,
      "ignior": 1610,
      "INCE": 1611,
      "Ġdeser": 1612,
      "ments": 1613,
      "PRINCE": 1614,
      "az": 1615,
      "aid": 1616,
      "ca": 1617,
      "oint": 1618,
      "Ġtimes": 1619,
      "oriol": 1620,
      "ingbroke": 1621,
      "ceed": 1622,
      "Ġwithout": 1623,
      "enty": 1624,
      "Ġask": 1625,
      "ross": 1626,
      "ush": 1627,
      "Ġlost": 1628,
      "arewell": 1629,
      "olingbroke": 1630,
      "Ġpluck": 1631,
      "Ġreport": 1632,
      "Ġliege": 1633,
      "Ġbelieve": 1634,
      "Ġspirit": 1635,
      "ling": 1636,
      "sh": 1637,
      "xt": 1638,
      "Ġair": 1639,
      "Ġage": 1640,
      "outh": 1641,
      "Ġwat": 1642,
      "Ġheir": 1643,
      "ets": 1644,
      "ains": 1645,
      "Ġthyself": 1646,
      "ift": 1647,
      "Ġloss": 1648,
      "ĠMont": 1649,
      "Ġsays": 1650,
      "ĠBolingbroke": 1651,
      "Whose": 1652,
      "One": 1653,
      "Ġstrange": 1654,
      "ALO": 1655,
      "Had": 1656,
      "ial": 1657,
      "no": 1658,
      "ner": 1659,
      "Ġbat": 1660,
      "Ġcry": 1661,
      "Ġlearn": 1662,
      "ced": 1663,
      "Ġsuff": 1664,
      "aking": 1665,
      "Ġears": 1666,
      "Ġhaste": 1667,
      "ĠClifford": 1668,
      "Ġentreat": 1669,
      "Ġdevil": 1670,
      "Ġground": 1671,
      "Should": 1672,
      "Ġperson": 1673,
      "ĠJuliet": 1674,
      "Like": 1675,
      "Wh": 1676,
      "ges": 1677,
      "night": 1678,
      "Ġmur": 1679,
      "ined": 1680,
      "Ġfly": 1681,
      "Ġtoward": 1682,
      "Ġpast": 1683,
      "oman": 1684,
      "let": 1685,
      "Ġfast": 1686,
      "Ġvis": 1687,
      "aud": 1688,
      "ĠLu": 1689,
      "Ġpoint": 1690,
      "Ġfriar": 1691,
      "Ġdisp": 1692,
      "Ġslain": 1693,
      "Ġbetw": 1694,
      "ĠFrance": 1695,
      "ixt": 1696,
      "Ġjustice": 1697,
      "Ġstraight": 1698,
      "Ġremember": 1699,
      "APULET": 1700,
      "FL": 1701,
      "FID": 1702,
      "IZ": 1703,
      "May": 1704,
      "Some": 1705,
      "Ġord": 1706,
      "Ġsil": 1707,
      "ina": 1708,
      "Ġbold": 1709,
      "Ġcurse": 1710,
      "Ġnear": 1711,
      "ution": 1712,
      "Ġstrong": 1713,
      "These": 1714,
      "ĠCAPULET": 1715,
      "ORIZ": 1716,
      "Ġworthy": 1717,
      "Ġquick": 1718,
      "AUFID": 1719,
      "entleman": 1720,
      "Ġtrust": 1721,
      "Ġalone": 1722,
      "Ġdesire": 1723,
      "Ġinstru": 1724,
      "Ġbeauty": 1725,
      "Ġservice": 1726,
      "FLORIZ": 1727,
      "AUFIDIUS": 1728,
      "FLORIZEL": 1729,
      "Can": 1730,
      "SE": 1731,
      "Tell": 1732,
      "VER": 1733,
      "gs": 1734,
      "ning": 1735,
      "ship": 1736,
      "with": 1737,
      "Ġtouch": 1738,
      "Ġfound": 1739,
      "ithe": 1740,
      "ĠIs": 1741,
      "adam": 1742,
      "Ġready": 1743,
      "ION": 1744,
      "Ġbrought": 1745,
      "ured": 1746,
      "Ġposs": 1747,
      "ĠTybalt": 1748,
      "Ġrun": 1749,
      "Ġhard": 1750,
      "Ġenemy": 1751,
      "Ġrevenge": 1752,
      "Ġgeneral": 1753,
      "audio": 1754,
      "!'": 1755,
      "Ha": 1756,
      "ible": 1757,
      "vo": 1758,
      "ĠHere": 1759,
      "Ġwoo": 1760,
      "Ġduty": 1761,
      "enator": 1762,
      "Ġgrant": 1763,
      "Ġinf": 1764,
      "cept": 1765,
      "Ġitself": 1766,
      "amill": 1767,
      "Ġlose": 1768,
      "aunt": 1769,
      "Ġknows": 1770,
      "Ġcanst": 1771,
      "ĠSenator": 1772,
      "inks": 1773,
      "umber": 1774,
      "Ġmarried": 1775,
      "Ġthoughts": 1776,
      "Ġcharge": 1777,
      "Against": 1778,
      "Bec": 1779,
      "CIUS": 1780,
      "RICHARD": 1781,
      "Sp": 1782,
      "cester": 1783,
      "eep": 1784,
      "gu": 1785,
      "lou": 1786,
      "sue": 1787,
      "ua": 1788,
      "ĠYou": 1789,
      "Ġmorn": 1790,
      "Ġwear": 1791,
      "riage": 1792,
      "Ġread": 1793,
      "Ġdeli": 1794,
      "Ġspeed": 1795,
      "Ġquar": 1796,
      "Ġprof": 1797,
      "Ġtwenty": 1798,
      "Ġstands": 1799,
      "BAST": 1800,
      "Shepherd": 1801,
      "ched": 1802,
      "Ġhours": 1803,
      "Ġconfess": 1804,
      "Ġstreng": 1805,
      "SEBAST": 1806,
      "ithee": 1807,
      "SEBASTIAN": 1808,
      "OW": 1809,
      "cess": 1810,
      "ĠN": 1811,
      "Ġmock": 1812,
      "Ġfur": 1813,
      "Ġfore": 1814,
      "Ġfield": 1815,
      "ones": 1816,
      "Ġdiv": 1817,
      "Ġcar": 1818,
      "Ġyouth": 1819,
      "Ġpost": 1820,
      "Ġhell": 1821,
      "ingham": 1822,
      "Ġhalf": 1823,
      "oop": 1824,
      "Thus": 1825,
      "ĠRi": 1826,
      "olk": 1827,
      "fection": 1828,
      "ĠHast": 1829,
      "Ġjud": 1830,
      "ump": 1831,
      "Ġexec": 1832,
      "Ġfearful": 1833,
      "Ġcounsel": 1834,
      "amillo": 1835,
      "BION": 1836,
      "Com": 1837,
      "DEL": 1838,
      "Till": 1839,
      "most": 1840,
      "pare": 1841,
      "Ġter": 1842,
      "Ġmin": 1843,
      "Ġwret": 1844,
      "Ġbos": 1845,
      "Ġpar": 1846,
      "Ġbehold": 1847,
      "Ġinc": 1848,
      "Ġeach": 1849,
      "ads": 1850,
      "Ġrec": 1851,
      "Ġdel": 1852,
      "ĠCoriol": 1853,
      "ols": 1854,
      "Ġwork": 1855,
      "ortal": 1856,
      "Ġhearts": 1857,
      "Ġmarriage": 1858,
      "Ġdesp": 1859,
      "ĠClaudio": 1860,
      "itizens": 1861,
      "uckingham": 1862,
      "Ġresol": 1863,
      "MARCIUS": 1864,
      "ĠMontague": 1865,
      "loucester": 1866,
      "BIONDEL": 1867,
      "Ġbosom": 1868,
      "BIONDELLO": 1869,
      "Away": 1870,
      "MON": 1871,
      "Madam": 1872,
      "bly": 1873,
      "folk": 1874,
      "iers": 1875,
      "now": 1876,
      "ĠThe": 1877,
      "Ġtit": 1878,
      "Ġten": 1879,
      "Ġtale": 1880,
      "Ġbound": 1881,
      "Ġdam": 1882,
      "Ġcut": 1883,
      "ench": 1884,
      "Ġye": 1885,
      "Ġopen": 1886,
      "rah": 1887,
      "alm": 1888,
      "ĠCap": 1889,
      "Ġshort": 1890,
      "Ġknown": 1891,
      "ĠBuckingham": 1892,
      "Ġseek": 1893,
      "Ġharm": 1894,
      "Ġcompany": 1895,
      "Ġguilt": 1896,
      "Ġhighness": 1897,
      "Ġstrike": 1898,
      "Ġattend": 1899,
      "Ġserve": 1900,
      "Ġmurder": 1901,
      "ĠHastings": 1902,
      "Farewell": 1903,
      "HER": 1904,
      "OP": 1905,
      "chan": 1906,
      "hood": 1907,
      "Ġve": 1908,
      "ĠHe": 1909,
      "ĠAU": 1910,
      "Ġag": 1911,
      "Ġsat": 1912,
      "Ġside": 1913,
      "Ġwhi": 1914,
      "Ġwatch": 1915,
      "rest": 1916,
      "ished": 1917,
      "Ġfeel": 1918,
      "Ġdish": 1919,
      "Ġdist": 1920,
      "ents": 1921,
      "ander": 1922,
      "Ġsuit": 1923,
      "Ġloving": 1924,
      "ONIO": 1925,
      "Ġhonest": 1926,
      "Ġheavens": 1927,
      "Ġtrib": 1928,
      "MERLE": 1929,
      "Ġdraw": 1930,
      "Ġvoices": 1931,
      "Ġsomething": 1932,
      "ANTONIO": 1933,
      "Ġstrength": 1934,
      "ĠAUMERLE": 1935,
      "Marry": 1936,
      "Pray": 1937,
      "See": 1938,
      "ZALO": 1939,
      "fid": 1940,
      "ging": 1941,
      "Ġact": 1942,
      "Ġsake": 1943,
      "Ġwast": 1944,
      "Ġwonder": 1945,
      "Ġwidow": 1946,
      "Ġbit": 1947,
      "Ġcor": 1948,
      "Ġsto": 1949,
      "Ġstir": 1950,
      "ĠGentleman": 1951,
      "ĠGloucester": 1952,
      "ĠLanc": 1953,
      "Ġdidst": 1954,
      "Ġgentlemen": 1955,
      "Ġcloud": 1956,
      "Ġwomen": 1957,
      "ethinks": 1958,
      "Ġenemies": 1959,
      "GONZALO": 1960,
      "ĠLancaster": 1961,
      "Unt": 1962,
      "ives": 1963,
      "su": 1964,
      "Ġsing": 1965,
      "Ġmusic": 1966,
      "rew": 1967,
      "Ġbreat": 1968,
      "Ġdr": 1969,
      "Ġpra": 1970,
      "Ġpie": 1971,
      "Ġpale": 1972,
      "Ġgates": 1973,
      "oose": 1974,
      "race": 1975,
      "ils": 1976,
      "ĠCamillo": 1977,
      "Ġnext": 1978,
      "Ġknew": 1979,
      "Ġcoming": 1980,
      "Ġthanks": 1981,
      "Ġclose": 1982,
      "Ġpleasure": 1983,
      "Ġsouls": 1984,
      "ianca": 1985,
      "Ġcourse": 1986,
      "Ġenter": 1987,
      "Ġwithal": 1988,
      "Ġbrave": 1989,
      "Ġchee": 1990,
      "ceived": 1991,
      "Ġtitle": 1992,
      "DIO": 1993,
      "fter": 1994,
      "ne": 1995,
      "vour": 1996,
      "you": 1997,
      "Ġty": 1998,
      "Ġwa": 1999,
      "Ġbur": 2000,
      "Ġfit": 2001,
      "oward": 2002,
      "Ġgar": 2003,
      "Ġbecome": 2004,
      "etch": 2005,
      "etru": 2006,
      "Ġforg": 2007,
      "Ġweak": 2008,
      "Ġeither": 2009,
      "Ġlips": 2010,
      "rust": 2011,
      "els": 2012,
      "Ġjest": 2013,
      "Ġplain": 2014,
      "AUDIO": 2015,
      "Ġabs": 2016,
      "Ġpret": 2017,
      "claim": 2018,
      "Ġgrie": 2019,
      "CLAUDIO": 2020,
      "Ġchange": 2021,
      "MIONE": 2022,
      "ĠNorfolk": 2023,
      "CLIFFORD": 2024,
      "Ġsuffer": 2025,
      "Ġdeliver": 2026,
      "HERMIONE": 2027,
      "DA": 2028,
      "EDWARD": 2029,
      "LORD": 2030,
      "Most": 2031,
      "cher": 2032,
      "kes": 2033,
      "ses": 2034,
      "ufid": 2035,
      "ĠTh": 2036,
      "Ġsk": 2037,
      "Ġsame": 2038,
      "Ġsick": 2039,
      "Ġsign": 2040,
      "Ġwis": 2041,
      "Ġwall": 2042,
      "ready": 2043,
      "isf": 2044,
      "Ġcast": 2045,
      "irth": 2046,
      "chio": 2047,
      "Ġforb": 2048,
      "Ġforget": 2049,
      "oof": 2050,
      "ries": 2051,
      "Ġreg": 2052,
      "urp": 2053,
      "east": 2054,
      "Ġven": 2055,
      "Ġthemselves": 2056,
      "ĠBianca": 2057,
      "Ġworse": 2058,
      "ĠPom": 2059,
      "Ġtook": 2060,
      "Ġpoison": 2061,
      "Ġalong": 2062,
      "Ġrich": 2063,
      "Ġbreast": 2064,
      "ranio": 2065,
      "Ġconsul": 2066,
      "RANDA": 2067,
      "MIRANDA": 2068,
      "twas": 2069,
      "twere": 2070,
      "Ġcheer": 2071,
      "Ġpatience": 2072,
      "Ġmerry": 2073,
      "Ġorder": 2074,
      "etruchio": 2075,
      "ufidius": 2076,
      "HN": 2077,
      "Messenger": 2078,
      "OHN": 2079,
      "SA": 2080,
      "SON": 2081,
      "Servant": 2082,
      "lst": 2083,
      "oin": 2084,
      "ting": 2085,
      "Ġmouth": 2086,
      "Ġwed": 2087,
      "Ġbad": 2088,
      "Ġbook": 2089,
      "Ġfour": 2090,
      "Ġdu": 2091,
      "ĠIf": 2092,
      "Ġgave": 2093,
      "chm": 2094,
      "Ġissue": 2095,
      "ash": 2096,
      "Ġliber": 2097,
      "vern": 2098,
      "Ġself": 2099,
      "ions": 2100,
      "rows": 2101,
      "ally": 2102,
      "Ġoffice": 2103,
      "Ġalready": 2104,
      "Being": 2105,
      "Ġmove": 2106,
      "Ġvirtue": 2107,
      "Ġgiven": 2108,
      "Ġbattle": 2109,
      "ĠHereford": 2110,
      "Ġmorning": 2111,
      "Ġfurther": 2112,
      "Make": 2113,
      "Since": 2114,
      "mber": 2115,
      "nk": 2116,
      "pes": 2117,
      "rist": 2118,
      "she": 2119,
      "uous": 2120,
      "used": 2121,
      "Ġta": 2122,
      "Ġac": 2123,
      "oun": 2124,
      "Ġwise": 2125,
      "Ġburn": 2126,
      "orge": 2127,
      "Ġfrown": 2128,
      "Ġfeast": 2129,
      "Ġdire": 2130,
      "esh": 2131,
      "Ġlad": 2132,
      "Ġpay": 2133,
      "anus": 2134,
      "Ġgro": 2135,
      "ats": 2136,
      "Ġred": 2137,
      "Ġsoft": 2138,
      "each": 2139,
      "Ġsucc": 2140,
      "icer": 2141,
      "Ġblack": 2142,
      "Ġgoes": 2143,
      "Ġsworn": 2144,
      "ĠSignior": 2145,
      "elcome": 2146,
      "Ġprop": 2147,
      "Ġsons": 2148,
      "Ġfoe": 2149,
      "Ġext": 2150,
      "ĠTower": 2151,
      "Before": 2152,
      "Ġtrou": 2153,
      "Ġbegg": 2154,
      "Ġbegin": 2155,
      "Ġconsent": 2156,
      "dden": 2157,
      "Ġsoldiers": 2158,
      "Ġrequest": 2159,
      "ĠLucentio": 2160,
      "Ġbetween": 2161,
      "Ġquarrel": 2162,
      "Ġsatisf": 2163,
      "chmond": 2164,
      "AS": 2165,
      "Call": 2166,
      "IR": 2167,
      "Must": 2168,
      "NT": 2169,
      "Re": 2170,
      "Sw": 2171,
      "Such": 2172,
      "gare": 2173,
      "ires": 2174,
      "ures": 2175,
      "ung": 2176,
      "uff": 2177,
      "ĠFor": 2178,
      "hem": 2179,
      "Ġservant": 2180,
      "Ġbar": 2181,
      "Ġdro": 2182,
      "Ġdark": 2183,
      "Ġcr": 2184,
      "Ġcase": 2185,
      "Ġthri": 2186,
      "aris": 2187,
      "ots": 2188,
      "stand": 2189,
      "owers": 2190,
      "irm": 2191,
      "Ġloves": 2192,
      "ĠCh": 2193,
      "ends": 2194,
      "Ġbless": 2195,
      "empt": 2196,
      "Ġthence": 2197,
      "Ġworth": 2198,
      "ĠAufidius": 2199,
      "CATES": 2200,
      "Ġexp": 2201,
      "awd": 2202,
      "Ġpresence": 2203,
      "Ġpriv": 2204,
      "Unless": 2205,
      "Alas": 2206,
      "Ġwounds": 2207,
      "Ġdangerous": 2208,
      "Because": 2209,
      "garet": 2210,
      "CATESBY": 2211,
      "LY": 2212,
      "oll": 2213,
      "that": 2214,
      "Ġsigh": 2215,
      "Ġble": 2216,
      "ona": 2217,
      "onour": 2218,
      "Ġhot": 2219,
      "Ġgot": 2220,
      "Ġinter": 2221,
      "Ġund": 2222,
      "Ġev": 2223,
      "Ġsum": 2224,
      "Ġneither": 2225,
      "Ġvict": 2226,
      "emn": 2227,
      "ĠLond": 2228,
      "ĠSir": 2229,
      "ĠVols": 2230,
      "cient": 2231,
      "Ġwars": 2232,
      "Ġflatter": 2233,
      "Ġmighty": 2234,
      "Ġrespect": 2235,
      "Ġdread": 2236,
      "Ġbride": 2237,
      "Ġbrief": 2238,
      "Ġthrone": 2239,
      "Ġvoice": 2240,
      "Ġemb": 2241,
      "aptist": 2242,
      "Ġdeny": 2243,
      "Ġspoke": 2244,
      "Ġwater": 2245,
      "Ġvisit": 2246,
      "ĠLondon": 2247,
      "Both": 2248,
      "BIAN": 2249,
      "JOHN": 2250,
      "Lest": 2251,
      "Rome": 2252,
      "REY": 2253,
      "Yes": 2254,
      "eorge": 2255,
      "ip": 2256,
      "iant": 2257,
      "mand": 2258,
      "ught": 2259,
      "Ġest": 2260,
      "Ġmal": 2261,
      "Ġmortal": 2262,
      "Ġbow": 2263,
      "Ġbab": 2264,
      "Ġfra": 2265,
      "ern": 2266,
      "Ġhur": 2267,
      "Ġtown": 2268,
      "Ġoften": 2269,
      "Ġhaving": 2270,
      "right": 2271,
      "ided": 2272,
      "Ġsudden": 2273,
      "rum": 2274,
      "Ġancient": 2275,
      "Ġspeech": 2276,
      "Ġvow": 2277,
      "ĠGeorge": 2278,
      "Ġloved": 2279,
      "Ġkings": 2280,
      "ĠBaptist": 2281,
      "Ġworship": 2282,
      "LIA": 2283,
      "ĠParis": 2284,
      "Ġsafe": 2285,
      "ired": 2286,
      "ainted": 2287,
      "BAL": 2288,
      "ĠMargaret": 2289,
      "Ġprincely": 2290,
      "BRA": 2291,
      "Ġchamber": 2292,
      "Ġseems": 2293,
      "bey": 2294,
      "Ġbuy": 2295,
      "Ġdeeds": 2296,
      "Whom": 2297,
      "VERS": 2298,
      "ĠRichmond": 2299,
      "Ġbitter": 2300,
      "BIANCA": 2301,
      "BOW": 2302,
      "Welcome": 2303,
      "king": 2304,
      "ls": 2305,
      "lish": 2306,
      "mb": 2307,
      "rt": 2308,
      "sp": 2309,
      "ura": 2310,
      "ĠThou": 2311,
      "ĠThis": 2312,
      "Ġfres": 2313,
      "Ġfetch": 2314,
      "Ġcol": 2315,
      "Ġcross": 2316,
      "Ġcoward": 2317,
      "essed": 2318,
      "Ġlim": 2319,
      "Ġpen": 2320,
      "otion": 2321,
      "ated": 2322,
      "urch": 2323,
      "Ġknock": 2324,
      "antage": 2325,
      "oney": 2326,
      "Ġprot": 2327,
      "ĠGAU": 2328,
      "ĠLady": 2329,
      "ĠSaint": 2330,
      "ĠServant": 2331,
      "Ġkingdom": 2332,
      "ĠPl": 2333,
      "Ġsac": 2334,
      "ELBOW": 2335,
      "Ġheads": 2336,
      "Ġscorn": 2337,
      "Ġrage": 2338,
      "Ġappear": 2339,
      "Ġlead": 2340,
      "Ġwitness": 2341,
      "RIVERS": 2342,
      "Ġpatient": 2343,
      "Ġpromise": 2344,
      "Ġlament": 2345,
      "Ġvaliant": 2346,
      "ĠIsab": 2347,
      "Speak": 2348,
      "Ġsuccess": 2349,
      "ĠBaptista": 2350,
      "ĠGAUNT": 2351,
      "Bes": 2352,
      "Ere": 2353,
      "GUE": 2354,
      "Hold": 2355,
      "TY": 2356,
      "cy": 2357,
      "coun": 2358,
      "nown": 2359,
      "sper": 2360,
      "will": 2361,
      "xford": 2362,
      "ĠKING": 2363,
      "Ġign": 2364,
      "Ġaction": 2365,
      "Ġbro": 2366,
      "Ġbawd": 2367,
      "ities": 2368,
      "Ġcle": 2369,
      "Ġcreat": 2370,
      "Ġcap": 2371,
      "Ġlack": 2372,
      "Ġthrow": 2373,
      "Ġow": 2374,
      "Ġopp": 2375,
      "Ġgall": 2376,
      "Ġforward": 2377,
      "Ġeat": 2378,
      "Ġkins": 2379,
      "Their": 2380,
      "iff": 2381,
      "Ġang": 2382,
      "Ġviol": 2383,
      "antag": 2384,
      "Ġprin": 2385,
      "Ġprithee": 2386,
      "ĠMy": 2387,
      "Ġwash": 2388,
      "ortens": 2389,
      "aken": 2390,
      "ĠPetruchio": 2391,
      "Ġoffer": 2392,
      "Ġleast": 2393,
      "Ġslave": 2394,
      "Ġflesh": 2395,
      "ĠTranio": 2396,
      "Ġprepare": 2397,
      "Ġprayers": 2398,
      "then": 2399,
      "Ġappro": 2400,
      "TAGUE": 2401,
      "Ġtriump": 2402,
      "Ġmoon": 2403,
      "Ġcompl": 2404,
      "itted": 2405,
      "Ġtribunes": 2406,
      "Ġdrink": 2407,
      "ĠChrist": 2408,
      "Romeo": 2409,
      "ortensio": 2410,
      "Yea": 2411,
      "bit": 2412,
      "but": 2413,
      "ees": 2414,
      "joy": 2415,
      "ler": 2416,
      "oor": 2417,
      "ohem": 2418,
      "vest": 2419,
      "Ġid": 2420,
      "Ġsur": 2421,
      "Ġmid": 2422,
      "ines": 2423,
      "Ġfie": 2424,
      "Ġdest": 2425,
      "Ġnay": 2426,
      "Ġthither": 2427,
      "Ġhide": 2428,
      "athar": 2429,
      "Ġbeast": 2430,
      "ley": 2431,
      "Ġreb": 2432,
      "raw": 2433,
      "als": 2434,
      "alth": 2435,
      "cks": 2436,
      "thumber": 2437,
      "host": 2438,
      "asters": 2439,
      "feit": 2440,
      "aked": 2441,
      "pey": 2442,
      "Ġalmost": 2443,
      "ully": 2444,
      "Ġscar": 2445,
      "Ġsmall": 2446,
      "Ġpresently": 2447,
      "Ġfaults": 2448,
      "Ġdepart": 2449,
      "Ġsecret": 2450,
      "Ġsubjects": 2451,
      "Ġdefend": 2452,
      "Ġpossess": 2453,
      "atharina": 2454,
      "thumberland": 2455,
      "Con": 2456,
      "DI": 2457,
      "GI": 2458,
      "IEL": 2459,
      "Pl": 2460,
      "VIR": 2461,
      "Whi": 2462,
      "aul": 2463,
      "hind": 2464,
      "ying": 2465,
      "Ġtear": 2466,
      "Ġwert": 2467,
      "rey": 2468,
      "Ġben": 2469,
      "Ġbase": 2470,
      "Ġbirth": 2471,
      "Ġfill": 2472,
      "Ġfond": 2473,
      "Ġlab": 2474,
      "arl": 2475,
      "Ġpain": 2476,
      "inger": 2477,
      "Ġbec": 2478,
      "Ġform": 2479,
      "Ġeas": 2480,
      "Ġstru": 2481,
      "Ġliving": 2482,
      "rue": 2483,
      "though": 2484,
      "Ġgoodly": 2485,
      "Ġwhence": 2486,
      "ĠGREY": 2487,
      "Ġusurp": 2488,
      "cience": 2489,
      "Ġtrump": 2490,
      "Ġhearing": 2491,
      "Ġslaughter": 2492,
      "Ġperform": 2493,
      "Ġwrit": 2494,
      "perate": 2495,
      "ledge": 2496,
      "Stay": 2497,
      "Stand": 2498,
      "Ġchance": 2499,
      "PERDI": 2500,
      "Ġvirtuous": 2501,
      "Ġquickly": 2502,
      "MONTAGUE": 2503,
      "Ġdamn": 2504,
      "ural": 2505,
      "ohemia": 2506,
      "GILIA": 2507,
      "VIRGILIA": 2508,
      "PERDITA": 2509,
      "Ab": 2510,
      "Doth": 2511,
      "Peace": 2512,
      "SET": 2513,
      "SLY": 2514,
      "ding": 2515,
      "eem": 2516,
      "gg": 2517,
      "iest": 2518,
      "over": 2519,
      "oss": 2520,
      "ror": 2521,
      "your": 2522,
      "ze": 2523,
      "Ġut": 2524,
      "Ġtor": 2525,
      "Ġay": 2526,
      "Ġmatch": 2527,
      "Ġmild": 2528,
      "Ġwild": 2529,
      "read": 2530,
      "isure": 2531,
      "Ġfier": 2532,
      "ony": 2533,
      "Ġca": 2534,
      "Ġcertain": 2535,
      "arn": 2536,
      "Ġpu": 2537,
      "Ġpit": 2538,
      "ingly": 2539,
      "sem": 2540,
      "Ġinj": 2541,
      "Ġins": 2542,
      "Ġinno": 2543,
      "eds": 2544,
      "edant": 2545,
      "Ġur": 2546,
      "Ġshad": 2547,
      "Think": 2548,
      "Ġknee": 2549,
      "Ġkneel": 2550,
      "astard": 2551,
      "ustom": 2552,
      "Ġblows": 2553,
      "ĠSt": 2554,
      "ĠOxford": 2555,
      "Ġquiet": 2556,
      "Ġproceed": 2557,
      "ĠPaul": 2558,
      "Ġhadst": 2559,
      "Ġoffence": 2560,
      "Ġadm": 2561,
      "Ġpleas": 2562,
      "force": 2563,
      "Ġaffection": 2564,
      "Ġslew": 2565,
      "IANA": 2566,
      "Ġlawful": 2567,
      "Ġglad": 2568,
      "bling": 2569,
      "Ġweeping": 2570,
      "MARIANA": 2571,
      "Ġsoldier": 2572,
      "Ġawhile": 2573,
      "Ġdeserved": 2574,
      "Ġexecution": 2575,
      "ĠCoriolanus": 2576,
      "Ġguilty": 2577,
      "Ġpretty": 2578,
      "ĠPompey": 2579,
      "Ġangry": 2580,
      "Fa": 2581,
      "Mar": 2582,
      "Master": 2583,
      "PAR": 2584,
      "RA": 2585,
      "VINCENTIO": 2586,
      "awn": 2587,
      "dge": 2588,
      "fully": 2589,
      "gue": 2590,
      "ked": 2591,
      "med": 2592,
      "ual": 2593,
      "vol": 2594,
      "zen": 2595,
      "Ġap": 2596,
      "Ġshi": 2597,
      "Ġsho": 2598,
      "Ġmed": 2599,
      "Ġmod": 2600,
      "Ġwalk": 2601,
      "Ġfam": 2602,
      "Ġfled": 2603,
      "eness": 2604,
      "Ġyear": 2605,
      "Ġob": 2606,
      "Ġocc": 2607,
      "Ġhap": 2608,
      "Ġmeasure": 2609,
      "Ġforsw": 2610,
      "adua": 2611,
      "Ġreign": 2612,
      "Ġdoom": 2613,
      "ames": 2614,
      "Ġnob": 2615,
      "rupt": 2616,
      "Ġourselves": 2617,
      "Ġfavour": 2618,
      "Ġneck": 2619,
      "Ġshows": 2620,
      "ended": 2621,
      "Ġblow": 2622,
      "Ġgovern": 2623,
      "Ġwouldst": 2624,
      "Ġletters": 2625,
      "Ġunc": 2626,
      "Ġunk": 2627,
      "Ġworst": 2628,
      "Ġspeaks": 2629,
      "Ġmarch": 2630,
      "ighb": 2631,
      "ĠKatharina": 2632,
      "Ġgreater": 2633,
      "Ġleisure": 2634,
      "osition": 2635,
      "Ġtreason": 2636,
      "ĠEnglish": 2637,
      "Ġbanishment": 2638,
      "Ġsense": 2639,
      "remio": 2640,
      "Ġcondemn": 2641,
      "ointed": 2642,
      "Ġdishonour": 2643,
      "Ġclouds": 2644,
      "Ġbreathe": 2645,
      "Ġforbid": 2646,
      "Ġliberty": 2647,
      "Ġladies": 2648,
      "Ġtrouble": 2649,
      "rumio": 2650,
      "ĠIsabel": 2651,
      "counter": 2652,
      "antagen": 2653,
      "PARIS": 2654,
      ":'": 2655,
      "Int": 2656,
      "Out": 2657,
      "Too": 2658,
      "While": 2659,
      "aves": 2660,
      "acle": 2661,
      "dle": 2662,
      "house": 2663,
      "rim": 2664,
      "rous": 2665,
      "ĠX": 2666,
      "Ġsort": 2667,
      "Ġmorrow": 2668,
      "Ġwon": 2669,
      "Ġdry": 2670,
      "Ġcru": 2671,
      "Ġlan": 2672,
      "Ġlist": 2673,
      "Ġlaid": 2674,
      "aring": 2675,
      "Ġobey": 2676,
      "Ġheld": 2677,
      "vel": 2678,
      "ster": 2679,
      "ators": 2680,
      "Ġbehind": 2681,
      "set": 2682,
      "Ġnote": 2683,
      "Ġstor": 2684,
      "ider": 2685,
      "Ġref": 2686,
      "Ġlived": 2687,
      "urs": 2688,
      "Ġaside": 2689,
      "Ġdog": 2690,
      "Ġnoise": 2691,
      "Ġseat": 2692,
      "iles": 2693,
      "Ġvain": 2694,
      "ĠMerc": 2695,
      "ĠBohemia": 2696,
      "Ġletter": 2697,
      "Ġjoin": 2698,
      "ounds": 2699,
      "Ġprosper": 2700,
      "Ġrough": 2701,
      "Ġabove": 2702,
      "ize": 2703,
      "Ġremain": 2704,
      "Ġlonger": 2705,
      "Ġwomb": 2706,
      "Ġneeds": 2707,
      "Ġchoose": 2708,
      "Ġchurch": 2709,
      "Ġprisoner": 2710,
      "Ġsecond": 2711,
      "Ġtemp": 2712,
      "Ġgolden": 2713,
      "undred": 2714,
      "Ġdispatch": 2715,
      "Ġpiece": 2716,
      "Ġfresh": 2717,
      "Ġignor": 2718,
      "Ġbecause": 2719,
      "antagenet": 2720,
      "!--": 2721,
      "Am": 2722,
      "De": 2723,
      "DOR": 2724,
      "EW": 2725,
      "En": 2726,
      "Hark": 2727,
      "LAR": 2728,
      "Pr": 2729,
      "Su": 2730,
      "TIUS": 2731,
      "bb": 2732,
      "ban": 2733,
      "cal": 2734,
      "ffect": 2735,
      "him": 2736,
      "iled": 2737,
      "ny": 2738,
      "ts": 2739,
      "under": 2740,
      "ulet": 2741,
      "ĠNow": 2742,
      "Ġtent": 2743,
      "Ġsch": 2744,
      "Ġsus": 2745,
      "Ġsaint": 2746,
      "Ġmut": 2747,
      "inius": 2748,
      "Ġbig": 2749,
      "Ġbroke": 2750,
      "Ġbones": 2751,
      "Ġfat": 2752,
      "Ġfine": 2753,
      "Ġfive": 2754,
      "erle": 2755,
      "itors": 2756,
      "Ġdrown": 2757,
      "Ġcitizens": 2758,
      "Ġlen": 2759,
      "Ġlow": 2760,
      "Ġlust": 2761,
      "Ġlau": 2762,
      "Ġthreat": 2763,
      "Ġhundred": 2764,
      "Ġobed": 2765,
      "Ġpet": 2766,
      "vey": 2767,
      "ang": 2768,
      "Ġoft": 2769,
      "Ġbend": 2770,
      "Ġbell": 2771,
      "Ġind": 2772,
      "ceit": 2773,
      "lease": 2774,
      "ety": 2775,
      "Ġeffect": 2776,
      "Ġyourselves": 2777,
      "Ġstood": 2778,
      "Ġstain": 2779,
      "Ġsteel": 2780,
      "Ġsteal": 2781,
      "ords": 2782,
      "asion": 2783,
      "Ġrevere": 2784,
      "Ġsole": 2785,
      "ARIEL": 2786,
      "ease": 2787,
      "Ġknees": 2788,
      "ular": 2789,
      "icious": 2790,
      "Ġconqu": 2791,
      "ieu": 2792,
      "Ġblessed": 2793,
      "ĠGaunt": 2794,
      "ĠGremio": 2795,
      "Ġshed": 2796,
      "ĠLet": 2797,
      "ĠLEW": 2798,
      "Ġswift": 2799,
      "ĠHortensio": 2800,
      "Ġgrand": 2801,
      "Ġproclaim": 2802,
      "ĠPr": 2803,
      "ĠPadua": 2804,
      "Ġsaf": 2805,
      "ume": 2806,
      "ĠWatch": 2807,
      "istress": 2808,
      "Ġexc": 2809,
      "Ġdesperate": 2810,
      "Ġslander": 2811,
      "Ġprecious": 2812,
      "Ġbears": 2813,
      "Ġappare": 2814,
      "Ġconscience": 2815,
      "Ġentertain": 2816,
      "ontent": 2817,
      "Ġpride": 2818,
      "Sirrah": 2819,
      "uthor": 2820,
      "Ġglory": 2821,
      "Ġdouble": 2822,
      "atesby": 2823,
      "Ġwoes": 2824,
      "posed": 2825,
      "Ġlands": 2826,
      "Ġsentence": 2827,
      "ĠNorthumberland": 2828,
      "Ġdrunk": 2829,
      "Ġtowards": 2830,
      "ĠCapulet": 2831,
      "Unto": 2832,
      "Ġforgot": 2833,
      "Ġwisdom": 2834,
      "Ġvenge": 2835,
      "Sweet": 2836,
      "Ġvictory": 2837,
      "Ġkinsman": 2838,
      "ĠXI": 2839,
      "LARTIUS": 2840,
      "ĠLEWIS": 2841,
      "ĠWatchman": 2842,
      ";'": 2843,
      "Bel": 2844,
      "Could": 2845,
      "Hear": 2846,
      "MP": 2847,
      "Me": 2848,
      "Pardon": 2849,
      "Pedant": 2850,
      "RTIS": 2851,
      "bray": 2852,
      "den": 2853,
      "gment": 2854,
      "hn": 2855,
      "iance": 2856,
      "ohn": 2857,
      "pir": 2858,
      "ude": 2859,
      "vail": 2860,
      "which": 2861,
      "head": 2862,
      "Ġauthor": 2863,
      "Ġsour": 2864,
      "Ġmount": 2865,
      "Ġmethinks": 2866,
      "Ġmoney": 2867,
      "Ġmasters": 2868,
      "rent": 2869,
      "rence": 2870,
      "Ġfe": 2871,
      "Ġfru": 2872,
      "Ġfought": 2873,
      "Ġfew": 2874,
      "Ġdied": 2875,
      "Ġdeter": 2876,
      "Ġcapt": 2877,
      "Ġpun": 2878,
      "owbray": 2879,
      "Ġhair": 2880,
      "irl": 2881,
      "Ġeld": 2882,
      "Ġstud": 2883,
      "estion": 2884,
      "Ġdoing": 2885,
      "iful": 2886,
      "Ġseal": 2887,
      "ility": 2888,
      "ĠCa": 2889,
      "cted": 2890,
      "ETER": 2891,
      "Ġmanner": 2892,
      "ĠEarl": 2893,
      "ĠGo": 2894,
      "ĠGrumio": 2895,
      "Ġknowledge": 2896,
      "umerle": 2897,
      "Ġenjoy": 2898,
      "Ġran": 2899,
      "ĠAnt": 2900,
      "Within": 2901,
      "Ġalive": 2902,
      "Ġabro": 2903,
      "ways": 2904,
      "Ġhonours": 2905,
      "Ġwarm": 2906,
      "ations": 2907,
      "Ġdeadly": 2908,
      "Ġkept": 2909,
      "Ġcontr": 2910,
      "Ġcontin": 2911,
      "Ġarmy": 2912,
      "Ġlordship": 2913,
      "Ġguest": 2914,
      "Ġguess": 2915,
      "CURTIS": 2916,
      "Ġpromised": 2917,
      "comes": 2918,
      "eeper": 2919,
      "Ġwretched": 2920,
      "Ġdespair": 2921,
      "Ġcheeks": 2922,
      "SAMP": 2923,
      "Ġlabour": 2924,
      "Ġstruck": 2925,
      "Faith": 2926,
      "Ġdeterm": 2927,
      "SAMPSON": 2928,
      "'re": 2929,
      ":--": 2930,
      "BU": 2931,
      "Br": 2932,
      "Citizens": 2933,
      "Dis": 2934,
      "EX": 2935,
      "Either": 2936,
      "IGON": 2937,
      "bury": 2938,
      "ey": 2939,
      "good": 2940,
      "mit": 2941,
      "take": 2942,
      "Ġtry": 2943,
      "Ġteach": 2944,
      "Ġaid": 2945,
      "ounce": 2946,
      "Ġsim": 2947,
      "reed": 2948,
      "Ġbastard": 2949,
      "orious": 2950,
      "llow": 2951,
      "ited": 2952,
      "Ġdance": 2953,
      "Ġcorn": 2954,
      "Ġcred": 2955,
      "Ġcried": 2956,
      "Ġpal": 2957,
      "Ġhel": 2958,
      "Ġhealth": 2959,
      "stant": 2960,
      "utio": 2961,
      "ourn": 2962,
      "Ġliest": 2963,
      "Ġdeg": 2964,
      "Ġdemand": 2965,
      "Ġshake": 2966,
      "eaven": 2967,
      "ament": 2968,
      "Ġsever": 2969,
      "Ġherself": 2970,
      "Ġspent": 2971,
      "ĠMaster": 2972,
      "ĠMowbray": 2973,
      "Ġwhether": 2974,
      "Ġamong": 2975,
      "Ġshepherd": 2976,
      "othing": 2977,
      "ppy": 2978,
      "Ġunp": 2979,
      "Ġunw": 2980,
      "ĠHow": 2981,
      "Ġquoth": 2982,
      "Ġprov": 2983,
      "umb": 2984,
      "Ġplant": 2985,
      "ĠWill": 2986,
      "ĠWhy": 2987,
      "osed": 2988,
      "Ġencounter": 2989,
      "Ġrot": 2990,
      "Ġofficer": 2991,
      "Ġbrothers": 2992,
      "Ġearly": 2993,
      "Ġhonourable": 2994,
      "Ġflowers": 2995,
      "LEY": 2996,
      "Ġcalls": 2997,
      "Ġwhite": 2998,
      "Ġremed": 2999,
      "Ġmoved": 3000,
      "Ġaccount": 3001,
      "ewis": 3002,
      "Ġkindred": 3003,
      "Ġpriest": 3004,
      "Ġguard": 3005,
      "Ġcharity": 3006,
      "Ġunderstand": 3007,
      "Ġfoolish": 3008,
      "Ġhumble": 3009,
      "Ġcounter": 3010,
      "Ġdreams": 3011,
      "Ġgreet": 3012,
      "ANTIGON": 3013,
      "Ġvalour": 3014,
      "Ġjudge": 3015,
      "Ġwretch": 3016,
      "Ġbeggar": 3017,
      "Ġsummer": 3018,
      "Ġtriumph": 3019,
      "Ġcruel": 3020,
      "BURY": 3021,
      "ANTIGONUS": 3022,
      "Bet": 3023,
      "Fear": 3024,
      "Lo": 3025,
      "Mine": 3026,
      "Made": 3027,
      "TCLIFF": 3028,
      "True": 3029,
      "fall": 3030,
      "mon": 3031,
      "rison": 3032,
      "ĠAnd": 3033,
      "heart": 3034,
      "ining": 3035,
      "Ġwail": 3036,
      "orthy": 3037,
      "Ġfart": 3038,
      "Ġfaint": 3039,
      "ites": 3040,
      "Ġdin": 3041,
      "Ġdwell": 3042,
      "Ġyea": 3043,
      "Ġthro": 3044,
      "Ġhung": 3045,
      "Ġpack": 3046,
      "Ġga": 3047,
      "Ġgent": 3048,
      "leep": 3049,
      "Ġforce": 3050,
      "Ġweary": 3051,
      "Ġstone": 3052,
      "Ġstars": 3053,
      "ask": 3054,
      "roy": 3055,
      "Ġbutcher": 3056,
      "ify": 3057,
      "Ġseven": 3058,
      "Ġanon": 3059,
      "Ġours": 3060,
      "ĠCom": 3061,
      "Ġneighb": 3062,
      "ĠRoman": 3063,
      "Ġvie": 3064,
      "ief": 3065,
      "Ġblame": 3066,
      "Ġgoing": 3067,
      "ĠLewis": 3068,
      "Ġthereof": 3069,
      "Ġunf": 3070,
      "Ġuns": 3071,
      "Ġenvy": 3072,
      "Ġrise": 3073,
      "Ġthinks": 3074,
      "Ġrid": 3075,
      "Ġparty": 3076,
      "Ġadd": 3077,
      "Ġothers": 3078,
      "ĠJohn": 3079,
      "ians": 3080,
      "Ġkindness": 3081,
      "Ġchast": 3082,
      "Ġbids": 3083,
      "Ġbright": 3084,
      "Ġglass": 3085,
      "Ġmiser": 3086,
      "Ġcrave": 3087,
      "Twas": 3088,
      "Ġwinter": 3089,
      "Ġmonth": 3090,
      "Ġminister": 3091,
      "Ġwalls": 3092,
      "Ġextrem": 3093,
      "Ġsatisfied": 3094,
      "Ġprivate": 3095,
      "ĠVolsces": 3096,
      "Ġidle": 3097,
      "Ġscarce": 3098,
      "Ġbenef": 3099,
      "RATCLIFF": 3100,
      "Ġlaugh": 3101,
      "Ġvengeance": 3102,
      "Ġabroad": 3103,
      "Ġview": 3104,
      "After": 3105,
      "Bid": 3106,
      "BIS": 3107,
      "Fie": 3108,
      "Gentle": 3109,
      "HOP": 3110,
      "Ne": 3111,
      "Never": 3112,
      "Signior": 3113,
      "Under": 3114,
      "aff": 3115,
      "gra": 3116,
      "ners": 3117,
      "ope": 3118,
      "shall": 3119,
      "ued": 3120,
      "vious": 3121,
      "whe": 3122,
      "woman": 3123,
      "Ġver": 3124,
      "incentio": 3125,
      "Ġwre": 3126,
      "Ġwench": 3127,
      "rees": 3128,
      "have": 3129,
      "orous": 3130,
      "Ġfirm": 3131,
      "Ġcir": 3132,
      "Ġcorse": 3133,
      "enes": 3134,
      "Ġlest": 3135,
      "Ġhol": 3136,
      "vell": 3137,
      "ott": 3138,
      "omas": 3139,
      "att": 3140,
      "ating": 3141,
      "Ġincl": 3142,
      "cell": 3143,
      "utland": 3144,
      "Ġformer": 3145,
      "Ġease": 3146,
      "riar": 3147,
      "ident": 3148,
      "Ġrel": 3149,
      "Ġreceived": 3150,
      "Ġdeal": 3151,
      "amp": 3152,
      "Ġsport": 3153,
      "Ġfaire": 3154,
      "ANLEY": 3155,
      "ĠRutland": 3156,
      "Ġvile": 3157,
      "Ġshrew": 3158,
      "antua": 3159,
      "ĠMantua": 3160,
      "Ġconcl": 3161,
      "Ġconvey": 3162,
      "Ġgod": 3163,
      "allow": 3164,
      "ĠBarn": 3165,
      "Ġarri": 3166,
      "Ġunb": 3167,
      "ĠHer": 3168,
      "ĠVincentio": 3169,
      "Ġmayst": 3170,
      "eless": 3171,
      "Ġquite": 3172,
      "Ġprovost": 3173,
      "IST": 3174,
      "Ġtruly": 3175,
      "Ġdism": 3176,
      "Off": 3177,
      "Ġfoes": 3178,
      "Ġroot": 3179,
      "Ġwherefore": 3180,
      "Ġflower": 3181,
      "Ġimag": 3182,
      "Ġtrial": 3183,
      "ailor": 3184,
      "Ġsmo": 3185,
      "Ġtrem": 3186,
      "Ġfellows": 3187,
      "rench": 3188,
      "Ġchanged": 3189,
      "Ġcover": 3190,
      "Ġhumour": 3191,
      "Ġboot": 3192,
      "Ġswords": 3193,
      "Ġdeputy": 3194,
      "Ġcondition": 3195,
      "Ġjudgment": 3196,
      "change": 3197,
      "Ġtyrant": 3198,
      "Ġacqu": 3199,
      "Ġevil": 3200,
      "BALT": 3201,
      "TYBALT": 3202,
      "Whilst": 3203,
      "Ġeasy": 3204,
      "ĠMercutio": 3205,
      "Ġschool": 3206,
      "Ġexcuse": 3207,
      "Ġfruit": 3208,
      "BISHOP": 3209,
      "'?": 3210,
      "AL": 3211,
      "Bl": 3212,
      "Des": 3213,
      "Ex": 3214,
      "KEN": 3215,
      "Methinks": 3216,
      "Put": 3217,
      "Tut": 3218,
      "ault": 3219,
      "after": 3220,
      "con": 3221,
      "ek": 3222,
      "ead": 3223,
      "ered": 3224,
      "his": 3225,
      "oot": 3226,
      "pin": 3227,
      "roth": 3228,
      "rate": 3229,
      "shi": 3230,
      "ta": 3231,
      "vish": 3232,
      "Ġtaken": 3233,
      "Ġwither": 3234,
      "Ġba": 3235,
      "Ġbrow": 3236,
      "Ġbite": 3237,
      "Ġbrows": 3238,
      "Ġfain": 3239,
      "Ġfeed": 3240,
      "erona": 3241,
      "Ġdust": 3242,
      "Ġdull": 3243,
      "enance": 3244,
      "Ġthunder": 3245,
      "Ġpains": 3246,
      "anley": 3247,
      "Ġgown": 3248,
      "Ġgrown": 3249,
      "Ġgift": 3250,
      "Ġghost": 3251,
      "Ġgirl": 3252,
      "Ġbeha": 3253,
      "Ġmeat": 3254,
      "rift": 3255,
      "Ġstab": 3256,
      "Ġstoop": 3257,
      "idings": 3258,
      "ract": 3259,
      "arden": 3260,
      "Ġspe": 3261,
      "Ġspake": 3262,
      "Ġspring": 3263,
      "ilia": 3264,
      "ĠCatesby": 3265,
      "Ġknave": 3266,
      "AND": 3267,
      "Ġvice": 3268,
      "aste": 3269,
      "Ġshore": 3270,
      "Ġproof": 3271,
      "Ġblest": 3272,
      "Ġblind": 3273,
      "ement": 3274,
      "Ġsirrah": 3275,
      "Ġunl": 3276,
      "Ġquestion": 3277,
      "Ġjoint": 3278,
      "cians": 3279,
      "ĠWe": 3280,
      "ĠAl": 3281,
      "ĠAumerle": 3282,
      "Ġhonesty": 3283,
      "ursed": 3284,
      "Ġleaves": 3285,
      "Ġtwice": 3286,
      "aper": 3287,
      "ĠKeeper": 3288,
      "Ġprevent": 3289,
      "OMAS": 3290,
      "there": 3291,
      "ĠMars": 3292,
      "Ġrepent": 3293,
      "Ġtraitors": 3294,
      "twixt": 3295,
      "Ġimport": 3296,
      "Ġwrongs": 3297,
      "Ġburied": 3298,
      "ealous": 3299,
      "place": 3300,
      "Ġreasons": 3301,
      "Alack": 3302,
      "Ġsenate": 3303,
      "Ġgreen": 3304,
      "Ġaffair": 3305,
      "acher": 3306,
      "Ġchoice": 3307,
      "azed": 3308,
      "Ġdivine": 3309,
      "ĠCorioli": 3310,
      "Ġwhilst": 3311,
      "Ġstop": 3312,
      "Ġtyran": 3313,
      "Ġprophe": 3314,
      "Ġembrace": 3315,
      "Ġmalice": 3316,
      "BRAKEN": 3317,
      "ĠPlantagenet": 3318,
      "Ġsacred": 3319,
      "Ġfiery": 3320,
      "Ġinnocent": 3321,
      "ĠPaulina": 3322,
      "Ġleng": 3323,
      "ĠPrince": 3324,
      "Ġsafety": 3325,
      "ĠCominius": 3326,
      "BRAKENBURY": 3327,
      "?'": 3328,
      "Ad": 3329,
      "DER": 3330,
      "DON": 3331,
      "Edward": 3332,
      "GOR": 3333,
      "Hence": 3334,
      "Ind": 3335,
      "MIST": 3336,
      "Once": 3337,
      "Richard": 3338,
      "RESS": 3339,
      "cha": 3340,
      "draw": 3341,
      "eld": 3342,
      "go": 3343,
      "mn": 3344,
      "my": 3345,
      "more": 3346,
      "nat": 3347,
      "op": 3348,
      "oly": 3349,
      "oard": 3350,
      "pet": 3351,
      "port": 3352,
      "poll": 3353,
      "sic": 3354,
      "would": 3355,
      "Ġed": 3356,
      "ĠTo": 3357,
      "Ġavo": 3358,
      "Ġsits": 3359,
      "inous": 3360,
      "Ġwag": 3361,
      "Ġwings": 3362,
      "rehe": 3363,
      "Ġbark": 3364,
      "orry": 3365,
      "Ġfury": 3366,
      "Ġfinger": 3367,
      "erset": 3368,
      "itol": 3369,
      "Ġcustom": 3370,
      "enen": 3371,
      "anch": 3372,
      "omerset": 3373,
      "Ġgross": 3374,
      "Ġgarden": 3375,
      "Ġinform": 3376,
      "edious": 3377,
      "Ġused": 3378,
      "Ġweeds": 3379,
      "Ġele": 3380,
      "Ġeag": 3381,
      "Ġstones": 3382,
      "Ġdec": 3383,
      "Ġdoor": 3384,
      "Ġnose": 3385,
      "Ġallow": 3386,
      "think": 3387,
      "Ġanger": 3388,
      "ardine": 3389,
      "Ġloath": 3390,
      "Ġloyal": 3391,
      "ellow": 3392,
      "Ġfares": 3393,
      "Ġnecess": 3394,
      "Ġknight": 3395,
      "ctise": 3396,
      "Ġshr": 3397,
      "Ġoracle": 3398,
      "ĠOVER": 3399,
      "Myself": 3400,
      "hysic": 3401,
      "Ġmayor": 3402,
      "elve": 3403,
      "Ġhollow": 3404,
      "Ġsail": 3405,
      "Ġplague": 3406,
      "unning": 3407,
      "Ġround": 3408,
      "Ġfright": 3409,
      "icked": 3410,
      "Without": 3411,
      "Ġalways": 3412,
      "Ġrob": 3413,
      "Ġrock": 3414,
      "Ġwherein": 3415,
      "Ġdesign": 3416,
      "Wherein": 3417,
      "aughters": 3418,
      "Ġadieu": 3419,
      "Ġcommend": 3420,
      "Ġclaim": 3421,
      "Ġprevail": 3422,
      "Ġprayer": 3423,
      "PETER": 3424,
      "Ġplead": 3425,
      "Ġperceive": 3426,
      "Ġtroth": 3427,
      "Ġrude": 3428,
      "Ġtongues": 3429,
      "Ġsubst": 3430,
      "Ġsmile": 3431,
      "Ġimprison": 3432,
      "Ġcares": 3433,
      "GREGOR": 3434,
      "Ġdrawn": 3435,
      "Ġempt": 3436,
      "Ġwanton": 3437,
      "Ġassist": 3438,
      "unts": 3439,
      "Ġtempt": 3440,
      "Ġdeserve": 3441,
      "Ġdelight": 3442,
      "ĠCapitol": 3443,
      "Ġpractise": 3444,
      "Ġcheek": 3445,
      "Ġabsence": 3446,
      "ĠThomas": 3447,
      "Ġdrop": 3448,
      "Ġcreature": 3449,
      "Ġtrumpets": 3450,
      "Ġutter": 3451,
      "Ġlangu": 3452,
      "Ġignorant": 3453,
      "Brother": 3454,
      "Ġrotten": 3455,
      "Ġremedy": 3456,
      "Ġcirc": 3457,
      "ĠBarnardine": 3458,
      "DERBY": 3459,
      "DONE": 3460,
      "Indeed": 3461,
      "MISTRESS": 3462,
      "enenius": 3463,
      "ĠOVERDONE": 3464,
      "GREGORY": 3465,
      "Art": 3466,
      "CH": 3467,
      "Dost": 3468,
      "FORD": 3469,
      "OX": 3470,
      "Poor": 3471,
      "Res": 3472,
      "RICH": 3473,
      "SOM": 3474,
      "Turn": 3475,
      "VAL": 3476,
      "act": 3477,
      "dy": 3478,
      "eous": 3479,
      "mion": 3480,
      "sing": 3481,
      "thi": 3482,
      "what": 3483,
      "yard": 3484,
      "Ġes": 3485,
      "ĠWhere": 3486,
      "Ġtune": 3487,
      "Ġtidings": 3488,
      "Ġtedious": 3489,
      "held": 3490,
      "Ġaim": 3491,
      "Ġaught": 3492,
      "Ġship": 3493,
      "Ġsens": 3494,
      "Ġwent": 3495,
      "Ġwont": 3496,
      "Ġwives": 3497,
      "Ġwicked": 3498,
      "haps": 3499,
      "isa": 3500,
      "ises": 3501,
      "onounce": 3502,
      "Ġdur": 3503,
      "Ġcre": 3504,
      "Ġcell": 3505,
      "Ġcure": 3506,
      "Ġcarry": 3507,
      "Ġcries": 3508,
      "esy": 3509,
      "Ġnumber": 3510,
      "Ġlar": 3511,
      "Ġloud": 3512,
      "Ġthrust": 3513,
      "Ġhit": 3514,
      "Ġhid": 3515,
      "Ġpil": 3516,
      "Ġpair": 3517,
      "othe": 3518,
      "Ġbecomes": 3519,
      "cend": 3520,
      "utes": 3521,
      "iment": 3522,
      "rious": 3523,
      "Ġstar": 3524,
      "Ġstat": 3525,
      "Ġsteed": 3526,
      "ashi": 3527,
      "Ġreceive": 3528,
      "Ġasleep": 3529,
      "Ġdew": 3530,
      "Ġdeceived": 3531,
      "Ġdeposed": 3532,
      "Ġshar": 3533,
      "this": 3534,
      "ards": 3535,
      "hant": 3536,
      "Ġvantage": 3537,
      "ERIA": 3538,
      "ERSET": 3539,
      "ĠMusic": 3540,
      "Ġconj": 3541,
      "ongs": 3542,
      "ĠGrey": 3543,
      "Ġsheep": 3544,
      "Ġtherein": 3545,
      "ĠSic": 3546,
      "ĠSomerset": 3547,
      "ĠVerona": 3548,
      "Ġjealous": 3549,
      "Ġshouldst": 3550,
      "Ġproper": 3551,
      "Ġras": 3552,
      "Ġoutward": 3553,
      "Ġwhole": 3554,
      "Ġoffend": 3555,
      "ĠYour": 3556,
      "Ġalas": 3557,
      "Ġheav": 3558,
      "Ġearn": 3559,
      "eeth": 3560,
      "Ġmeaning": 3561,
      "aced": 3562,
      "Ġchief": 3563,
      "Ġbegins": 3564,
      "ĠJove": 3565,
      "Ġruin": 3566,
      "loved": 3567,
      "ission": 3568,
      "Ġresign": 3569,
      "Ġfollows": 3570,
      "Ġtread": 3571,
      "Ġtreacher": 3572,
      "ethought": 3573,
      "Ġbanished": 3574,
      "Ġpassing": 3575,
      "Ġwoful": 3576,
      "Ġdevise": 3577,
      "Ġfollowers": 3578,
      "Ġfools": 3579,
      "Ġmaids": 3580,
      "Show": 3581,
      "Ġadvise": 3582,
      "Ġgives": 3583,
      "itting": 3584,
      "Ġrememb": 3585,
      "Ġawake": 3586,
      "Ġborne": 3587,
      "Ġsupper": 3588,
      "Ġlamb": 3589,
      "Ġcondu": 3590,
      "aze": 3591,
      "Ġsilence": 3592,
      "Ġpossible": 3593,
      "Having": 3594,
      "Ġprofess": 3595,
      "Ġdespite": 3596,
      "MOND": 3597,
      "Ġgarments": 3598,
      "Ġcastle": 3599,
      "Ġthrive": 3600,
      "Ġexpress": 3601,
      "Ġundone": 3602,
      "Ġdreadful": 3603,
      "Ġbabe": 3604,
      "Ġprotect": 3605,
      "Besides": 3606,
      "Ġbroken": 3607,
      "Ġviolent": 3608,
      "ĠChristian": 3609,
      "Ġpubl": 3610,
      "Ġoccasion": 3611,
      "Ġnobles": 3612,
      "Into": 3613,
      "ursday": 3614,
      "Ġfatal": 3615,
      "Ġbelly": 3616,
      "Ġauthority": 3617,
      "Ġsimple": 3618,
      "Ġfarther": 3619,
      "Ġthroat": 3620,
      "Ġbenefit": 3621,
      "pinion": 3622,
      "Ġaffairs": 3623,
      "pollo": 3624,
      "OXFORD": 3625,
      "RICHMOND": 3626,
      "SOMERSET": 3627,
      "VALERIA": 3628,
      "mione": 3629,
      "AMIL": 3630,
      "BUS": 3631,
      "Great": 3632,
      "HY": 3633,
      "Hast": 3634,
      "LIUS": 3635,
      "MOP": 3636,
      "MAMIL": 3637,
      "Per": 3638,
      "Tybalt": 3639,
      "Tailor": 3640,
      "Very": 3641,
      "app": 3642,
      "cing": 3643,
      "can": 3644,
      "eg": 3645,
      "fl": 3646,
      "father": 3647,
      "gle": 3648,
      "iond": 3649,
      "oat": 3650,
      "pr": 3651,
      "ron": 3652,
      "son": 3653,
      "ub": 3654,
      "Ġer": 3655,
      "Ġir": 3656,
      "ĠThere": 3657,
      "Ġtort": 3658,
      "Ġtaste": 3659,
      "Ġsan": 3660,
      "Ġsix": 3661,
      "Ġsorry": 3662,
      "Ġwine": 3663,
      "Ġwander": 3664,
      "Ġband": 3665,
      "Ġbond": 3666,
      "erved": 3667,
      "itude": 3668,
      "Ġdet": 3669,
      "Ġdue": 3670,
      "Ġcal": 3671,
      "Ġcam": 3672,
      "Ġcunning": 3673,
      "ene": 3674,
      "enn": 3675,
      "Ġnine": 3676,
      "Ġnames": 3677,
      "Ġlend": 3678,
      "arch": 3679,
      "Ġtop": 3680,
      "Ġpin": 3681,
      "Ġpawn": 3682,
      "Ġpaper": 3683,
      "Ġphysic": 3684,
      "Ġgain": 3685,
      "Ġgage": 3686,
      "Ġbelike": 3687,
      "Ġbeheld": 3688,
      "Ġinfect": 3689,
      "ldom": 3690,
      "eding": 3691,
      "utation": 3692,
      "Ġweight": 3693,
      "Ġweap": 3694,
      "ills": 3695,
      "Ġequ": 3696,
      "enture": 3697,
      "Ġstore": 3698,
      "Ġstep": 3699,
      "Ġstock": 3700,
      "Ġstuff": 3701,
      "Ġrenown": 3702,
      "rand": 3703,
      "Ġlip": 3704,
      "Ġdeare": 3705,
      "room": 3706,
      "eave": 3707,
      "usion": 3708,
      "iffe": 3709,
      "Ġseas": 3710,
      "Ġsup": 3711,
      "run": 3712,
      "Ġange": 3713,
      "Ġlod": 3714,
      "ello": 3715,
      "Ġspend": 3716,
      "Ġspare": 3717,
      "hop": 3718,
      "Ġvan": 3719,
      "ouses": 3720,
      "Ġshut": 3721,
      "ustice": 3722,
      "ĠMOW": 3723,
      "ĠMenenius": 3724,
      "olix": 3725,
      "Ġsway": 3726,
      "Ġbrook": 3727,
      "Ġkingly": 3728,
      "ĠBona": 3729,
      "Ġunnat": 3730,
      "ĠHarry": 3731,
      "Ġquit": 3732,
      "imely": 3733,
      "Ġenvious": 3734,
      "Ġrash": 3735,
      "Ġdisd": 3736,
      "ABHOR": 3737,
      "Ġroom": 3738,
      "Ġexile": 3739,
      "Ġexcell": 3740,
      "Ġdesert": 3741,
      "Ġgentlewoman": 3742,
      "Ġflight": 3743,
      "Ġtwelve": 3744,
      "Ġparts": 3745,
      "Ġprey": 3746,
      "THOMAS": 3747,
      "Ġperil": 3748,
      "Ġperish": 3749,
      "Ġtrans": 3750,
      "iteous": 3751,
      "ĠFriar": 3752,
      "Ġwhither": 3753,
      "swain": 3754,
      "Ġuntil": 3755,
      "Ġaffect": 3756,
      "Ġlean": 3757,
      "Ġlegs": 3758,
      "orses": 3759,
      "Ġkeeps": 3760,
      "Ġaccus": 3761,
      "STANLEY": 3762,
      "Ġprize": 3763,
      "Ġpursu": 3764,
      "Ġchair": 3765,
      "Ġcountenance": 3766,
      "Ġpleased": 3767,
      "ounty": 3768,
      "Ġhumbly": 3769,
      "Ġcourtesy": 3770,
      "Ġadvantage": 3771,
      "Ġcurst": 3772,
      "ploy": 3773,
      "Ġspirits": 3774,
      "Two": 3775,
      "Ġintend": 3776,
      "Ġdenied": 3777,
      "ancy": 3778,
      "Ġdisposition": 3779,
      "Ġbetwixt": 3780,
      "Ġsilver": 3781,
      "Ġdelay": 3782,
      "Ġresolve": 3783,
      "ĠThursday": 3784,
      "Ġwedding": 3785,
      "Ġsighs": 3786,
      "Ġhurt": 3787,
      "BRAY": 3788,
      "Ġcolour": 3789,
      "Ġclear": 3790,
      "Ġowe": 3791,
      "Ġprepared": 3792,
      "Ġdamned": 3793,
      "Ġshadow": 3794,
      "Ġpleasant": 3795,
      "Ġforsworn": 3796,
      "Ġstorm": 3797,
      "Death": 3798,
      "Ġthreaten": 3799,
      "Ġconquer": 3800,
      "Ġpunish": 3801,
      "ĠCaius": 3802,
      "Ġcontrary": 3803,
      "EXETER": 3804,
      "Ġpalace": 3805,
      "Ġdinner": 3806,
      "Ġneighbour": 3807,
      "Ġmiserable": 3808,
      "Ġspeci": 3809,
      "Ġempty": 3810,
      "ĠMusician": 3811,
      "BUSHY": 3812,
      "MOPSA": 3813,
      "MAMILLIUS": 3814,
      "iondello": 3815,
      "Ġsanct": 3816,
      "ĠMOWBRAY": 3817,
      "olixenes": 3818,
      "ABHORSON": 3819,
      "CY": 3820,
      "Cousin": 3821,
      "Ed": 3822,
      "Know": 3823,
      "None": 3824,
      "Nothing": 3825,
      "Pre": 3826,
      "Ret": 3827,
      "Right": 3828,
      "Rem": 3829,
      "Rep": 3830,
      "Sc": 3831,
      "Sha": 3832,
      "Widow": 3833,
      "bow": 3834,
      "born": 3835,
      "grace": 3836,
      "hor": 3837,
      "hore": 3838,
      "lar": 3839,
      "mity": 3840,
      "oc": 3841,
      "oke": 3842,
      "par": 3843,
      "ping": 3844,
      "pic": 3845,
      "pass": 3846,
      "tune": 3847,
      "urious": 3848,
      "we": 3849,
      "wise": 3850,
      "yond": 3851,
      "ĠWhen": 3852,
      "Ġtut": 3853,
      "Ġtable": 3854,
      "Ġscept": 3855,
      "Ġmiss": 3856,
      "Ġmurderer": 3857,
      "Ġmaking": 3858,
      "Ġmotion": 3859,
      "Ġmourn": 3860,
      "Ġwot": 3861,
      "Ġwood": 3862,
      "Ġwol": 3863,
      "Ġwond": 3864,
      "rease": 3865,
      "Ġbas": 3866,
      "Ġbare": 3867,
      "Ġball": 3868,
      "Ġbud": 3869,
      "ising": 3870,
      "Ġfle": 3871,
      "Ġfro": 3872,
      "Ġfee": 3873,
      "Ġfashi": 3874,
      "erve": 3875,
      "Ġdi": 3876,
      "Ġdign": 3877,
      "Ġdies": 3878,
      "Ġdag": 3879,
      "Ġdaughters": 3880,
      "Ġcens": 3881,
      "Ġcup": 3882,
      "Ġcalm": 3883,
      "ency": 3884,
      "Ġnaked": 3885,
      "Ġyonder": 3886,
      "Ġopinion": 3887,
      "Ġpure": 3888,
      "Ġport": 3889,
      "Ġpainted": 3890,
      "Ġpiteous": 3891,
      "Ġheed": 3892,
      "ote": 3893,
      "ane": 3894,
      "Ġgate": 3895,
      "Ġbew": 3896,
      "Ġbeloved": 3897,
      "sequ": 3898,
      "irg": 3899,
      "Ġmend": 3900,
      "ourish": 3901,
      "Ġweigh": 3902,
      "rib": 3903,
      "Ġstory": 3904,
      "Ġreward": 3905,
      "urance": 3906,
      "Ġdebt": 3907,
      "Ġones": 3908,
      "ARCH": 3909,
      "amed": 3910,
      "Ġseest": 3911,
      "Three": 3912,
      "ruly": 3913,
      "thou": 3914,
      "Ġfail": 3915,
      "ERCY": 3916,
      "que": 3917,
      "Ġgoodness": 3918,
      "Ġpronounce": 3919,
      "Ġcomple": 3920,
      "ĠMessenger": 3921,
      "Ġamb": 3922,
      "Ġamen": 3923,
      "outs": 3924,
      "oler": 3925,
      "Ġhatred": 3926,
      "Ġtheirs": 3927,
      "ĠBiondello": 3928,
      "Ġarg": 3929,
      "igence": 3930,
      "Ġquench": 3931,
      "Ġhopes": 3932,
      "cio": 3933,
      "cian": 3934,
      "Ġseeing": 3935,
      "ĠPro": 3936,
      "ĠPeter": 3937,
      "ĠPisa": 3938,
      "ĠPolixenes": 3939,
      "ĠPERCY": 3940,
      "umble": 3941,
      "Ġplot": 3942,
      "Ġdiss": 3943,
      "Ġexpect": 3944,
      "Ġslow": 3945,
      "Ġado": 3946,
      "THAS": 3947,
      "ĠDid": 3948,
      "Ġperfect": 3949,
      "Ġperpet": 3950,
      "Ġwrath": 3951,
      "Thanks": 3952,
      "lesome": 3953,
      "ĠFl": 3954,
      "Ġremains": 3955,
      "Ġcrowns": 3956,
      "Ġhark": 3957,
      "Ġcourage": 3958,
      "Ġwits": 3959,
      "clock": 3960,
      "Ġaccess": 3961,
      "Ġaccuse": 3962,
      "Ġfolly": 3963,
      "Only": 3964,
      "Ġends": 3965,
      "Ġendure": 3966,
      "Ġneedful": 3967,
      "Still": 3968,
      "Ġbodies": 3969,
      "Ġjoys": 3970,
      "Ġjoyful": 3971,
      "Ġfortunes": 3972,
      "Ġmistake": 3973,
      "Ġnatural": 3974,
      "Ġhappiness": 3975,
      "Ġmisery": 3976,
      "Ġundertake": 3977,
      "Ġchide": 3978,
      "Ġattempt": 3979,
      "Ġadvance": 3980,
      "Ġcurses": 3981,
      "Ġemploy": 3982,
      "Ġassurance": 3983,
      "Ġpersu": 3984,
      "Ġdiscontent": 3985,
      "Ġsenators": 3986,
      "Ġcrack": 3987,
      "Ġintent": 3988,
      "Ġsometime": 3989,
      "Ġwounded": 3990,
      "Ġspoken": 3991,
      "Ġdrum": 3992,
      "Ġmarket": 3993,
      "cape": 3994,
      "Ġwaters": 3995,
      "Ġcursed": 3996,
      "Ġinstruct": 3997,
      "Ġinstrument": 3998,
      "ĠNap": 3999,
      "ĠRivers": 4000,
      "Ġterror": 4001,
      "Ġresolved": 4002,
      "chance": 4003,
      "Ġwhiles": 4004,
      "Ġcorrupt": 4005,
      "ney": 4006,
      "Ġburthen": 4007,
      "Ġgriev": 4008,
      "Ġduked": 4009,
      "Ġaccept": 4010,
      "Ġgroan": 4011,
      "BALTHAS": 4012,
      "Ġcolours": 4013,
      "Ġpenit": 4014,
      "Ġprotest": 4015,
      "Ġprinces": 4016,
      "Ġprincess": 4017,
      "ĠStanley": 4018,
      "Ġgovernment": 4019,
      "Prithee": 4020,
      "Ġobedience": 4021,
      "Ġpetition": 4022,
      "Ġsolemn": 4023,
      "Believe": 4024,
      "Ġcontinue": 4025,
      "Ġcredit": 4026,
      "Ġseveral": 4027,
      "hearted": 4028,
      "Ġwreck": 4029,
      "Ġlanguage": 4030,
      "Ġcircum": 4031,
      "Ġdurst": 4032,
      "Ġremembrance": 4033,
      "Ġpublic": 4034,
      "Ġunnatural": 4035,
      "picion": 4036,
      "Ġdukedom": 4037,
      "BALTHASAR": 4038,
      "?--": 4039,
      "Ar": 4040,
      "App": 4041,
      "AEd": 4042,
      "Bear": 4043,
      "Boat": 4044,
      "Father": 4045,
      "FOL": 4046,
      "Heaven": 4047,
      "Love": 4048,
      "Might": 4049,
      "Mark": 4050,
      "OS": 4051,
      "Post": 4052,
      "Page": 4053,
      "Save": 4054,
      "afe": 4055,
      "bear": 4056,
      "do": 4057,
      "dds": 4058,
      "ex": 4059,
      "fer": 4060,
      "gers": 4061,
      "how": 4062,
      "ipe": 4063,
      "just": 4064,
      "lic": 4065,
      "oe": 4066,
      "oved": 4067,
      "ped": 4068,
      "pro": 4069,
      "sc": 4070,
      "same": 4071,
      "time": 4072,
      "uary": 4073,
      "val": 4074,
      "vours": 4075,
      "yr": 4076,
      "ĠNay": 4077,
      "ĠThey": 4078,
      "Ġtest": 4079,
      "Ġteeth": 4080,
      "hest": 4081,
      "Ġsink": 4082,
      "Ġsins": 4083,
      "Ġmag": 4084,
      "Ġmile": 4085,
      "ination": 4086,
      "happy": 4087,
      "ishop": 4088,
      "Ġfame": 4089,
      "erd": 4090,
      "ita": 4091,
      "Ġcock": 4092,
      "Ġcease": 4093,
      "ences": 4094,
      "Ġnought": 4095,
      "Ġled": 4096,
      "aries": 4097,
      "Ġhost": 4098,
      "Ġhunt": 4099,
      "Ġhouses": 4100,
      "Ġhorses": 4101,
      "Ġodd": 4102,
      "Ġobs": 4103,
      "Ġodds": 4104,
      "Ġtomb": 4105,
      "Ġpol": 4106,
      "Ġpowers": 4107,
      "strous": 4108,
      "omp": 4109,
      "omen": 4110,
      "atic": 4111,
      "atience": 4112,
      "Ġbeyond": 4113,
      "Ġhaz": 4114,
      "uted": 4115,
      "Ġmere": 4116,
      "Ġisle": 4117,
      "Ġisland": 4118,
      "ourage": 4119,
      "Ġeast": 4120,
      "Ġits": 4121,
      "Ġkin": 4122,
      "idence": 4123,
      "Ġrepe": 4124,
      "Ġrealm": 4125,
      "Ġshape": 4126,
      "uses": 4127,
      "ified": 4128,
      "Ġseize": 4129,
      "Those": 4130,
      "Ġspite": 4131,
      "Ġfaces": 4132,
      "ĠCan": 4133,
      "ĠCal": 4134,
      "ĠROS": 4135,
      "Ġvault": 4136,
      "Ġvirg": 4137,
      "Ġshun": 4138,
      "ants": 4139,
      "Ġcomest": 4140,
      "Ġmanners": 4141,
      "ĠEl": 4142,
      "icular": 4143,
      "Ġconc": 4144,
      "ieved": 4145,
      "Ġblock": 4146,
      "Ġblush": 4147,
      "ĠGood": 4148,
      "ared": 4149,
      "arent": 4150,
      "olute": 4151,
      "Ġhereafter": 4152,
      "Ġswallow": 4153,
      "Ġbrings": 4154,
      "ĠSo": 4155,
      "ĠBl": 4156,
      "elt": 4157,
      "Ġqual": 4158,
      "Ġjour": 4159,
      "Young": 4160,
      "akest": 4161,
      "ument": 4162,
      "Ġfathers": 4163,
      "ĠWho": 4164,
      "Ġenmity": 4165,
      "Ġring": 4166,
      "CAS": 4167,
      "ĠYet": 4168,
      "Ġalter": 4169,
      "Ġlooking": 4170,
      "Ġfriendly": 4171,
      "Ġslay": 4172,
      "Ġflies": 4173,
      "ĠTake": 4174,
      "Ġfairly": 4175,
      "tled": 4176,
      "Ġadvers": 4177,
      "Ġclo": 4178,
      "Ġwrite": 4179,
      "Ġtrade": 4180,
      "Ġways": 4181,
      "Ġscope": 4182,
      "Ġscene": 4183,
      "aintain": 4184,
      "they": 4185,
      "Ġkey": 4186,
      "ĠFrench": 4187,
      "Ġapprehe": 4188,
      "Ġcontract": 4189,
      "Ġwhore": 4190,
      "Ġarmour": 4191,
      "ctions": 4192,
      "Ġuntimely": 4193,
      "ression": 4194,
      "Ġimm": 4195,
      "Ġrepair": 4196,
      "Ġrule": 4197,
      "Ġleads": 4198,
      "Ġslept": 4199,
      "Ġaccord": 4200,
      "Ġpurcha": 4201,
      "Ġcompass": 4202,
      "orset": 4203,
      "Ġseeming": 4204,
      "Ġbrain": 4205,
      "Ġglorious": 4206,
      "Ġimposs": 4207,
      "Ġpassage": 4208,
      "Ġmaiden": 4209,
      "Ġhateful": 4210,
      "Ġstrew": 4211,
      "Ġturns": 4212,
      "uteous": 4213,
      "Ġinstant": 4214,
      "Ġboar": 4215,
      "Ġwants": 4216,
      "NORFOL": 4217,
      "Ġdiscover": 4218,
      "Ġcommanded": 4219,
      "Ġhanging": 4220,
      "Ġcontented": 4221,
      "Ġdares": 4222,
      "Ġfreely": 4223,
      "Ġgrey": 4224,
      "Ġservices": 4225,
      "Ġtemper": 4226,
      "Ġdrums": 4227,
      "Ġcholer": 4228,
      "Ġgrows": 4229,
      "Ġdeserves": 4230,
      "noon": 4231,
      "ĠLucio": 4232,
      "Ġgranted": 4233,
      "Comm": 4234,
      "Ġterms": 4235,
      "Ġincrease": 4236,
      "Ġresolution": 4237,
      "Ġshortly": 4238,
      "Ġvex": 4239,
      "Ġpraise": 4240,
      "Ġabsent": 4241,
      "Ġvenom": 4242,
      "Ġdrops": 4243,
      "Ġprivile": 4244,
      "Ġrespected": 4245,
      "Ġframe": 4246,
      "Beseech": 4247,
      "Ġapproach": 4248,
      "Ġcomplain": 4249,
      "Ġtorment": 4250,
      "Ġunknown": 4251,
      "Ġprosperous": 4252,
      "DORCAS": 4253,
      "Ġsuspicion": 4254,
      "Ġreverend": 4255,
      "Ġapparel": 4256,
      "Ġcaptain": 4257,
      "Ġdegree": 4258,
      "ĠHermione": 4259,
      "Ġsmooth": 4260,
      "Ġlarge": 4261,
      "Ġsharp": 4262,
      "Ġearnest": 4263,
      "Ġcamest": 4264,
      "Ġdisdain": 4265,
      "Ġexcellent": 4266,
      "Ġsceptre": 4267,
      "Ġdagger": 4268,
      "ĠNaples": 4269,
      "Boatswain": 4270,
      "ĠROSS": 4271,
      "NORFOLK": 4272,
      "Amen": 4273,
      "Boy": 4274,
      "Came": 4275,
      "Cons": 4276,
      "DIN": 4277,
      "Dear": 4278,
      "FER": 4279,
      "GH": 4280,
      "Ghost": 4281,
      "Has": 4282,
      "Long": 4283,
      "Mistress": 4284,
      "NS": 4285,
      "Please": 4286,
      "RR": 4287,
      "Roman": 4288,
      "Set": 4289,
      "Wilt": 4290,
      "Worthy": 4291,
      "aces": 4292,
      "aily": 4293,
      "bri": 4294,
      "bra": 4295,
      "dis": 4296,
      "fret": 4297,
      "gl": 4298,
      "gar": 4299,
      "iven": 4300,
      "iate": 4301,
      "ipp": 4302,
      "kin": 4303,
      "ker": 4304,
      "law": 4305,
      "pul": 4306,
      "uce": 4307,
      "wife": 4308,
      "ĠTherefore": 4309,
      "Ġtame": 4310,
      "Ġtaught": 4311,
      "Ġtap": 4312,
      "Ġtide": 4313,
      "Ġable": 4314,
      "Ġsqu": 4315,
      "Ġsouth": 4316,
      "Ġmor": 4317,
      "Ġmill": 4318,
      "Ġmessenger": 4319,
      "iny": 4320,
      "reg": 4321,
      "reland": 4322,
      "reme": 4323,
      "Ġbird": 4324,
      "Ġbury": 4325,
      "isper": 4326,
      "Ġfig": 4327,
      "Ġfurn": 4328,
      "itus": 4329,
      "Ġdig": 4330,
      "Ġdress": 4331,
      "Ġdaily": 4332,
      "Ġchat": 4333,
      "Ġcatch": 4334,
      "Ġlark": 4335,
      "Ġthorn": 4336,
      "Ġthief": 4337,
      "Ġparent": 4338,
      "ĠIreland": 4339,
      "ances": 4340,
      "omans": 4341,
      "ater": 4342,
      "ature": 4343,
      "atcl": 4344,
      "Ġbef": 4345,
      "Ġbeard": 4346,
      "Ġbethink": 4347,
      "Ġmeant": 4348,
      "Ġweather": 4349,
      "Ġwept": 4350,
      "ades": 4351,
      "ricians": 4352,
      "Ġstol": 4353,
      "Ġstamp": 4354,
      "Ġrej": 4355,
      "Ġrecom": 4356,
      "Ġrevol": 4357,
      "Ġlion": 4358,
      "aline": 4359,
      "Ġwilling": 4360,
      "Ġwillingly": 4361,
      "Ġnobl": 4362,
      "Ġnobly": 4363,
      "andal": 4364,
      "Ġseason": 4365,
      "Ġsull": 4366,
      "Ġsuck": 4367,
      "Ġspr": 4368,
      "Ġspur": 4369,
      "ĠCo": 4370,
      "ĠCons": 4371,
      "Ġknife": 4372,
      "ĠRos": 4373,
      "ĠRomans": 4374,
      "Ġvows": 4375,
      "Ġcomb": 4376,
      "ĠMay": 4377,
      "ĠMil": 4378,
      "Ġamazed": 4379,
      "Ġconce": 4380,
      "Ġconceit": 4381,
      "Ġconstant": 4382,
      "ember": 4383,
      "Help": 4384,
      "Ġlovely": 4385,
      "Ġswell": 4386,
      "ĠST": 4387,
      "ĠBe": 4388,
      "ĠBer": 4389,
      "Ġunless": 4390,
      "Ġworn": 4391,
      "Ġworthi": 4392,
      "Ġjew": 4393,
      "Ġmuster": 4394,
      "Ġprovo": 4395,
      "ĠPray": 4396,
      "Ġruth": 4397,
      "ĠAd": 4398,
      "ĠApollo": 4399,
      "Ġdisper": 4400,
      "Ġabhor": 4401,
      "Ġroar": 4402,
      "Ġrogue": 4403,
      "Ġtells": 4404,
      "Ġwhereof": 4405,
      "Ġwarlike": 4406,
      "Ġhasty": 4407,
      "Ġfears": 4408,
      "Ġgreatest": 4409,
      "oldier": 4410,
      "Ġparticular": 4411,
      "Ġadver": 4412,
      "Ġcommitted": 4413,
      "Ġclam": 4414,
      "ĠDo": 4415,
      "Ġperj": 4416,
      "Ġperforce": 4417,
      "Ġwrought": 4418,
      "liament": 4419,
      "Ġnorth": 4420,
      "Ġpress": 4421,
      "Ġrap": 4422,
      "Ġraise": 4423,
      "ĠFarewell": 4424,
      "Ġbegun": 4425,
      "forth": 4426,
      "ĠJack": 4427,
      "Ġconsider": 4428,
      "Ġpeers": 4429,
      "love": 4430,
      "Ġwitch": 4431,
      "Ġaccused": 4432,
      "Ġkindly": 4433,
      "Ġcompan": 4434,
      "Ġsmiles": 4435,
      "Ġcounty": 4436,
      "Ġfinds": 4437,
      "Stri": 4438,
      "Ġbraw": 4439,
      "Ġcharged": 4440,
      "Ġpassion": 4441,
      "Clarence": 4442,
      "Ġholds": 4443,
      "GREEN": 4444,
      "Ġstreets": 4445,
      "Ġbuild": 4446,
      "Ġsoundly": 4447,
      "Ġserves": 4448,
      "Ġboots": 4449,
      "Ġadvice": 4450,
      "Ġcurrent": 4451,
      "Ġrevenged": 4452,
      "Ġassured": 4453,
      "Ġsends": 4454,
      "Ġgiving": 4455,
      "Ġwinds": 4456,
      "Ġhanged": 4457,
      "Ġdarest": 4458,
      "Ġintell": 4459,
      "Ġsupposed": 4460,
      "Ġafford": 4461,
      "ALONS": 4462,
      "Whither": 4463,
      "Ġhardly": 4464,
      "Ġprofit": 4465,
      "Ġparliament": 4466,
      "Ġrecord": 4467,
      "Ġveins": 4468,
      "Ġwaste": 4469,
      "Ġstopp": 4470,
      "Until": 4471,
      "Ġpieces": 4472,
      "Ġwait": 4473,
      "Ġgarland": 4474,
      "Ġgrieve": 4475,
      "Ġsky": 4476,
      "Ġforbear": 4477,
      "ĠPomfret": 4478,
      "Ġdirect": 4479,
      "Ġgroans": 4480,
      "Ġthrice": 4481,
      "Ġestate": 4482,
      "erns": 4483,
      "TYRR": 4484,
      "Ġoppos": 4485,
      "Ġdestroy": 4486,
      "About": 4487,
      "Ġurged": 4488,
      "Ġaffections": 4489,
      "Ġfamous": 4490,
      "Ġhaply": 4491,
      "DORSET": 4492,
      "Supp": 4493,
      "Ġlusty": 4494,
      "Ġelder": 4495,
      "Ġstudy": 4496,
      "Ġcounterfeit": 4497,
      "Gentlemen": 4498,
      "Ġarrived": 4499,
      "Ġbehalf": 4500,
      "ĠMarshal": 4501,
      "Ġavoid": 4502,
      "Ġimprisonment": 4503,
      "untsman": 4504,
      "Ġrascal": 4505,
      "Ġtreacherous": 4506,
      "Ġconduct": 4507,
      "Ġprotector": 4508,
      "Ġspecial": 4509,
      "Ġsanctuary": 4510,
      "Ġperpetual": 4511,
      "Ġgrievous": 4512,
      "AEdile": 4513,
      "Ġvirgin": 4514,
      "Ġjourney": 4515,
      "DINAND": 4516,
      "FERDINAND": 4517,
      "atcliff": 4518,
      "ĠConspir": 4519,
      "ALONSO": 4520,
      "TYRREL": 4521,
      ";--": 4522,
      "Acc": 4523,
      "Bring": 4524,
      "Coriol": 4525,
      "Keep": 4526,
      "Leave": 4527,
      "Makes": 4528,
      "Vols": 4529,
      "af": 4530,
      "cure": 4531,
      "des": 4532,
      "dig": 4533,
      "eat": 4534,
      "erer": 4535,
      "fess": 4536,
      "fellow": 4537,
      "faced": 4538,
      "grim": 4539,
      "groom": 4540,
      "ib": 4541,
      "iving": 4542,
      "ienn": 4543,
      "lanch": 4544,
      "master": 4545,
      "mory": 4546,
      "maid": 4547,
      "nal": 4548,
      "sha": 4549,
      "ser": 4550,
      "some": 4551,
      "ties": 4552,
      "upt": 4553,
      "vior": 4554,
      "wear": 4555,
      "xeter": 4556,
      "zz": 4557,
      "Ġz": 4558,
      "Ġing": 4559,
      "ĠThen": 4560,
      "Ġtask": 4561,
      "Ġach": 4562,
      "Ġapt": 4563,
      "Ġaunt": 4564,
      "Ġsy": 4565,
      "Ġsal": 4566,
      "Ġsire": 4567,
      "Ġmult": 4568,
      "Ġmaintain": 4569,
      "Ġwing": 4570,
      "Ġwide": 4571,
      "Ġwhip": 4572,
      "Ġwaking": 4573,
      "reen": 4574,
      "Ġbade": 4575,
      "isbury": 4576,
      "Ġfi": 4577,
      "Ġfood": 4578,
      "Ġfrow": 4579,
      "Ġfun": 4580,
      "Ġfeet": 4581,
      "Ġfires": 4582,
      "Ġfancy": 4583,
      "erity": 4584,
      "erby": 4585,
      "itation": 4586,
      "onci": 4587,
      "Ġdow": 4588,
      "Ġdim": 4589,
      "Ġdri": 4590,
      "Ġdying": 4591,
      "Ġcher": 4592,
      "Ġcaught": 4593,
      "Ġcere": 4594,
      "esar": 4595,
      "essel": 4596,
      "enant": 4597,
      "Ġnail": 4598,
      "Ġlin": 4599,
      "Ġyond": 4600,
      "Ġyoke": 4601,
      "Ġthird": 4602,
      "Ġhor": 4603,
      "Ġhie": 4604,
      "Ġpi": 4605,
      "Ġpot": 4606,
      "Ġpound": 4607,
      "Ġpurse": 4608,
      "Ġpier": 4609,
      "vet": 4610,
      "ative": 4611,
      "sell": 4612,
      "Ġinqu": 4613,
      "etite": 4614,
      "eder": 4615,
      "utenant": 4616,
      "Ġmelt": 4617,
      "Ġmelanch": 4618,
      "Ġfors": 4619,
      "Ġforced": 4620,
      "Ġforfeit": 4621,
      "ourse": 4622,
      "ourth": 4623,
      "Ġevent": 4624,
      "adv": 4625,
      "aded": 4626,
      "rick": 4627,
      "Ġsting": 4628,
      "Ġstro": 4629,
      "Ġstout": 4630,
      "Ġstret": 4631,
      "Ġstroke": 4632,
      "Ġreck": 4633,
      "rac": 4634,
      "ales": 4635,
      "alisbury": 4636,
      "Ġsore": 4637,
      "Ġsooth": 4638,
      "Ġdeceit": 4639,
      "roll": 4640,
      "ested": 4641,
      "earer": 4642,
      "amb": 4643,
      "ams": 4644,
      "aming": 4645,
      "Ġsees": 4646,
      "Ġalliance": 4647,
      "Ġsue": 4648,
      "ruction": 4649,
      "ellion": 4650,
      "Ġsple": 4651,
      "ilence": 4652,
      "Ġknaves": 4653,
      "Ġvessel": 4654,
      "ulate": 4655,
      "arts": 4656,
      "nty": 4657,
      "ĠExeter": 4658,
      "icy": 4659,
      "Ġconfe": 4660,
      "Ġblunt": 4661,
      "ĠGive": 4662,
      "ares": 4663,
      "ĠLe": 4664,
      "Ġsaying": 4665,
      "ĠSoldier": 4666,
      "Ġunjust": 4667,
      "Ġunhappy": 4668,
      "ignty": 4669,
      "LIS": 4670,
      "Ġgraves": 4671,
      "ĠWell": 4672,
      "Ġenforce": 4673,
      "deem": 4674,
      "ĠAll": 4675,
      "ĠAway": 4676,
      "irect": 4677,
      "harge": 4678,
      "Ġoffended": 4679,
      "Ġdissem": 4680,
      "Ġdisgrace": 4681,
      "Ġalack": 4682,
      "Ġalike": 4683,
      "Ġalthough": 4684,
      "Ġabide": 4685,
      "Ġaboard": 4686,
      "Noble": 4687,
      "Ġrose": 4688,
      "Ġexchange": 4689,
      "Soft": 4690,
      "ages": 4691,
      "Ġdesires": 4692,
      "Ġdescend": 4693,
      "Ġslaves": 4694,
      "Ġflood": 4695,
      "Ġflatt": 4696,
      "Ġtwain": 4697,
      "ĠTitus": 4698,
      "Ġbetray": 4699,
      "Ġbetimes": 4700,
      "Ġnewly": 4701,
      "Ġparting": 4702,
      "Ġpartly": 4703,
      "Ġcalled": 4704,
      "Ġcommons": 4705,
      "Ġcommission": 4706,
      "Ġstanding": 4707,
      "Ġclim": 4708,
      "ĠDe": 4709,
      "ĠDorset": 4710,
      "ĠDerby": 4711,
      "ullus": 4712,
      "Ġwrink": 4713,
      "Ġbearing": 4714,
      "aints": 4715,
      "Ġrare": 4716,
      "thee": 4717,
      "ĠFroth": 4718,
      "Ġappeal": 4719,
      "Ġappetite": 4720,
      "Ġcontempt": 4721,
      "Ġwhisper": 4722,
      "Ġimage": 4723,
      "ĠMarian": 4724,
      "forced": 4725,
      "Ġrust": 4726,
      "Ġruled": 4727,
      "Ġhousehold": 4728,
      "Ġrestra": 4729,
      "ercy": 4730,
      "Ġsets": 4731,
      "clam": 4732,
      "osing": 4733,
      "Ġresist": 4734,
      "Ġtrick": 4735,
      "Ġputs": 4736,
      "Ġpowerful": 4737,
      "Ġchase": 4738,
      "Ġcharac": 4739,
      "Ġsmell": 4740,
      "Ġtreasure": 4741,
      "Ġbrace": 4742,
      "iety": 4743,
      "Ġmistrust": 4744,
      "Ġnative": 4745,
      "Ġboys": 4746,
      "Ġweeps": 4747,
      "Ġpatricians": 4748,
      "Ġbelow": 4749,
      "Lords": 4750,
      "Ġfalsehood": 4751,
      "Ġsovereignty": 4752,
      "ouchs": 4753,
      "Ġassure": 4754,
      "Ġsecure": 4755,
      "Twere": 4756,
      "Ġsometimes": 4757,
      "Ġoaths": 4758,
      "Ġmerit": 4759,
      "upon": 4760,
      "Ġfaithful": 4761,
      "Ġdefence": 4762,
      "Ġaffli": 4763,
      "Ġsurely": 4764,
      "should": 4765,
      "Ġsilent": 4766,
      "Ġinstruments": 4767,
      "Cannot": 4768,
      "Ġbeholding": 4769,
      "Ġreconci": 4770,
      "Ġago": 4771,
      "Ġagree": 4772,
      "Ġcorre": 4773,
      "Ġsingle": 4774,
      "Ġbreathed": 4775,
      "Ġforgive": 4776,
      "Ġweakness": 4777,
      "Ġprett": 4778,
      "Ġsickness": 4779,
      "Ġregal": 4780,
      "Ġregard": 4781,
      "Ġmouths": 4782,
      "Ġbooks": 4783,
      "Ġbarren": 4784,
      "Ġbeasts": 4785,
      "Ġtrumpet": 4786,
      "eeming": 4787,
      "Ġpitch": 4788,
      "Ġshield": 4789,
      "Ġunkind": 4790,
      "Ġtempest": 4791,
      "Ġsuspect": 4792,
      "Ġobedient": 4793,
      "Ġreverence": 4794,
      "Ġapparent": 4795,
      "Ġentertainment": 4796,
      "ĠAnti": 4797,
      "Ġdetermined": 4798,
      "Ġhelm": 4799,
      "Ġgently": 4800,
      "Ġholp": 4801,
      "Ġfairest": 4802,
      "Ġtremble": 4803,
      "shire": 4804,
      "Ġstabb": 4805,
      "Ġtyranny": 4806,
      "Ġlength": 4807,
      "Ġpilgrim": 4808,
      "ĠSicilia": 4809,
      "Ġequal": 4810,
      "Ġfashion": 4811,
      "Ġdignity": 4812,
      "Ġcomplex": 4813,
      "Ġcircumst": 4814,
      "yrrel": 4815,
      "Ġaccording": 4816,
      "Ġimpossible": 4817,
      "Ġrejo": 4818,
      "ĠRosaline": 4819,
      "ĠMayor": 4820,
      "ĠMilan": 4821,
      "Volsce": 4822,
      "ienna": 4823,
      "Ġfroward": 4824,
      "Ġmelancholy": 4825,
      "Ġconference": 4826,
      ".--": 4827,
      "AD": 4828,
      "Cry": 4829,
      "Cond": 4830,
      "CLE": 4831,
      "Down": 4832,
      "Draw": 4833,
      "Each": 4834,
      "Fl": 4835,
      "FRO": 4836,
      "Fair": 4837,
      "Hail": 4838,
      "IL": 4839,
      "IT": 4840,
      "Im": 4841,
      "Kn": 4842,
      "King": 4843,
      "Lay": 4844,
      "Lie": 4845,
      "Lady": 4846,
      "Many": 4847,
      "OMEN": 4848,
      "PH": 4849,
      "Qu": 4850,
      "Ri": 4851,
      "Sm": 4852,
      "Son": 4853,
      "Somet": 4854,
      "Tush": 4855,
      "UGH": 4856,
      "Warwick": 4857,
      "Ye": 4858,
      "acc": 4859,
      "action": 4860,
      "bod": 4861,
      "bation": 4862,
      "cra": 4863,
      "cary": 4864,
      "cceed": 4865,
      "eb": 4866,
      "eve": 4867,
      "fa": 4868,
      "fold": 4869,
      "foot": 4870,
      "give": 4871,
      "iver": 4872,
      "iam": 4873,
      "kind": 4874,
      "long": 4875,
      "look": 4876,
      "mong": 4877,
      "ns": 4878,
      "nes": 4879,
      "new": 4880,
      "rs": 4881,
      "rat": 4882,
      "rough": 4883,
      "say": 4884,
      "sues": 4885,
      "than": 4886,
      "tic": 4887,
      "teen": 4888,
      "tles": 4889,
      "uries": 4890,
      "war": 4891,
      "weal": 4892,
      "xe": 4893,
      "Ġtim": 4894,
      "Ġtres": 4895,
      "Ġtall": 4896,
      "Ġtakes": 4897,
      "Ġtarry": 4898,
      "Ġtaunt": 4899,
      "here": 4900,
      "Ġaxe": 4901,
      "oubt": 4902,
      "Ġsalt": 4903,
      "Ġsnow": 4904,
      "Ġmir": 4905,
      "Ġmood": 4906,
      "Ġmess": 4907,
      "Ġmirth": 4908,
      "inct": 4909,
      "Ġwid": 4910,
      "Ġwest": 4911,
      "Ġwake": 4912,
      "Ġwink": 4913,
      "hand": 4914,
      "Ġbir": 4915,
      "Ġbuck": 4916,
      "ories": 4917,
      "ering": 4918,
      "erves": 4919,
      "iter": 4920,
      "itable": 4921,
      "onation": 4922,
      "Ġdiffe": 4923,
      "Ġcost": 4924,
      "Ġchall": 4925,
      "Ġciv": 4926,
      "Ġnap": 4927,
      "Ġlent": 4928,
      "Ġline": 4929,
      "Ġlap": 4930,
      "Ġyes": 4931,
      "Ġthir": 4932,
      "Ġthick": 4933,
      "Ġthread": 4934,
      "Ġhorn": 4935,
      "Ġoak": 4936,
      "Ġope": 4937,
      "Ġtoad": 4938,
      "Ġtoil": 4939,
      "Ġtooth": 4940,
      "Ġpee": 4941,
      "Ġpause": 4942,
      "ĠIta": 4943,
      "othes": 4944,
      "stable": 4945,
      "stery": 4946,
      "aning": 4947,
      "omach": 4948,
      "Ġgru": 4949,
      "Ġgaze": 4950,
      "Ġmystery": 4951,
      "Ġinfection": 4952,
      "Ġmemory": 4953,
      "imble": 4954,
      "illy": 4955,
      "illing": 4956,
      "herit": 4957,
      "Ġste": 4958,
      "Ġstick": 4959,
      "Ġstumble": 4960,
      "asp": 4961,
      "ases": 4962,
      "Ġrece": 4963,
      "Ġreap": 4964,
      "Ġredeem": 4965,
      "Ġlift": 4966,
      "Ġliken": 4967,
      "alse": 4968,
      "Ġdeb": 4969,
      "Ġdeck": 4970,
      "Ġdecl": 4971,
      "Ġsham": 4972,
      "ushy": 4973,
      "ushes": 4974,
      "Ġsell": 4975,
      "Ġseiz": 4976,
      "Ġseldom": 4977,
      "Ġsepul": 4978,
      "Through": 4979,
      "Ġsuper": 4980,
      "Ġsuitor": 4981,
      "Ġsucceed": 4982,
      "thing": 4983,
      "Ġlover": 4984,
      "Ġlovest": 4985,
      "Ġspl": 4986,
      "Ġspy": 4987,
      "Ġfact": 4988,
      "Ġfawn": 4989,
      "Ġnegle": 4990,
      "Ġknot": 4991,
      "Ġvar": 4992,
      "Ġvill": 4993,
      "Ġvol": 4994,
      "Ġshri": 4995,
      "ulf": 4996,
      "seless": 4997,
      "artius": 4998,
      "Ġmanif": 4999,
      "Ġmanage": 5000,
      "ĠMin": 5001,
      "ical": 5002,
      "icles": 5003,
      "ĠLau": 5004,
      "ĠLartius": 5005,
      "Ġhated": 5006,
      "LOUGH": 5007,
      "ersu": 5008,
      "Ġswain": 5009,
      "Ġbran": 5010,
      "pping": 5011,
      "ĠSalisbury": 5012,
      "Ġunwill": 5013,
      "ĠHis": 5014,
      "ĠHeaven": 5015,
      "ĠVen": 5016,
      "ĠVienna": 5017,
      "Whether": 5018,
      "Ġjot": 5019,
      "cies": 5020,
      "Ġshoulder": 5021,
      "ĠPerd": 5022,
      "ĠWIL": 5023,
      "Ġdeaths": 5024,
      "Ġheartily": 5025,
      "Ġwholesome": 5026,
      "Ġmarks": 5027,
      "Ġoffic": 5028,
      "Ġdisple": 5029,
      "Ġdisgu": 5030,
      "Ġabused": 5031,
      "Ġexerc": 5032,
      "Ġdescent": 5033,
      "Ġripe": 5034,
      "Ġride": 5035,
      "ased": 5036,
      "Ġleague": 5037,
      "Ġslip": 5038,
      "Ġwarri": 5039,
      "ĠTar": 5040,
      "ĠTell": 5041,
      "ĠTyrrel": 5042,
      "Ġbred": 5043,
      "Ġheavenly": 5044,
      "Ġclothes": 5045,
      "Ġsweeter": 5046,
      "Ġperhaps": 5047,
      "Ġscold": 5048,
      "Ġscandal": 5049,
      "Ġrain": 5050,
      "Ġrail": 5051,
      "Ġraised": 5052,
      "Ġappointed": 5053,
      "Ġwhit": 5054,
      "Ġremorse": 5055,
      "Ġremove": 5056,
      "Ġremoved": 5057,
      "ĠLords": 5058,
      "Ġbegan": 5059,
      "Ġrepose": 5060,
      "Ġharsh": 5061,
      "Ġkeeper": 5062,
      "Ġaccident": 5063,
      "Ġaccursed": 5064,
      "Ġyounger": 5065,
      "Ġyoungest": 5066,
      "Ġprick": 5067,
      "Ġdearly": 5068,
      "Ġsubtle": 5069,
      "RIAN": 5070,
      "Ġrights": 5071,
      "fortune": 5072,
      "Ġminds": 5073,
      "Ġcoff": 5074,
      "Ġdevotion": 5075,
      "Ġmischance": 5076,
      "Ġmeeting": 5077,
      "Ġafternoon": 5078,
      "Ġcareless": 5079,
      "Uncle": 5080,
      "Ġgriefs": 5081,
      "Anon": 5082,
      "Ġhuman": 5083,
      "Ġcounc": 5084,
      "Ġgrat": 5085,
      "Ġretire": 5086,
      "Ġserved": 5087,
      "Ġadventure": 5088,
      "Ġcurt": 5089,
      "Ġcountrymen": 5090,
      "Ġvirtues": 5091,
      "Ġwindows": 5092,
      "itten": 5093,
      "Ġcraves": 5094,
      "Ġcraft": 5095,
      "Ġbeauteous": 5096,
      "Ġstranger": 5097,
      "Ġyielded": 5098,
      "Ġsupply": 5099,
      "Ġcommonweal": 5100,
      "Ġmonstrous": 5101,
      "Ġmonument": 5102,
      "Didst": 5103,
      "soever": 5104,
      "Ġgrowing": 5105,
      "Ġheirs": 5106,
      "Ġvisage": 5107,
      "Ġpoints": 5108,
      "Ġstronger": 5109,
      "Ġtrusty": 5110,
      "Ġinstruction": 5111,
      "Ġinfant": 5112,
      "Ġforeign": 5113,
      "Ġincen": 5114,
      "Ġfeeling": 5115,
      "Ġburst": 5116,
      "Ġplainly": 5117,
      "Ġabsolute": 5118,
      "Ġfourteen": 5119,
      "Ġselfsame": 5120,
      "Ġfrowns": 5121,
      "Ġdirection": 5122,
      "Ġredress": 5123,
      "Ġsatisfy": 5124,
      "Ġservants": 5125,
      "ollow": 5126,
      "Ġblem": 5127,
      "Ġbridegroom": 5128,
      "Ġbabes": 5129,
      "Ġgallant": 5130,
      "Ġrebellion": 5131,
      "Ġwriting": 5132,
      "Ġfierce": 5133,
      "Ġshadows": 5134,
      "Ġpleasing": 5135,
      "Ġmodest": 5136,
      "Ġmodesty": 5137,
      "Ġobject": 5138,
      "Ġforswear": 5139,
      "Ġuncles": 5140,
      "Ġrefuse": 5141,
      "Among": 5142,
      "banished": 5143,
      "Ġbigger": 5144,
      "Ġfeather": 5145,
      "Ġdetermine": 5146,
      "Betw": 5147,
      "Better": 5148,
      "Ġchaste": 5149,
      "otted": 5150,
      "Ġfairer": 5151,
      "Ġshrewd": 5152,
      "Ġdismal": 5153,
      "Ġtrembling": 5154,
      "Ġacquaint": 5155,
      "Ġprophet": 5156,
      "Ġedge": 5157,
      "Ġeagle": 5158,
      "Ġshroud": 5159,
      "Ġsubstit": 5160,
      "othecary": 5161,
      "Ġsteeds": 5162,
      "Ġiron": 5163,
      "Ġtorture": 5164,
      "Ġrenowned": 5165,
      "Ġdearest": 5166,
      "Return": 5167,
      "Remember": 5168,
      "Ġwondrous": 5169,
      "Ġballad": 5170,
      "Ġpenitent": 5171,
      "Ġpolicy": 5172,
      "Ġrepeal": 5173,
      "Ġadversaries": 5174,
      "Ġpurchase": 5175,
      "Commend": 5176,
      "Ġprivilege": 5177,
      "Ġrevolt": 5178,
      "Ġsullen": 5179,
      "Ġconceal": 5180,
      "ĠConspirator": 5181,
      "Coriolanus": 5182,
      "Ġdowry": 5183,
      "Ġpierce": 5184,
      "Ġstrokes": 5185,
      "Ġflatterer": 5186,
      "ĠMariana": 5187,
      "ouchsafe": 5188,
      "ADRIAN": 5189,
      "CLEOMEN": 5190,
      "FROTH": 5191,
      "Ġtrespass": 5192,
      "Ġcivil": 5193,
      "Ġthirty": 5194,
      "ĠItaly": 5195,
      "Ġsepulch": 5196,
      "LOUGHBY": 5197,
      "ĠPerdita": 5198,
      "ĠWILLOUGHBY": 5199,
      "Ġexercise": 5200,
      "CLEOMENES": 5201,
      "AM": 5202,
      "Aw": 5203,
      "BAR": 5204,
      "Courage": 5205,
      "Dare": 5206,
      "Find": 5207,
      "Get": 5208,
      "Men": 5209,
      "Mist": 5210,
      "Making": 5211,
      "Methought": 5212,
      "NARD": 5213,
      "Oh": 5214,
      "Pur": 5215,
      "Petruchio": 5216,
      "Que": 5217,
      "Rather": 5218,
      "RUT": 5219,
      "Se": 5220,
      "Sound": 5221,
      "Tranio": 5222,
      "UR": 5223,
      "Villain": 5224,
      "Wit": 5225,
      "ax": 5226,
      "br": 5227,
      "bble": 5228,
      "boy": 5229,
      "car": 5230,
      "cest": 5231,
      "cue": 5232,
      "cence": 5233,
      "done": 5234,
      "ders": 5235,
      "duke": 5236,
      "ext": 5237,
      "from": 5238,
      "gy": 5239,
      "got": 5240,
      "ghan": 5241,
      "great": 5242,
      "gentle": 5243,
      "iar": 5244,
      "ips": 5245,
      "mas": 5246,
      "made": 5247,
      "nken": 5248,
      "nicious": 5249,
      "oon": 5250,
      "oes": 5251,
      "off": 5252,
      "phy": 5253,
      "pret": 5254,
      "pardon": 5255,
      "rity": 5256,
      "ratch": 5257,
      "sire": 5258,
      "scal": 5259,
      "tend": 5260,
      "ug": 5261,
      "vive": 5262,
      "vied": 5263,
      "ĠAs": 5264,
      "Ġtou": 5265,
      "Ġtro": 5266,
      "Ġtig": 5267,
      "Ġtail": 5268,
      "Ġale": 5269,
      "Ġages": 5270,
      "Ġsn": 5271,
      "Ġmain": 5272,
      "Ġmil": 5273,
      "Ġmethought": 5274,
      "inate": 5275,
      "Ġward": 5276,
      "Ġwakes": 5277,
      "Ġbon": 5278,
      "Ġbore": 5279,
      "Ġbag": 5280,
      "Ġbrown": 5281,
      "Ġborrow": 5282,
      "Ġbott": 5283,
      "ision": 5284,
      "orough": 5285,
      "Ġfish": 5286,
      "Ġfret": 5287,
      "Ġfix": 5288,
      "Ġfreed": 5289,
      "ital": 5290,
      "itiff": 5291,
      "onest": 5292,
      "Ġdate": 5293,
      "Ġdower": 5294,
      "Ġcrow": 5295,
      "esu": 5296,
      "enge": 5297,
      "Ġnet": 5298,
      "Ġnest": 5299,
      "Ġnice": 5300,
      "Ġnumb": 5301,
      "Ġnupt": 5302,
      "Ġlur": 5303,
      "Ġlance": 5304,
      "Ġlower": 5305,
      "Ġluck": 5306,
      "Ġyon": 5307,
      "Ġthin": 5308,
      "Ġthie": 5309,
      "Ġthirst": 5310,
      "Ġthumb": 5311,
      "Ġhom": 5312,
      "Ġhind": 5313,
      "Ġhig": 5314,
      "Ġhire": 5315,
      "Ġhoney": 5316,
      "Ġtoy": 5317,
      "Ġtomorrow": 5318,
      "Ġped": 5319,
      "Ġpear": 5320,
      "Ġpath": 5321,
      "Ġpage": 5322,
      "hath": 5323,
      "ĠIt": 5324,
      "Ġheat": 5325,
      "Ġheels": 5326,
      "owl": 5327,
      "ingers": 5328,
      "Ġgid": 5329,
      "atri": 5330,
      "atest": 5331,
      "Ġbere": 5332,
      "Ġbefall": 5333,
      "sey": 5334,
      "Ġink": 5335,
      "cels": 5336,
      "Ġhare": 5337,
      "Ġhaught": 5338,
      "Ġhabit": 5339,
      "ayed": 5340,
      "Ġnoted": 5341,
      "chief": 5342,
      "keley": 5343,
      "Ġweal": 5344,
      "Ġwealth": 5345,
      "oops": 5346,
      "hern": 5347,
      "Ġwithdraw": 5348,
      "rif": 5349,
      "rich": 5350,
      "rible": 5351,
      "Ġstale": 5352,
      "Ġstern": 5353,
      "Ġstomach": 5354,
      "order": 5355,
      "INE": 5356,
      "rage": 5357,
      "Ġlivery": 5358,
      "Ġliking": 5359,
      "urg": 5360,
      "urrey": 5361,
      "Ġdeaf": 5362,
      "Ġshare": 5363,
      "Ġshapes": 5364,
      "Ġdove": 5365,
      "Ġdogs": 5366,
      "Ġdozen": 5367,
      "Ġwills": 5368,
      "ushing": 5369,
      "Ġsuits": 5370,
      "Ġhers": 5371,
      "Ġanointed": 5372,
      "ardel": 5373,
      "Ġspit": 5374,
      "Ġspect": 5375,
      "Ġshallow": 5376,
      "ĠCounty": 5377,
      "Ġneat": 5378,
      "Ġvent": 5379,
      "Ġshook": 5380,
      "Ġshines": 5381,
      "Ġupright": 5382,
      "Ġgoods": 5383,
      "Ġprime": 5384,
      "Ġamiss": 5385,
      "icate": 5386,
      "icio": 5387,
      "Ġconceive": 5388,
      "iege": 5389,
      "Ġblast": 5390,
      "ĠGree": 5391,
      "emper": 5392,
      "Ġgodd": 5393,
      "aughan": 5394,
      "Ġsirs": 5395,
      "ola": 5396,
      "olved": 5397,
      "ĠLicio": 5398,
      "Ġthereby": 5399,
      "ept": 5400,
      "eping": 5401,
      "Ġswore": 5402,
      "Ġsweat": 5403,
      "Ġorn": 5404,
      "ĠSc": 5405,
      "ĠSp": 5406,
      "ĠSee": 5407,
      "ĠShore": 5408,
      "ĠOff": 5409,
      "ĠBr": 5410,
      "ĠBy": 5411,
      "Ġarrest": 5412,
      "Ġlets": 5413,
      "Ġunst": 5414,
      "Ġunse": 5415,
      "Ġunfe": 5416,
      "Ġworm": 5417,
      "ĠVal": 5418,
      "aker": 5419,
      "Ġhop": 5420,
      "Ġlikely": 5421,
      "Ġproclam": 5422,
      "ĠPlease": 5423,
      "ĠPETER": 5424,
      "Ġsav": 5425,
      "Ġmadness": 5426,
      "umbling": 5427,
      "Ġplaces": 5428,
      "iced": 5429,
      "ĠWilt": 5430,
      "Ġeng": 5431,
      "unate": 5432,
      "Ġrans": 5433,
      "Ġtrunk": 5434,
      "Ġsomewhat": 5435,
      "harged": 5436,
      "orney": 5437,
      "Ġoffices": 5438,
      "Ġdisgra": 5439,
      "Ġalms": 5440,
      "Ġabuse": 5441,
      "Ġexam": 5442,
      "Ġtelling": 5443,
      "Ġlooked": 5444,
      "Ġthinking": 5445,
      "Ġwhereon": 5446,
      "agues": 5447,
      "Whereto": 5448,
      "Ġflow": 5449,
      "Ġflint": 5450,
      "Ġflourish": 5451,
      "Ġfearing": 5452,
      "bert": 5453,
      "Ġbreed": 5454,
      "Ġgreatness": 5455,
      "Ġparted": 5456,
      "Ġpernicious": 5457,
      "Ġtroop": 5458,
      "Ġtroops": 5459,
      "lied": 5460,
      "Ġscatter": 5461,
      "ainty": 5462,
      "ables": 5463,
      "ĠFare": 5464,
      "Ġappea": 5465,
      "Ġgraced": 5466,
      "Ġbegu": 5467,
      "Ġbeget": 5468,
      "rank": 5469,
      "Ġchildish": 5470,
      "Ġreply": 5471,
      "Ġconsort": 5472,
      "loves": 5473,
      "ercing": 5474,
      "cheth": 5475,
      "Ġtrif": 5476,
      "ontes": 5477,
      "Ġprice": 5478,
      "Ġsubd": 5479,
      "Ġbacks": 5480,
      "twill": 5481,
      "Ġforthwith": 5482,
      "Ġbank": 5483,
      "Ġcheap": 5484,
      "Ġcharm": 5485,
      "Ġlaws": 5486,
      "Ġconfirm": 5487,
      "Ġcoll": 5488,
      "Ġlightning": 5489,
      "Does": 5490,
      "Ġroyalty": 5491,
      "ĠAnne": 5492,
      "Ġbesides": 5493,
      "Ġhappily": 5494,
      "Ġsorrows": 5495,
      "Ġcareful": 5496,
      "Ġlesser": 5497,
      "Ġstrive": 5498,
      "Ġsleeping": 5499,
      "Ġdrag": 5500,
      "Ġserp": 5501,
      "Ġboast": 5502,
      "pense": 5503,
      "Ġwanting": 5504,
      "Ġbreathing": 5505,
      "Ġdiscourse": 5506,
      "Ġsenseless": 5507,
      "Ġbeaut": 5508,
      "Ġhangs": 5509,
      "Ġdepend": 5510,
      "hamed": 5511,
      "Ġgrew": 5512,
      "Ġspoil": 5513,
      "Ġdrunken": 5514,
      "Ġaffords": 5515,
      "Ġmetal": 5516,
      "Ġsooner": 5517,
      "IDAM": 5518,
      "Ġsights": 5519,
      "Ġmonster": 5520,
      "Ġmonarch": 5521,
      "acles": 5522,
      "Ġsadness": 5523,
      "Ġsuffic": 5524,
      "Ġcarried": 5525,
      "Ġexecute": 5526,
      "Ġexecuted": 5527,
      "Ġminute": 5528,
      "Ġvel": 5529,
      "Ġcoronation": 5530,
      "Ġpraises": 5531,
      "Ġwaves": 5532,
      "Ġburnt": 5533,
      "Ġliberal": 5534,
      "Ġburns": 5535,
      "Ġburning": 5536,
      "Ġproport": 5537,
      "Ġblessing": 5538,
      "Ġbleeding": 5539,
      "Ġestim": 5540,
      "Ġbitterly": 5541,
      "mbles": 5542,
      "speak": 5543,
      "Ġlimit": 5544,
      "Ġlimbs": 5545,
      "Ġsacrif": 5546,
      "Ġsuccession": 5547,
      "Ġactions": 5548,
      "Ġcaps": 5549,
      "Ġviolence": 5550,
      "Ġtriumphant": 5551,
      "Ġmidnight": 5552,
      "Ġrebels": 5553,
      "Ġpossession": 5554,
      "Play": 5555,
      "Ġtorch": 5556,
      "Ġcaitiff": 5557,
      "Ġpitiful": 5558,
      "Ġinjury": 5559,
      "Ġurge": 5560,
      "Ġexecutioner": 5561,
      "March": 5562,
      "Marcius": 5563,
      "Ġmeddle": 5564,
      "Ġoccup": 5565,
      "Ġnobility": 5566,
      "Ġchurchyard": 5567,
      "Ġignorance": 5568,
      "Ġsaints": 5569,
      "headed": 5570,
      "ĠCaesar": 5571,
      "Ġrank": 5572,
      "Ġguests": 5573,
      "ĠWilliam": 5574,
      "Ġhungry": 5575,
      "Ġunfold": 5576,
      "Ġmonths": 5577,
      "Ġextremity": 5578,
      "Ġinclined": 5579,
      "Ġcovert": 5580,
      "Ġjoints": 5581,
      "Ġprevented": 5582,
      "Ġtyrann": 5583,
      "Ġlengthen": 5584,
      "Ġwager": 5585,
      "Ġnecessity": 5586,
      "Ġsubstance": 5587,
      "Ġescape": 5588,
      "Ġsenses": 5589,
      "Ġstatue": 5590,
      "Ġconjure": 5591,
      "Ġbands": 5592,
      "Ġweapon": 5593,
      "Ġsteps": 5594,
      "Ġangel": 5595,
      "Ġtransport": 5596,
      "Ġthreatening": 5597,
      "Ġwolf": 5598,
      "Ġcensure": 5599,
      "ribunes": 5600,
      "ARCHIDAM": 5601,
      "ĠDido": 5602,
      "ĠElbow": 5603,
      "Ġapprehend": 5604,
      "Ġimmortal": 5605,
      "Ġtapster": 5606,
      "Ġmoral": 5607,
      "ĠBerkeley": 5608,
      "Ġjewel": 5609,
      "Ġruthless": 5610,
      "Ġdispersed": 5611,
      "Ġclamour": 5612,
      "Ġrapier": 5613,
      "Ġcompanion": 5614,
      "Strike": 5615,
      "Ġopposite": 5616,
      "Ġzeal": 5617,
      "Ġcherish": 5618,
      "Ġstretch": 5619,
      "ambio": 5620,
      "Ġspleen": 5621,
      "Ġcharacter": 5622,
      "Ġprettiest": 5623,
      "Ġrejoice": 5624,
      "Ġbirds": 5625,
      "Ġchallenge": 5626,
      "Ġpeevish": 5627,
      "Ġlikeness": 5628,
      "ĠLaurence": 5629,
      "Ġofficers": 5630,
      "Ġwarriors": 5631,
      "Ġcommonwealth": 5632,
      "Ġsepulchre": 5633,
      "BARNARD": 5634,
      "Queen": 5635,
      "RUTLAND": 5636,
      "scalus": 5637,
      "Ġbottom": 5638,
      "Ġnuptial": 5639,
      "Ġgiddy": 5640,
      "ĠOfficer": 5641,
      "ĠWiltshire": 5642,
      "ARCHIDAMUS": 5643,
      "BARNARDINE": 5644,
      "ATER": 5645,
      "Add": 5646,
      "Bre": 5647,
      "Bra": 5648,
      "BAN": 5649,
      "CRO": 5650,
      "Content": 5651,
      "Ever": 5652,
      "Eng": 5653,
      "Else": 5654,
      "EPH": 5655,
      "Full": 5656,
      "False": 5657,
      "Follow": 5658,
      "GO": 5659,
      "Ga": 5660,
      "Gard": 5661,
      "Gentleman": 5662,
      "Hic": 5663,
      "Henry": 5664,
      "Hortensio": 5665,
      "Lu": 5666,
      "Live": 5667,
      "Mis": 5668,
      "MOR": 5669,
      "Much": 5670,
      "Name": 5671,
      "Old": 5672,
      "Patience": 5673,
      "Persu": 5674,
      "Saw": 5675,
      "Six": 5676,
      "SIR": 5677,
      "TON": 5678,
      "Toward": 5679,
      "TMOR": 5680,
      "Virt": 5681,
      "Wr": 5682,
      "WES": 5683,
      "Woe": 5684,
      "Women": 5685,
      "WATER": 5686,
      "Yield": 5687,
      "ZWATER": 5688,
      "ald": 5689,
      "aven": 5690,
      "back": 5691,
      "cor": 5692,
      "cus": 5693,
      "call": 5694,
      "cap": 5695,
      "cont": 5696,
      "cons": 5697,
      "ded": 5698,
      "dal": 5699,
      "fri": 5700,
      "gged": 5701,
      "horse": 5702,
      "iban": 5703,
      "light": 5704,
      "may": 5705,
      "nant": 5706,
      "pray": 5707,
      "ront": 5708,
      "sen": 5709,
      "vided": 5710,
      "wd": 5711,
      "wing": 5712,
      "water": 5713,
      "zed": 5714,
      "Ġice": 5715,
      "Ġought": 5716,
      "ĠThy": 5717,
      "Ġeter": 5718,
      "ĠQueen": 5719,
      "Ġtard": 5720,
      "Ġtack": 5721,
      "Ġtree": 5722,
      "Ġtied": 5723,
      "Ġtired": 5724,
      "Ġtakest": 5725,
      "Ġah": 5726,
      "Ġaud": 5727,
      "Ġaged": 5728,
      "oured": 5729,
      "Ġsed": 5730,
      "Ġsess": 5731,
      "Ġsau": 5732,
      "Ġsings": 5733,
      "Ġsought": 5734,
      "Ġsides": 5735,
      "Ġsurp": 5736,
      "Ġsilly": 5737,
      "Ġmat": 5738,
      "Ġmour": 5739,
      "Ġmould": 5740,
      "iners": 5741,
      "Ġwet": 5742,
      "Ġwave": 5743,
      "Ġwaked": 5744,
      "reet": 5745,
      "reant": 5746,
      "habit": 5747,
      "Ġbay": 5748,
      "Ġbill": 5749,
      "Ġbent": 5750,
      "Ġbru": 5751,
      "Ġbol": 5752,
      "Ġbalm": 5753,
      "ishes": 5754,
      "isement": 5755,
      "orth": 5756,
      "oriz": 5757,
      "Ġfin": 5758,
      "Ġfant": 5759,
      "Ġfray": 5760,
      "Ġfever": 5761,
      "Ġfelt": 5762,
      "Ġfardel": 5763,
      "erily": 5764,
      "itch": 5765,
      "oned": 5766,
      "onus": 5767,
      "onstant": 5768,
      "Ġcat": 5769,
      "Ġcent": 5770,
      "Ġcook": 5771,
      "envol": 5772,
      "Ġnar": 5773,
      "Ġlour": 5774,
      "Ġlun": 5775,
      "arm": 5776,
      "Ġomit": 5777,
      "Ġtops": 5778,
      "Ġpor": 5779,
      "Ġpill": 5780,
      "Ġpent": 5781,
      "Ġphi": 5782,
      "Ġpick": 5783,
      "Ġpace": 5784,
      "Ġpaint": 5785,
      "Ġpaid": 5786,
      "Ġpush": 5787,
      "Ġpalm": 5788,
      "Ġpomp": 5789,
      "ĠIn": 5790,
      "Ġhera": 5791,
      "Ġheight": 5792,
      "omes": 5793,
      "Ġgn": 5794,
      "Ġgap": 5795,
      "Ġgains": 5796,
      "Ġgoose": 5797,
      "athe": 5798,
      "athed": 5799,
      "Ġbeams": 5800,
      "sec": 5801,
      "seem": 5802,
      "Ġinv": 5803,
      "Ġhail": 5804,
      "iring": 5805,
      "ednes": 5806,
      "uts": 5807,
      "utch": 5808,
      "Ġmew": 5809,
      "Ġmemb": 5810,
      "Ġissu": 5811,
      "Ġforty": 5812,
      "Ġweek": 5813,
      "ently": 5814,
      "riel": 5815,
      "Ġstead": 5816,
      "Ġhist": 5817,
      "Ġrend": 5818,
      "Ġrear": 5819,
      "Ġreach": 5820,
      "Ġrevel": 5821,
      "raid": 5822,
      "Ġlions": 5823,
      "Ġlikes": 5824,
      "Ġlivest": 5825,
      "urgh": 5826,
      "urtis": 5827,
      "alter": 5828,
      "Ġsoil": 5829,
      "Ġsoci": 5830,
      "Ġaspect": 5831,
      "Ġashamed": 5832,
      "Ġdem": 5833,
      "Ġdepose": 5834,
      "rog": 5835,
      "ARLIS": 5836,
      "hire": 5837,
      "verty": 5838,
      "Ġbutt": 5839,
      "Ġsevere": 5840,
      "Ġseated": 5841,
      "Thine": 5842,
      "Things": 5843,
      "Ġalleg": 5844,
      "Ġherd": 5845,
      "three": 5846,
      "Ġanch": 5847,
      "tering": 5848,
      "Ġload": 5849,
      "Ġlock": 5850,
      "Ġlovers": 5851,
      "ellows": 5852,
      "Ġspread": 5853,
      "Ġourself": 5854,
      "Ġfavours": 5855,
      "ilful": 5856,
      "iliar": 5857,
      "ĠCurtis": 5858,
      "ĠCARLIS": 5859,
      "ĠRatcliff": 5860,
      "ĠRaven": 5861,
      "Ġvast": 5862,
      "ORGE": 5863,
      "Ġshru": 5864,
      "Ġshrift": 5865,
      "arted": 5866,
      "ĠMistress": 5867,
      "ĠEm": 5868,
      "ĠEly": 5869,
      "ĠELY": 5870,
      "ĠEscalus": 5871,
      "Ġamain": 5872,
      "Ġamends": 5873,
      "Ġambit": 5874,
      "Ġamorous": 5875,
      "Ġconsequ": 5876,
      "iece": 5877,
      "ĠGreen": 5878,
      "Ġshel": 5879,
      "Ġgoss": 5880,
      "arers": 5881,
      "olks": 5882,
      "ĠLook": 5883,
      "Ġknowing": 5884,
      "resh": 5885,
      "Ġswears": 5886,
      "Ġbrat": 5887,
      "ĠShall": 5888,
      "ĠSurrey": 5889,
      "ĠSCRO": 5890,
      "ĠOur": 5891,
      "ĠBushy": 5892,
      "ĠBurg": 5893,
      "Ġarray": 5894,
      "Ġune": 5895,
      "Ġunm": 5896,
      "Ġunre": 5897,
      "igent": 5898,
      "igonus": 5899,
      "ĠHim": 5900,
      "ĠHark": 5901,
      "ĠHuntsman": 5902,
      "ĠVaughan": 5903,
      "elsh": 5904,
      "eliver": 5905,
      "LIBAN": 5906,
      "Ġgrain": 5907,
      "Ġhoar": 5908,
      "Ġlikewise": 5909,
      "Ġproved": 5910,
      "Ġprocess": 5911,
      "Ġprodig": 5912,
      "umed": 5913,
      "ĠWas": 5914,
      "ĠWould": 5915,
      "ĠWelsh": 5916,
      "isting": 5917,
      "Ġenc": 5918,
      "uns": 5919,
      "Ġrate": 5920,
      "Ġrouse": 5921,
      "Ġpoverty": 5922,
      "Ġspeaking": 5923,
      "Ġoutrage": 5924,
      "ELAND": 5925,
      "ickle": 5926,
      "CALIBAN": 5927,
      "Withdraw": 5928,
      "igned": 5929,
      "Ġmars": 5930,
      "Ġmarvel": 5931,
      "Ġmarvell": 5932,
      "Ġdisin": 5933,
      "Ġdisease": 5934,
      "Ġabund": 5935,
      "Ġrobb": 5936,
      "Ġexcept": 5937,
      "agot": 5938,
      "aged": 5939,
      "Ġdesc": 5940,
      "Ġriches": 5941,
      "Whereof": 5942,
      "Ġslight": 5943,
      "Ġslipp": 5944,
      "Ġflat": 5945,
      "Ġbetide": 5946,
      "Ġbread": 5947,
      "Behold": 5948,
      "Ġcouple": 5949,
      "Ġparties": 5950,
      "Ġpartner": 5951,
      "idered": 5952,
      "Ġclock": 5953,
      "Ġprefer": 5954,
      "Ġsweetly": 5955,
      "ĠDian": 5956,
      "ulls": 5957,
      "Ġwritten": 5958,
      "Ġscratch": 5959,
      "Ġpresume": 5960,
      "Ġpreserve": 5961,
      "Ġnights": 5962,
      "Ġworldly": 5963,
      "perience": 5964,
      "Ġrack": 5965,
      "Ġraven": 5966,
      "them": 5967,
      "ably": 5968,
      "ĠFIT": 5969,
      "Ġdownright": 5970,
      "Ġcontro": 5971,
      "BAGO": 5972,
      "ranch": 5973,
      "Ġimper": 5974,
      "Ġreputation": 5975,
      "Ġafraid": 5976,
      "Ġmightst": 5977,
      "Ġstays": 5978,
      "Ġrue": 5979,
      "Ġleg": 5980,
      "Ġlect": 5981,
      "Ġlewd": 5982,
      "loso": 5983,
      "Ġrestore": 5984,
      "Ġentrance": 5985,
      "Ġtricks": 5986,
      "Ġmoves": 5987,
      "Ġbestow": 5988,
      "Ġaccom": 5989,
      "Ġended": 5990,
      "Ġpurge": 5991,
      "Ġpurple": 5992,
      "Ġputting": 5993,
      "Prove": 5994,
      "Proceed": 5995,
      "Proclaim": 5996,
      "Ġsmil": 5997,
      "Ġsmother": 5998,
      "Ġtrain": 5999,
      "Ġtravell": 6000,
      "Ġbidding": 6001,
      "Ġdrew": 6002,
      "Ġearthly": 6003,
      "Ġcouldst": 6004,
      "Ġtren": 6005,
      "Ġhopeful": 6006,
      "GEORGE": 6007,
      "Ġbrains": 6008,
      "Ġcheque": 6009,
      "Ġbridal": 6010,
      "Ġconfound": 6011,
      "being": 6012,
      "Ġcop": 6013,
      "Ġcoat": 6014,
      "Ġmisfortune": 6015,
      "Ġlanded": 6016,
      "blood": 6017,
      "Ġfalcon": 6018,
      "Ġfalls": 6019,
      "Ġbusy": 6020,
      "Another": 6021,
      "Ġstrict": 6022,
      "Ġcounsell": 6023,
      "Ġcourtier": 6024,
      "Ġcourteous": 6025,
      "Ġbuzz": 6026,
      "Ġattain": 6027,
      "Ġattorney": 6028,
      "erest": 6029,
      "Ġsounds": 6030,
      "Ġsounded": 6031,
      "Ġretired": 6032,
      "Ġadvised": 6033,
      "Ġrevenges": 6034,
      "Ġstraw": 6035,
      "Although": 6036,
      "Ġprompt": 6037,
      "Ġcram": 6038,
      "Ġcontents": 6039,
      "Ġvillains": 6040,
      "Ġinteg": 6041,
      "Ġkisses": 6042,
      "aptain": 6043,
      "Ġyields": 6044,
      "upid": 6045,
      "Ġwinters": 6046,
      "Ġlambs": 6047,
      "Ġbeats": 6048,
      "Ġbeaten": 6049,
      "acy": 6050,
      "undy": 6051,
      "unday": 6052,
      "ventry": 6053,
      "Ġchosen": 6054,
      "Hadst": 6055,
      "Ġentreaties": 6056,
      "Ġdevilish": 6057,
      "Ġboldly": 6058,
      "Ġwooing": 6059,
      "Ġinfer": 6060,
      "Becomes": 6061,
      "guard": 6062,
      "Ġreadiness": 6063,
      "Ġprofane": 6064,
      "Ġdivor": 6065,
      "Ġyouthful": 6066,
      "Comes": 6067,
      "Comfort": 6068,
      "Ġterm": 6069,
      "Ġsuitors": 6070,
      "Ġstops": 6071,
      "Ġcloudy": 6072,
      "Ġmusicians": 6073,
      "Ġdroop": 6074,
      "Ġwax": 6075,
      "Ġgrieves": 6076,
      "Ġgrieved": 6077,
      "chers": 6078,
      "Ġskill": 6079,
      "Ġsignal": 6080,
      "Ġsignify": 6081,
      "Ġcheerly": 6082,
      "Ġprophes": 6083,
      "Ġextreme": 6084,
      "Ġtroubl": 6085,
      "Ġsatisfaction": 6086,
      "Ġdarkness": 6087,
      "Ġexped": 6088,
      "Ġflattering": 6089,
      "Ġembra": 6090,
      "Ġesteem": 6091,
      "Ġbowels": 6092,
      "Ġfrail": 6093,
      "Ġhurl": 6094,
      "Ġtowns": 6095,
      "Ġsuddenly": 6096,
      "spurgh": 6097,
      "Ġcowardly": 6098,
      "Ġlamentable": 6099,
      "Ġowes": 6100,
      "Ġeaten": 6101,
      "Ġkinsmen": 6102,
      "Ġmiddle": 6103,
      "Ġdestruction": 6104,
      "Ġdeparture": 6105,
      "Plantagenet": 6106,
      "Whiles": 6107,
      "Ġfondly": 6108,
      "Ġusurping": 6109,
      "Above": 6110,
      "ossess": 6111,
      "Ġmildness": 6112,
      "Ġinsol": 6113,
      "Ġgladly": 6114,
      "mediate": 6115,
      "Ġapace": 6116,
      "Ġships": 6117,
      "Ġshop": 6118,
      "Ġshoes": 6119,
      "Ġobsequ": 6120,
      "Ġtreasons": 6121,
      "Ġcondemned": 6122,
      "Ġtroubled": 6123,
      "Ġlists": 6124,
      "Ġstorms": 6125,
      "Ġtemples": 6126,
      "Ġmutinous": 6127,
      "Ġpetty": 6128,
      "Ġconquest": 6129,
      "Ġgrandam": 6130,
      "Ġgrandsire": 6131,
      "Ġeldest": 6132,
      "ĠAntigonus": 6133,
      "Disp": 6134,
      "EXTON": 6135,
      "Ġbastards": 6136,
      "Ġhelps": 6137,
      "Ġamongst": 6138,
      "Ġprovide": 6139,
      "Ġgreeting": 6140,
      "Ġministers": 6141,
      "Neither": 6142,
      "where": 6143,
      "Ġconclud": 6144,
      "Ġconclude": 6145,
      "Ġdismiss": 6146,
      "Officer": 6147,
      "Ġimagine": 6148,
      "Ġacquainted": 6149,
      "Ġgifts": 6150,
      "Ġghostly": 6151,
      "Ġbehavior": 6152,
      "Ġeleven": 6153,
      "Ġrobes": 6154,
      "Ġdesigns": 6155,
      "Ġtempted": 6156,
      "Ġheavier": 6157,
      "Perhaps": 6158,
      "Ġerrand": 6159,
      "Ġwandering": 6160,
      "Ġdetest": 6161,
      "Ġweapons": 6162,
      "Ġvanity": 6163,
      "Ġaccusation": 6164,
      "Shalt": 6165,
      "Ġfrost": 6166,
      "Ġpersuade": 6167,
      "Ġdiscontented": 6168,
      "Appear": 6169,
      "Ġtestim": 6170,
      "Ġhazard": 6171,
      "ĠCaliban": 6172,
      "ĠBlunt": 6173,
      "Ġkeys": 6174,
      "Ġinstantly": 6175,
      "iveness": 6176,
      "Ġfigure": 6177,
      "Ġfurnish": 6178,
      "Ġparents": 6179,
      "Ġrecompense": 6180,
      "Ġnobleness": 6181,
      "ĠCoventry": 6182,
      "ĠSTEPH": 6183,
      "Ġprovoked": 6184,
      "Ġintelligence": 6185,
      "Ġfiend": 6186,
      "Ġceremon": 6187,
      "advised": 6188,
      "Ġreckon": 6189,
      "ĠLeontes": 6190,
      "Ġreconcile": 6191,
      "Ġunkindness": 6192,
      "Ġpilgrimage": 6193,
      "Ġcomplexion": 6194,
      "Ġseized": 6195,
      "Ġneglect": 6196,
      "Ġvarlet": 6197,
      "ĠMinola": 6198,
      "ĠVenice": 6199,
      "Ġblemish": 6200,
      "Ġfreedom": 6201,
      "Ġthieves": 6202,
      "Ġgoddess": 6203,
      "Ġproclamation": 6204,
      "Ġsavage": 6205,
      "Ġransom": 6206,
      "Ġexample": 6207,
      "Ġvelvet": 6208,
      "Ġproportion": 6209,
      "Ġtyrannous": 6210,
      "Gaoler": 6211,
      "Gardener": 6212,
      "Lucentio": 6213,
      "Towards": 6214,
      "TMORELAND": 6215,
      "WESTMORELAND": 6216,
      "envolio": 6217,
      "Ġnarrow": 6218,
      "Ġphiloso": 6219,
      "Ġherald": 6220,
      "ednesday": 6221,
      "Ġmembers": 6222,
      "Ġallegiance": 6223,
      "ĠCARLISLE": 6224,
      "ĠRavenspurgh": 6225,
      "Ġambitious": 6226,
      "ĠSCROOP": 6227,
      "ĠBurgundy": 6228,
      "ĠFITZWATER": 6229,
      "BAGOT": 6230,
      "Ġintegrity": 6231,
      "ĠSTEPHEN": 6232,
      "Ġphilosophy": 6233,
      "Ac": 6234,
      "Af": 6235,
      "Bound": 6236,
      "Ca": 6237,
      "Cont": 6238,
      "Camillo": 6239,
      "Catesby": 6240,
      "Dep": 6241,
      "Div": 6242,
      "Fore": 6243,
      "Five": 6244,
      "Fall": 6245,
      "Foul": 6246,
      "Fetch": 6247,
      "Gra": 6248,
      "Gives": 6249,
      "Grace": 6250,
      "Hie": 6251,
      "Harry": 6252,
      "Hang": 6253,
      "Justice": 6254,
      "Kind": 6255,
      "Lies": 6256,
      "Lead": 6257,
      "Mur": 6258,
      "Part": 6259,
      "Peter": 6260,
      "Rel": 6261,
      "Sit": 6262,
      "Send": 6263,
      "Ten": 6264,
      "Tra": 6265,
      "Talk": 6266,
      "Touch": 6267,
      "Teach": 6268,
      "Truly": 6269,
      "Vouchsafe": 6270,
      "Verily": 6271,
      "Wert": 6272,
      "Zounds": 6273,
      "av": 6274,
      "ape": 6275,
      "aving": 6276,
      "bes": 6277,
      "bour": 6278,
      "bell": 6279,
      "board": 6280,
      "cat": 6281,
      "cock": 6282,
      "down": 6283,
      "ech": 6284,
      "eves": 6285,
      "gic": 6286,
      "gues": 6287,
      "hors": 6288,
      "ipt": 6289,
      "join": 6290,
      "kest": 6291,
      "know": 6292,
      "lor": 6293,
      "len": 6294,
      "low": 6295,
      "lain": 6296,
      "last": 6297,
      "lace": 6298,
      "lock": 6299,
      "liness": 6300,
      "longs": 6301,
      "met": 6302,
      "miss": 6303,
      "mistress": 6304,
      "nib": 6305,
      "ob": 6306,
      "oble": 6307,
      "open": 6308,
      "post": 6309,
      "pite": 6310,
      "pular": 6311,
      "pothecary": 6312,
      "ris": 6313,
      "rish": 6314,
      "roof": 6315,
      "sent": 6316,
      "tin": 6317,
      "ted": 6318,
      "tell": 6319,
      "tong": 6320,
      "tied": 6321,
      "trees": 6322,
      "uge": 6323,
      "uild": 6324,
      "ually": 6325,
      "vir": 6326,
      "wh": 6327,
      "wer": 6328,
      "was": 6329,
      "work": 6330,
      "women": 6331,
      "ycor": 6332,
      "ĠFirst": 6333,
      "Ġtrow": 6334,
      "Ġtie": 6335,
      "Ġtorn": 6336,
      "Ġtaking": 6337,
      "heard": 6338,
      "Ġafe": 6339,
      "Ġsow": 6340,
      "Ġsand": 6341,
      "Ġsong": 6342,
      "Ġsixt": 6343,
      "Ġmom": 6344,
      "Ġmas": 6345,
      "Ġmouse": 6346,
      "Ġmates": 6347,
      "Ġmurde": 6348,
      "Ġmask": 6349,
      "inu": 6350,
      "inal": 6351,
      "inies": 6352,
      "inces": 6353,
      "Ġwore": 6354,
      "Ġwipe": 6355,
      "had": 6356,
      "hage": 6357,
      "Ġbot": 6358,
      "Ġbul": 6359,
      "Ġbows": 6360,
      "Ġbail": 6361,
      "Ġbounty": 6362,
      "Ġfre": 6363,
      "Ġfan": 6364,
      "Ġfif": 6365,
      "Ġfil": 6366,
      "Ġfrant": 6367,
      "Ġfount": 6368,
      "Ġfift": 6369,
      "Ġfingers": 6370,
      "Ġfrank": 6371,
      "Ġfolks": 6372,
      "onio": 6373,
      "Ġdot": 6374,
      "Ġdine": 6375,
      "Ġdried": 6376,
      "Ġdined": 6377,
      "Ġdash": 6378,
      "Ġdiest": 6379,
      "Ġdrift": 6380,
      "Ġcord": 6381,
      "Ġcro": 6382,
      "Ġcab": 6383,
      "Ġcool": 6384,
      "Ġcrows": 6385,
      "Ġcords": 6386,
      "ening": 6387,
      "ened": 6388,
      "enches": 6389,
      "Ġnort": 6390,
      "Ġnigh": 6391,
      "Ġnamed": 6392,
      "Ġnimble": 6393,
      "Ġlute": 6394,
      "Ġlads": 6395,
      "Ġlying": 6396,
      "Ġlinger": 6397,
      "Ġthw": 6398,
      "Ġthrown": 6399,
      "Ġhill": 6400,
      "Ġpow": 6401,
      "Ġpour": 6402,
      "Ġpest": 6403,
      "Ġpant": 6404,
      "Ġpup": 6405,
      "Ġpict": 6406,
      "Ġheel": 6407,
      "Ġheinous": 6408,
      "otland": 6409,
      "Ġgust": 6410,
      "Ġgather": 6411,
      "Ġgaunt": 6412,
      "Ġbeef": 6413,
      "see": 6414,
      "Ġinward": 6415,
      "Ġhag": 6416,
      "Ġhaunt": 6417,
      "lect": 6418,
      "aying": 6419,
      "etition": 6420,
      "Ġmeed": 6421,
      "Ġmeal": 6422,
      "iments": 6423,
      "Ġnotice": 6424,
      "Ġforso": 6425,
      "Ġug": 6426,
      "Ġwears": 6427,
      "Ġeight": 6428,
      "Ġeff": 6429,
      "advent": 6430,
      "ril": 6431,
      "rial": 6432,
      "Ġstink": 6433,
      "Ġstag": 6434,
      "Ġsteep": 6435,
      "Ġstiff": 6436,
      "Ġkites": 6437,
      "iders": 6438,
      "asant": 6439,
      "Ġrein": 6440,
      "Ġrevive": 6441,
      "rament": 6442,
      "Ġlick": 6443,
      "Ġlief": 6444,
      "urb": 6445,
      "uring": 6446,
      "alks": 6447,
      "Ġashes": 6448,
      "Ġassem": 6449,
      "Ġdeer": 6450,
      "Ġdece": 6451,
      "Ġdeform": 6452,
      "roach": 6453,
      "Ġshade": 6454,
      "Ġdole": 6455,
      "amy": 6456,
      "amity": 6457,
      "aments": 6458,
      "Ġnod": 6459,
      "Ġnoon": 6460,
      "ushi": 6461,
      "anders": 6462,
      "Ġsearch": 6463,
      "Throw": 6464,
      "Ġann": 6465,
      "Ġancest": 6466,
      "Ġlodge": 6467,
      "Ġloathed": 6468,
      "ella": 6469,
      "Ġspark": 6470,
      "Ġspider": 6471,
      "Ġspurs": 6472,
      "ĠCambio": 6473,
      "ĠCupid": 6474,
      "Ġvul": 6475,
      "Ġvass": 6476,
      "Ġvouch": 6477,
      "Ġvial": 6478,
      "Ġventure": 6479,
      "ctor": 6480,
      "ousins": 6481,
      "Ġwhatsoever": 6482,
      "Ġshot": 6483,
      "Ġshown": 6484,
      "ules": 6485,
      "arthage": 6486,
      "Ġprate": 6487,
      "Ġprint": 6488,
      "Ġprating": 6489,
      "Ġmanhood": 6490,
      "ĠEven": 6491,
      "Ġamaz": 6492,
      "icle": 6493,
      "ication": 6494,
      "ived": 6495,
      "ively": 6496,
      "Ġblot": 6497,
      "Ġblue": 6498,
      "Ġblown": 6499,
      "Ġbliss": 6500,
      "Ġblaze": 6501,
      "Ġblushing": 6502,
      "embroke": 6503,
      "Ġtheme": 6504,
      "ĠLove": 6505,
      "Ġthereto": 6506,
      "Ġcanop": 6507,
      "eptune": 6508,
      "Ġherein": 6509,
      "Ġswoon": 6510,
      "Ġbranch": 6511,
      "Ġorator": 6512,
      "ĠSly": 6513,
      "ĠSunday": 6514,
      "ĠSycor": 6515,
      "ĠBagot": 6516,
      "ĠBenvolio": 6517,
      "Ġarise": 6518,
      "Ġunlike": 6519,
      "Ġunruly": 6520,
      "Ġworms": 6521,
      "Ġworser": 6522,
      "ĠHave": 6523,
      "Ġmustard": 6524,
      "Ġgraces": 6525,
      "Ġseeks": 6526,
      "Ġlikeli": 6527,
      "Ġshoulders": 6528,
      "ĠPoor": 6529,
      "Ġsack": 6530,
      "Ġsaved": 6531,
      "Ġplan": 6532,
      "peian": 6533,
      "ĠWest": 6534,
      "ĠWednesday": 6535,
      "Ġenforced": 6536,
      "Ġenrich": 6537,
      "unis": 6538,
      "uned": 6539,
      "fulness": 6540,
      "Ġrhe": 6541,
      "Ġranc": 6542,
      "Ġrush": 6543,
      "Ġroof": 6544,
      "Ġrushes": 6545,
      "Ġpock": 6546,
      "Ġpopular": 6547,
      "death": 6548,
      "ption": 6549,
      "Ġoffences": 6550,
      "Ġdiso": 6551,
      "Ġalar": 6552,
      "Ġaloud": 6553,
      "Ġalso": 6554,
      "ABRA": 6555,
      "Ġbrotherhood": 6556,
      "Ġfox": 6557,
      "Ġroses": 6558,
      "Ġroaring": 6559,
      "Ġexceed": 6560,
      "Ġrig": 6561,
      "Ġleap": 6562,
      "Ġleaving": 6563,
      "Ġslily": 6564,
      "Ġflock": 6565,
      "ĠTime": 6566,
      "ĠTew": 6567,
      "ĠTroy": 6568,
      "ĠTullus": 6569,
      "ĠTribunes": 6570,
      "ffic": 6571,
      "ĠKent": 6572,
      "Ġcommends": 6573,
      "Ġcler": 6574,
      "Ġsweetest": 6575,
      "Ġplebe": 6576,
      "Ġperfection": 6577,
      "Ġwring": 6578,
      "awful": 6579,
      "Ġtrim": 6580,
      "Ġotherwise": 6581,
      "Ġmeaner": 6582,
      "lier": 6583,
      "Ġscore": 6584,
      "Ġnighting": 6585,
      "Ġrace": 6586,
      "Thank": 6587,
      "these": 6588,
      "ĠFourth": 6589,
      "Ġdownfall": 6590,
      "together": 6591,
      "Ġappears": 6592,
      "Ġcontri": 6593,
      "GREY": 6594,
      "Ġwhist": 6595,
      "Northumberland": 6596,
      "Ġmothers": 6597,
      "Ġeverlast": 6598,
      "ksbury": 6599,
      "ĠJup": 6600,
      "Ġrum": 6601,
      "Ġpeer": 6602,
      "Ġlevel": 6603,
      "Ġharl": 6604,
      "Ġharvest": 6605,
      "Ġharbour": 6606,
      "Ġrests": 6607,
      "Ġsettled": 6608,
      "attern": 6609,
      "oses": 6610,
      "Ġmoe": 6611,
      "Ġmoving": 6612,
      "Ġmoiety": 6613,
      "Ġbestri": 6614,
      "Ġhenceforth": 6615,
      "Ġaccomp": 6616,
      "Ġfaced": 6617,
      "ulting": 6618,
      "Ġendured": 6619,
      "Ġpursue": 6620,
      "Ġcompare": 6621,
      "Ġcompound": 6622,
      "Ġchamp": 6623,
      "Ġdearth": 6624,
      "twould": 6625,
      "Ġtrees": 6626,
      "Ġhomely": 6627,
      "Ġbrand": 6628,
      "isterous": 6629,
      "Ġcharges": 6630,
      "Ġchances": 6631,
      "Ġchanging": 6632,
      "Ġconfidence": 6633,
      "Ġconfeder": 6634,
      "Ġcoast": 6635,
      "Ġcozen": 6636,
      "Ġimpeach": 6637,
      "Ġlights": 6638,
      "Ġroyalties": 6639,
      "Ġbeside": 6640,
      "Ġfully": 6641,
      "Ġdevour": 6642,
      "Ġwronged": 6643,
      "Ġmischief": 6644,
      "Ġlasting": 6645,
      "blance": 6646,
      "Ġafterward": 6647,
      "Ġthousands": 6648,
      "Ġholding": 6649,
      "Ġpatron": 6650,
      "Ġfallen": 6651,
      "Ġfalling": 6652,
      "Ġstrife": 6653,
      "ivant": 6654,
      "Ġhumility": 6655,
      "Ġbelong": 6656,
      "Ġbelieved": 6657,
      "Ġtalking": 6658,
      "Ġgrim": 6659,
      "Ġgrass": 6660,
      "Ġdram": 6661,
      "Ġserious": 6662,
      "Ġboisterous": 6663,
      "Ġadvoc": 6664,
      "Ġmerchant": 6665,
      "Ġrevenue": 6666,
      "Ġdoubtful": 6667,
      "Ġdancing": 6668,
      "Ġpersons": 6669,
      "Ġdischarge": 6670,
      "Attend": 6671,
      "Ġcommands": 6672,
      "Ġwindow": 6673,
      "ittany": 6674,
      "Ġcrab": 6675,
      "Ġhangman": 6676,
      "Ġproudest": 6677,
      "Twixt": 6678,
      "Ġintents": 6679,
      "Ġyielding": 6680,
      "Ġbreaks": 6681,
      "Ġmerri": 6682,
      "Ġtemple": 6683,
      "Ġrequire": 6684,
      "Ġdefy": 6685,
      "Ġlately": 6686,
      "Ġtenderness": 6687,
      "Ġsadly": 6688,
      "Ġchose": 6689,
      "Ġgrowth": 6690,
      "Ġasking": 6691,
      "Ġreported": 6692,
      "shine": 6693,
      "Ġwatery": 6694,
      "ĠMontagues": 6695,
      "Ġbattles": 6696,
      "Ġcrying": 6697,
      "Ġlearning": 6698,
      "Ġlearned": 6699,
      "Ġentreaty": 6700,
      "Ġdevils": 6701,
      "Ġmurders": 6702,
      "Ġsilk": 6703,
      "Ġboldness": 6704,
      "Ġruns": 6705,
      "Ġrevengeful": 6706,
      "Happ": 6707,
      "Happy": 6708,
      "voc": 6709,
      "Ġspeedy": 6710,
      "Ġquarter": 6711,
      "Ġconfessor": 6712,
      "ĠNed": 6713,
      "ĠNeptune": 6714,
      "Ġforehead": 6715,
      "Ġterr": 6716,
      "Ġminutes": 6717,
      "Ġrecreant": 6718,
      "Ġdelicate": 6719,
      "Ġdespised": 6720,
      "Ġbosoms": 6721,
      "Ġharmony": 6722,
      "Ġguiltless": 6723,
      "Ġattended": 6724,
      "Ġmurderous": 6725,
      "Ġveil": 6726,
      "Ġdistra": 6727,
      "Ġdistress": 6728,
      "Ġacts": 6729,
      "Ġwonderful": 6730,
      "Ġsingular": 6731,
      "Ġmusician": 6732,
      "Ġclosed": 6733,
      "Ġwaits": 6734,
      "Ġburden": 6735,
      "Ġsuffering": 6736,
      "Ġbreasts": 6737,
      "Ġwedded": 6738,
      "Ġdukes": 6739,
      "shearing": 6740,
      "Ġwisely": 6741,
      "Ġfeasts": 6742,
      "eshrew": 6743,
      "Ġgroom": 6744,
      "Ġredempt": 6745,
      "Ġbeggars": 6746,
      "Read": 6747,
      "Ready": 6748,
      "Swear": 6749,
      "ĠFortune": 6750,
      "Ġcrim": 6751,
      "Ġcrook": 6752,
      "Ġcrush": 6753,
      "standing": 6754,
      "Ġinterrupt": 6755,
      "Ġundo": 6756,
      "Ġevils": 6757,
      "Ġsumm": 6758,
      "ĠVolscians": 6759,
      "ĠVolscian": 6760,
      "Ġvisitation": 6761,
      "Ġbowl": 6762,
      "Ġbaby": 6763,
      "Ġframed": 6764,
      "Ġsafely": 6765,
      "Ġsafeguard": 6766,
      "Ġknocks": 6767,
      "Ġsacrament": 6768,
      "Ġleaden": 6769,
      "Ġlamentation": 6770,
      "ĠIsabella": 6771,
      "Ġignoble": 6772,
      "Ġclean": 6773,
      "Ġoppression": 6774,
      "Ġapproved": 6775,
      "Ġapprobation": 6776,
      "Ġcomplaint": 6777,
      "Ġdrinking": 6778,
      "Ġsurfeit": 6779,
      "Ġmidst": 6780,
      "Ġmidwife": 6781,
      "Ġdestiny": 6782,
      "Ġsmallest": 6783,
      "Confess": 6784,
      "Ġeasily": 6785,
      "Stands": 6786,
      "Ġdamnable": 6787,
      "Ġutmost": 6788,
      "Ġmildly": 6789,
      "Ġcauses": 6790,
      "Ġpuiss": 6791,
      "Ġpitied": 6792,
      "Ġinjustice": 6793,
      "Ġinsinu": 6794,
      "Ġproceedings": 6795,
      "Ġapart": 6796,
      "Ġmedic": 6797,
      "Ġmodel": 6798,
      "Ġfamiliar": 6799,
      "Ġreigns": 6800,
      "Ġprosperity": 6801,
      "Ġlenity": 6802,
      "Ġlowly": 6803,
      "angling": 6804,
      "Ġbending": 6805,
      "Ġslanderous": 6806,
      "ĠCapulets": 6807,
      "Ġmountain": 6808,
      "Ġunpro": 6809,
      "Ġunworthy": 6810,
      "Ġprovided": 6811,
      "Ġplants": 6812,
      "Ġneighbours": 6813,
      "Ġglasses": 6814,
      "Ġextremes": 6815,
      "when": 6816,
      "Ġconclusion": 6817,
      "Ġimagination": 6818,
      "rateful": 6819,
      "Ġunlook": 6820,
      "Ġunluck": 6821,
      "ĠAlban": 6822,
      "govern": 6823,
      "Ġavoided": 6824,
      "Ġeager": 6825,
      "Ġloathsome": 6826,
      "Ġloyalty": 6827,
      "Ġaims": 6828,
      "Ġsensible": 6829,
      "Ġcrept": 6830,
      "Ġpilot": 6831,
      "Ġstatutes": 6832,
      "Ġchiefest": 6833,
      "cannot": 6834,
      "Ġcalamity": 6835,
      "Ġpinch": 6836,
      "Ġinfected": 6837,
      "Ġstocks": 6838,
      "Ġdearer": 6839,
      "Ġangels": 6840,
      "Ġlodged": 6841,
      "Ġlodging": 6842,
      "Ġpursuit": 6843,
      "Ġconqueror": 6844,
      "Prepare": 6845,
      "Ġtutor": 6846,
      "Ġfleet": 6847,
      "Ġfrozen": 6848,
      "ARCHBISHOP": 6849,
      "Ġadvanced": 6850,
      "Ġcorruption": 6851,
      "Ġmagist": 6852,
      "Ġconcerns": 6853,
      "Ġcloak": 6854,
      "Ġwhoreson": 6855,
      "Ġcompassion": 6856,
      "bric": 6857,
      "Ġstolen": 6858,
      "Ġsprings": 6859,
      "Ġswelling": 6860,
      "Ġabhorr": 6861,
      "Ġadverse": 6862,
      "Ġperjured": 6863,
      "Suppose": 6864,
      "Ġmultitude": 6865,
      "Ġnails": 6866,
      "Ġlinea": 6867,
      "Ġpiercing": 6868,
      "Ġinquire": 6869,
      "Ġclimate": 6870,
      "Ġwrinkled": 6871,
      "Ġwhispering": 6872,
      "Ġcorrection": 6873,
      "ĠAntium": 6874,
      "Ġcircumstance": 6875,
      "Lieutenant": 6876,
      "Sometime": 6877,
      "craft": 6878,
      "favour": 6879,
      "Ġtaunts": 6880,
      "Ġmoody": 6881,
      "Ġsteward": 6882,
      "Ġmanifest": 6883,
      "Ġbranches": 6884,
      "Ġunwilling": 6885,
      "ĠTarpeian": 6886,
      "Ġincensed": 6887,
      "Ġsubstitute": 6888,
      "Ġflatterers": 6889,
      "Mistake": 6890,
      "Ġtiger": 6891,
      "Ġmilk": 6892,
      "Ġnumbers": 6893,
      "Ġhinder": 6894,
      "Ġpearl": 6895,
      "Ġbereft": 6896,
      "Ġornaments": 6897,
      "ĠBrittany": 6898,
      "Ġunseen": 6899,
      "Ġdisgraced": 6900,
      "Ġtrifles": 6901,
      "Ġserpent": 6902,
      "Ġsufficient": 6903,
      "Ġestimation": 6904,
      "Ġoccupation": 6905,
      "Break": 6906,
      "Virtue": 6907,
      "Ġeternal": 6908,
      "Ġtardy": 6909,
      "Ġsurpr": 6910,
      "Ġfantast": 6911,
      "Ġlunatic": 6912,
      "Ġhistory": 6913,
      "Ġconsequence": 6914,
      "Ġmarshal": 6915,
      "Ġmarvellous": 6916,
      "Ġprophesy": 6917,
      "Ġceremonious": 6918,
      "Murder": 6919,
      "Ġafeard": 6920,
      "Ġsixteen": 6921,
      "Ġmoment": 6922,
      "Ġmurdered": 6923,
      "Ġfrantic": 6924,
      "Ġfifteen": 6925,
      "Ġcabin": 6926,
      "Ġnorthern": 6927,
      "Ġforsooth": 6928,
      "adventure": 6929,
      "ĠSycorax": 6930,
      "Ġlikelihood": 6931,
      "ABRAHAM": 6932,
      "ĠTewksbury": 6933,
      "ĠJupiter": 6934,
      "Ġadvocate": 6935,
      "Ġredemption": 6936,
      "Again": 6937,
      "Aff": 6938,
      "AGE": 6939,
      "Aumerle": 6940,
      "Apollo": 6941,
      "Apothecary": 6942,
      "Ban": 6943,
      "BON": 6944,
      "Bold": 6945,
      "Bless": 6946,
      "Cle": 6947,
      "Cast": 6948,
      "Cold": 6949,
      "Carry": 6950,
      "Cursed": 6951,
      "Den": 6952,
      "Dest": 6953,
      "Def": 6954,
      "DION": 6955,
      "Direct": 6956,
      "Er": 6957,
      "End": 6958,
      "Every": 6959,
      "EMI": 6960,
      "Fit": 6961,
      "Fill": 6962,
      "Fourth": 6963,
      "Gain": 6964,
      "Grand": 6965,
      "Groom": 6966,
      "Ho": 6967,
      "Har": 6968,
      "High": 6969,
      "Huntsman": 6970,
      "Imp": 6971,
      "Just": 6972,
      "Join": 6973,
      "Keeper": 6974,
      "Left": 6975,
      "Music": 6976,
      "NATH": 6977,
      "Open": 6978,
      "Obey": 6979,
      "Pres": 6980,
      "PAGE": 6981,
      "Ren": 6982,
      "Run": 6983,
      "Ratcliff": 6984,
      "Sus": 6985,
      "Sic": 6986,
      "Trust": 6987,
      "Ur": 6988,
      "Wife": 6989,
      "Worse": 6990,
      "ais": 6991,
      "aches": 6992,
      "avish": 6993,
      "bon": 6994,
      "bot": 6995,
      "bat": 6996,
      "bid": 6997,
      "bur": 6998,
      "best": 6999,
      "bel": 7000,
      "bles": 7001,
      "bearer": 7002,
      "co": 7003,
      "cis": 7004,
      "cour": 7005,
      "cri": 7006,
      "core": 7007,
      "cast": 7008,
      "count": 7009,
      "cured": 7010,
      "cals": 7011,
      "dra": 7012,
      "dist": 7013,
      "daughter": 7014,
      "door": 7015,
      "duce": 7016,
      "eks": 7017,
      "fly": 7018,
      "fend": 7019,
      "found": 7020,
      "franch": 7021,
      "gea": 7022,
      "gage": 7023,
      "grown": 7024,
      "gled": 7025,
      "greed": 7026,
      "hur": 7027,
      "honour": 7028,
      "iqu": 7029,
      "ivers": 7030,
      "jud": 7031,
      "kn": 7032,
      "kens": 7033,
      "lm": 7034,
      "lu": 7035,
      "leness": 7036,
      "mar": 7037,
      "mal": 7038,
      "make": 7039,
      "mind": 7040,
      "much": 7041,
      "mission": 7042,
      "nut": 7043,
      "name": 7044,
      "never": 7045,
      "nothing": 7046,
      "oa": 7047,
      "og": 7048,
      "overy": 7049,
      "occ": 7050,
      "ops": 7051,
      "opher": 7052,
      "ph": 7053,
      "po": 7054,
      "pre": 7055,
      "por": 7056,
      "put": 7057,
      "phan": 7058,
      "pers": 7059,
      "pres": 7060,
      "pire": 7061,
      "ples": 7062,
      "point": 7063,
      "picious": 7064,
      "sion": 7065,
      "spe": 7066,
      "sick": 7067,
      "sign": 7068,
      "such": 7069,
      "side": 7070,
      "somet": 7071,
      "scape": 7072,
      "ton": 7073,
      "ule": 7074,
      "uish": 7075,
      "uced": 7076,
      "ukes": 7077,
      "vil": 7078,
      "vance": 7079,
      "wit": 7080,
      "who": 7081,
      "why": 7082,
      "weet": 7083,
      "were": 7084,
      "witted": 7085,
      "yp": 7086,
      "yet": 7087,
      "ĠU": 7088,
      "Ġire": 7089,
      "ĠNo": 7090,
      "ĠThus": 7091,
      "Ġton": 7092,
      "Ġtur": 7093,
      "Ġtea": 7094,
      "Ġtink": 7095,
      "Ġtreat": 7096,
      "Ġtents": 7097,
      "Ġtainted": 7098,
      "Ġtailor": 7099,
      "Ġtamed": 7100,
      "Ġtumble": 7101,
      "Ġack": 7102,
      "Ġafore": 7103,
      "Ġape": 7104,
      "ouches": 7105,
      "Ġsith": 7106,
      "Ġsine": 7107,
      "Ġsitting": 7108,
      "Ġsiege": 7109,
      "Ġmast": 7110,
      "Ġmant": 7111,
      "Ġmuff": 7112,
      "Ġmiles": 7113,
      "iner": 7114,
      "Ġwester": 7115,
      "Ġwilful": 7116,
      "reth": 7117,
      "report": 7118,
      "has": 7119,
      "haeth": 7120,
      "Ġbought": 7121,
      "Ġbishop": 7122,
      "isc": 7123,
      "isher": 7124,
      "isome": 7125,
      "oricles": 7126,
      "Ġfet": 7127,
      "Ġfem": 7128,
      "Ġfits": 7129,
      "Ġfulf": 7130,
      "erous": 7131,
      "lly": 7132,
      "lling": 7133,
      "itan": 7134,
      "once": 7135,
      "Ġder": 7136,
      "Ġdom": 7137,
      "Ġded": 7138,
      "Ġdil": 7139,
      "Ġdame": 7140,
      "Ġdiet": 7141,
      "Ġdrows": 7142,
      "Ġdumb": 7143,
      "Ġcand": 7144,
      "Ġcave": 7145,
      "Ġcuck": 7146,
      "Ġcrest": 7147,
      "Ġcrew": 7148,
      "Ġcurious": 7149,
      "Ġcushi": 7150,
      "Ġcousins": 7151,
      "Ġnon": 7152,
      "Ġnaught": 7153,
      "Ġnourish": 7154,
      "Ġlink": 7155,
      "Ġlace": 7156,
      "Ġloose": 7157,
      "Ġlung": 7158,
      "Ġlends": 7159,
      "Ġlatest": 7160,
      "Ġyare": 7161,
      "Ġyester": 7162,
      "Ġthrees": 7163,
      "arison": 7164,
      "Ġhood": 7165,
      "Ġom": 7166,
      "Ġobt": 7167,
      "Ġtoe": 7168,
      "Ġtoken": 7169,
      "Ġtoads": 7170,
      "Ġtower": 7171,
      "Ġpine": 7172,
      "Ġpate": 7173,
      "Ġpuff": 7174,
      "Ġpedant": 7175,
      "Ġpounds": 7176,
      "Ġpattern": 7177,
      "Ġheal": 7178,
      "Ġheigh": 7179,
      "stra": 7180,
      "stone": 7181,
      "strong": 7182,
      "strel": 7183,
      "owick": 7184,
      "ank": 7185,
      "omenes": 7186,
      "Ġgam": 7187,
      "Ġgame": 7188,
      "Ġgaz": 7189,
      "Ġgrum": 7190,
      "Ġgeld": 7191,
      "Ġgulf": 7192,
      "Ġgloves": 7193,
      "ato": 7194,
      "atient": 7195,
      "Ġbeet": 7196,
      "Ġbeads": 7197,
      "seth": 7198,
      "Ġinve": 7199,
      "Ġinch": 7200,
      "Ġinvent": 7201,
      "Ġinherit": 7202,
      "cel": 7203,
      "ceives": 7204,
      "ceiving": 7205,
      "Ġhaw": 7206,
      "Ġhall": 7207,
      "Ġhalt": 7208,
      "ediment": 7209,
      "Ġmellow": 7210,
      "imo": 7211,
      "ims": 7212,
      "Ġnotes": 7213,
      "Ġnotwith": 7214,
      "chool": 7215,
      "child": 7216,
      "Ġforces": 7217,
      "key": 7218,
      "Ġweed": 7219,
      "illed": 7220,
      "Ġelo": 7221,
      "Ġebb": 7222,
      "herited": 7223,
      "entious": 7224,
      "ado": 7225,
      "adem": 7226,
      "adise": 7227,
      "rion": 7228,
      "riam": 7229,
      "rief": 7230,
      "rieve": 7231,
      "Ġstu": 7232,
      "Ġstem": 7233,
      "Ġstark": 7234,
      "Ġstaff": 7235,
      "ghts": 7236,
      "idd": 7237,
      "iding": 7238,
      "asy": 7239,
      "asing": 7240,
      "asures": 7241,
      "Ġrent": 7242,
      "Ġrender": 7243,
      "Ġresem": 7244,
      "raken": 7245,
      "rails": 7246,
      "Ġliar": 7247,
      "Ġliqu": 7248,
      "urvy": 7249,
      "Ġsolic": 7250,
      "Ġashore": 7251,
      "Ġdeceive": 7252,
      "Ġdefect": 7253,
      "aining": 7254,
      "verse": 7255,
      "verdone": 7256,
      "estiv": 7257,
      "eap": 7258,
      "earest": 7259,
      "Ġdoct": 7260,
      "Ġdoves": 7261,
      "Ġdoors": 7262,
      "Ġnoses": 7263,
      "Ġbutter": 7264,
      "using": 7265,
      "usiness": 7266,
      "ifth": 7267,
      "Ġsear": 7268,
      "Ġsequ": 7269,
      "Ġallay": 7270,
      "Ġallies": 7271,
      "Ġsued": 7272,
      "Ġsung": 7273,
      "Ġsunder": 7274,
      "Ġsugg": 7275,
      "Ġsugar": 7276,
      "Ġherbs": 7277,
      "thw": 7278,
      "throw": 7279,
      "thrift": 7280,
      "Ġansw": 7281,
      "Ġantic": 7282,
      "terate": 7283,
      "Ġloins": 7284,
      "Ġlocks": 7285,
      "Ġspar": 7286,
      "Ġsped": 7287,
      "Ġspilt": 7288,
      "Ġspices": 7289,
      "Ġspiders": 7290,
      "Ġfaction": 7291,
      "ĠCle": 7292,
      "ĠCaptain": 7293,
      "ĠCarthage": 7294,
      "Ġnegl": 7295,
      "hoeb": 7296,
      "Ġknit": 7297,
      "ANIEL": 7298,
      "ĠRo": 7299,
      "Ġvi": 7300,
      "Ġvine": 7301,
      "Ġvig": 7302,
      "cts": 7303,
      "Ġshout": 7304,
      "Ġshower": 7305,
      "ulous": 7306,
      "antime": 7307,
      "quet": 7308,
      "athom": 7309,
      "Whate": 7310,
      "ĠMadam": 7311,
      "Ġwhet": 7312,
      "Ġwheel": 7313,
      "Ġamend": 7314,
      "ending": 7315,
      "icial": 7316,
      "bled": 7317,
      "iel": 7318,
      "ivered": 7319,
      "Ġblister": 7320,
      "Ġblade": 7321,
      "venient": 7322,
      "ĠGentle": 7323,
      "Forth": 7324,
      "Forbear": 7325,
      "Forgive": 7326,
      "Forbid": 7327,
      "olar": 7328,
      "olve": 7329,
      "olour": 7330,
      "ĠLam": 7331,
      "ĠLod": 7332,
      "ĠLeave": 7333,
      "Ġhatch": 7334,
      "Ġcanker": 7335,
      "feel": 7336,
      "feits": 7337,
      "ressed": 7338,
      "ately": 7339,
      "Ġbrass": 7340,
      "ppet": 7341,
      "pped": 7342,
      "Ġorphan": 7343,
      "allel": 7344,
      "ĠShe": 7345,
      "ĠSweet": 7346,
      "Ġusure": 7347,
      "ĠBes": 7348,
      "ĠBraken": 7349,
      "Ġarch": 7350,
      "Ġargu": 7351,
      "Ġarbit": 7352,
      "Ġunple": 7353,
      "Ġunrest": 7354,
      "Ġworshi": 7355,
      "ĠHa": 7356,
      "ĠHear": 7357,
      "ĠHerc": 7358,
      "elting": 7359,
      "Ġquake": 7360,
      "Ġquaint": 7361,
      "Ġjade": 7362,
      "Ġjoc": 7363,
      "Ġmusty": 7364,
      "Ġgraft": 7365,
      "Ġhole": 7366,
      "cip": 7367,
      "cially": 7368,
      "Ġprog": 7369,
      "Ġprocure": 7370,
      "ĠPercy": 7371,
      "ĠPatri": 7372,
      "ĠPembroke": 7373,
      "ĠPhaeth": 7374,
      "ĠPhoeb": 7375,
      "Ġsap": 7376,
      "Ġmadly": 7377,
      "Ġmadest": 7378,
      "Ġmadman": 7379,
      "ums": 7380,
      "umes": 7381,
      "umps": 7382,
      "uments": 7383,
      "umny": 7384,
      "Ġplate": 7385,
      "Ġplaints": 7386,
      "people": 7387,
      "ĠWh": 7388,
      "ĠWelcome": 7389,
      "ĠWales": 7390,
      "ĠWalter": 7391,
      "owned": 7392,
      "Ġrats": 7393,
      "Ġrites": 7394,
      "Ġrising": 7395,
      "Ġpox": 7396,
      "Ġpoll": 7397,
      "ptory": 7398,
      "ĠAh": 7399,
      "ĠAm": 7400,
      "ĠAr": 7401,
      "Ġtruer": 7402,
      "Thoughts": 7403,
      "Ġmarr": 7404,
      "Ġmarble": 7405,
      "Ġmariners": 7406,
      "Ins": 7407,
      "Infer": 7408,
      "acks": 7409,
      "Ġdisl": 7410,
      "Ġdisorder": 7411,
      "Ġaloof": 7412,
      "Ġaltogether": 7413,
      "Ġheap": 7414,
      "oyal": 7415,
      "Ġhears": 7416,
      "echer": 7417,
      "eches": 7418,
      "Ġabst": 7419,
      "Ġabod": 7420,
      "Ġfold": 7421,
      "Ġfoil": 7422,
      "Ġearl": 7423,
      "Ġearldom": 7424,
      "Ġrode": 7425,
      "Ġrocks": 7426,
      "Ġexclaim": 7427,
      "Ġexact": 7428,
      "Ġexperience": 7429,
      "Ġlooker": 7430,
      "agine": 7431,
      "ervation": 7432,
      "aved": 7433,
      "Ġripen": 7434,
      "Ġridd": 7435,
      "Ġrivers": 7436,
      "tised": 7437,
      "Wherefore": 7438,
      "Ġslack": 7439,
      "Ġwarn": 7440,
      "Ġflame": 7441,
      "ĠTur": 7442,
      "ĠTunis": 7443,
      "ffer": 7444,
      "Ġbreeding": 7445,
      "izab": 7446,
      "sses": 7447,
      "Ġclap": 7448,
      "Ġprec": 7449,
      "Ġpreced": 7450,
      "Ġprerog": 7451,
      "Ġsweets": 7452,
      "Ġprays": 7453,
      "Ġnobleman": 7454,
      "Ġpledge": 7455,
      "ĠDoricles": 7456,
      "Ġperd": 7457,
      "Ġperf": 7458,
      "Ġpermit": 7459,
      "Ġwrangling": 7460,
      "aws": 7461,
      "Ġtrades": 7462,
      "Ġwayward": 7463,
      "Ġheadstrong": 7464,
      "lip": 7465,
      "Ġscour": 7466,
      "Ġscru": 7467,
      "Ġscape": 7468,
      "Ġpreserved": 7469,
      "Ġqueens": 7470,
      "Ġchival": 7471,
      "Ġrages": 7472,
      "Ġraging": 7473,
      "Ġraiment": 7474,
      "Ġragged": 7475,
      "their": 7476,
      "abour": 7477,
      "ĠFear": 7478,
      "ĠFran": 7479,
      "Ġapply": 7480,
      "Ġappell": 7481,
      "Ġappoint": 7482,
      "Ġarmed": 7483,
      "Norfolk": 7484,
      "sweet": 7485,
      "Ġbegot": 7486,
      "range": 7487,
      "Ġmale": 7488,
      "Ġimmediate": 7489,
      "Ġlongest": 7490,
      "ĠMarch": 7491,
      "Ġreplied": 7492,
      "Ġrepossess": 7493,
      "Ġrepetition": 7494,
      "Ġfriendship": 7495,
      "Ġafoot": 7496,
      "ĠJer": 7497,
      "ĠJun": 7498,
      "ĠJOHN": 7499,
      "ĠJesu": 7500,
      "Ġconspir": 7501,
      "Ġconsumed": 7502,
      "Ġconsidered": 7503,
      "Ġperem": 7504,
      "Ġlevy": 7505,
      "Ġentrails": 7506,
      "Ġlieutenant": 7507,
      "chelor": 7508,
      "Ġresort": 7509,
      "Ġrescue": 7510,
      "Ġtried": 7511,
      "Ġmoan": 7512,
      "Ġfollies": 7513,
      "Ġprivy": 7514,
      "Thyself": 7515,
      "Ġchaf": 7516,
      "Ġchap": 7517,
      "Ġpeaceful": 7518,
      "Ġelsewhere": 7519,
      "ailing": 7520,
      "asonable": 7521,
      "Ġbackward": 7522,
      "Ġcounted": 7523,
      "Ġladyship": 7524,
      "Ġneedle": 7525,
      "Ġneedless": 7526,
      "Ġtrembles": 7527,
      "Ġhighway": 7528,
      "Stanley": 7529,
      "Ġhusbands": 7530,
      "Ġbanquet": 7531,
      "Ġminded": 7532,
      "Ġbraved": 7533,
      "Ġchest": 7534,
      "Ġbribe": 7535,
      "Ġshowers": 7536,
      "Ġconfer": 7537,
      "Ġconfines": 7538,
      "Ġconfusion": 7539,
      "Ġcoz": 7540,
      "Ġcoal": 7541,
      "Ġcoals": 7542,
      "Ġcaused": 7543,
      "Ġglories": 7544,
      "Ġimpart": 7545,
      "Ġimpud": 7546,
      "Ġimpatience": 7547,
      "Ġimpression": 7548,
      "Ġimpatient": 7549,
      "Ġimpediment": 7550,
      "Ġbodes": 7551,
      "Ġmistaking": 7552,
      "Ġlightly": 7553,
      "Ġlightness": 7554,
      "Ġnatures": 7555,
      "Ġpardons": 7556,
      "Claudio": 7557,
      "Ġbeseem": 7558,
      "Ġhappier": 7559,
      "Ġdevice": 7560,
      "blown": 7561,
      "Ġunderne": 7562,
      "Ġundergo": 7563,
      "Ġkilled": 7564,
      "Ġfollowing": 7565,
      "Ġfarm": 7566,
      "Ġsunshine": 7567,
      "Ġbush": 7568,
      "Any": 7569,
      "Ġstreet": 7570,
      "Ġstream": 7571,
      "Ġturned": 7572,
      "Ġcomforts": 7573,
      "Ġcomfortable": 7574,
      "Ġsleeps": 7575,
      "Ġsleepy": 7576,
      "itories": 7577,
      "Ġwelcomes": 7578,
      "Ġthankful": 7579,
      "Ġbox": 7580,
      "Ġboon": 7581,
      "Ġboat": 7582,
      "Ġfights": 7583,
      "Ġfighting": 7584,
      "holds": 7585,
      "Ġfalsely": 7586,
      "plish": 7587,
      "Ġmerciful": 7588,
      "Ġmatters": 7589,
      "Ġassault": 7590,
      "Ġprisoners": 7591,
      "Ġdangers": 7592,
      "Ġdreamt": 7593,
      "enerate": 7594,
      "Ġstrait": 7595,
      "Ġdischarged": 7596,
      "Ġcommanding": 7597,
      "Ġdared": 7598,
      "Twill": 7599,
      "Twice": 7600,
      "Twenty": 7601,
      "comp": 7602,
      "Ġsisterhood": 7603,
      "Ġfouler": 7604,
      "versy": 7605,
      "Ġdenial": 7606,
      "Ġawry": 7607,
      "Ġmerrim": 7608,
      "Ġsupport": 7609,
      "Ġsuppose": 7610,
      "Ġsuppli": 7611,
      "Ġbeating": 7612,
      "Ġrequires": 7613,
      "Ġrequired": 7614,
      "Ġvalue": 7615,
      "Ġaffright": 7616,
      "Ġwoeful": 7617,
      "Ġtenderly": 7618,
      "Ġreturned": 7619,
      "mph": 7620,
      "mpet": 7621,
      "Ġdeeper": 7622,
      "Ġdeeply": 7623,
      "Ġfootman": 7624,
      "Ġchop": 7625,
      "Ġcoldly": 7626,
      "Ġnursed": 7627,
      "azon": 7628,
      "Ġplucks": 7629,
      "shining": 7630,
      "xton": 7631,
      "Ġairy": 7632,
      "Ġsuffice": 7633,
      "Ġpastime": 7634,
      "Ġfasting": 7635,
      "Ġsilken": 7636,
      "Ġstrongly": 7637,
      "Canst": 7638,
      "Ġpossessed": 7639,
      "voke": 7640,
      "voided": 7641,
      "Ġinfring": 7642,
      "Ġinfirm": 7643,
      "Ġprofan": 7644,
      "Ġprofits": 7645,
      "Ġconfession": 7646,
      "ĠNature": 7647,
      "Ġmocking": 7648,
      "Ġmockery": 7649,
      "Ġforest": 7650,
      "Ġdivided": 7651,
      "Ġdivines": 7652,
      "Ġdivision": 7653,
      "Ġcarries": 7654,
      "Ġposterity": 7655,
      "Ġcounsels": 7656,
      "Command": 7657,
      "Commit": 7658,
      "Ġterrible": 7659,
      "Ġminstrel": 7660,
      "Ġinconstant": 7661,
      "Ġrecover": 7662,
      "Ġresolute": 7663,
      "nowledge": 7664,
      "Ġharmless": 7665,
      "ĠHector": 7666,
      "Ġagreed": 7667,
      "Ġwhipt": 7668,
      "Ġdishon": 7669,
      "Ġdisting": 7670,
      "Ġdisturb": 7671,
      "Ġdistressed": 7672,
      "Ġtribune": 7673,
      "Ġtribute": 7674,
      "Ġdraws": 7675,
      "Ġactor": 7676,
      "Ġstirs": 7677,
      "Ġstirring": 7678,
      "Ġbreathes": 7679,
      "Ġclosely": 7680,
      "Ġforgiveness": 7681,
      "Ġsufferance": 7682,
      "Ġskulls": 7683,
      "Ġsigns": 7684,
      "Ġwisest": 7685,
      "Ġregiment": 7686,
      "Ġpoisonous": 7687,
      "Ġcheerfully": 7688,
      "shepherd": 7689,
      "Ġtax": 7690,
      "Ġdireful": 7691,
      "Ġpays": 7692,
      "Ġsuccor": 7693,
      "Ġblessings": 7694,
      "Ġbleed": 7695,
      "Ġbleeds": 7696,
      "Ġinterchange": 7697,
      "Ġembass": 7698,
      "Ġmalign": 7699,
      "Ġhurried": 7700,
      "Ġchamberlain": 7701,
      "Ġcowardice": 7702,
      "Ġlimits": 7703,
      "Ġscorns": 7704,
      "Ġwitnesses": 7705,
      "Ġbroad": 7706,
      "Ġcreated": 7707,
      "Ġcreatures": 7708,
      "Ġcaparison": 7709,
      "ĠChristopher": 7710,
      "Ġidly": 7711,
      "Ġhideous": 7712,
      "Ġbeastly": 7713,
      "Ġrebel": 7714,
      "Ġrebuke": 7715,
      "Ġscarlet": 7716,
      "Ġsecrets": 7717,
      "Ġfills": 7718,
      "Ġstrumpet": 7719,
      "Ġpuppet": 7720,
      "Ġinjurious": 7721,
      "Ġinjuries": 7722,
      "Ġinsulting": 7723,
      "Ġinnocence": 7724,
      "Ġadmit": 7725,
      "Ġadmir": 7726,
      "Ġadmitted": 7727,
      "Ġfamish": 7728,
      "Ġgovernor": 7729,
      "Enough": 7730,
      "Proud": 7731,
      "Ġscholar": 7732,
      "Ġmutiny": 7733,
      "Ġlustful": 7734,
      "Ġthreats": 7735,
      "Ġindiffe": 7736,
      "Ġindirect": 7737,
      "Ġsolely": 7738,
      "Ġgrandfather": 7739,
      "Ġsafer": 7740,
      "Ġsentenced": 7741,
      "Ġdrunkard": 7742,
      "Belike": 7743,
      "Heart": 7744,
      "Measure": 7745,
      "Meantime": 7746,
      "piring": 7747,
      "Ġmounting": 7748,
      "Ġfeat": 7749,
      "Ġcaptive": 7750,
      "ĠAntonio": 7751,
      "Ġcontrad": 7752,
      "Ġdegrees": 7753,
      "Ġdemands": 7754,
      "Ġremedies": 7755,
      "Ġunderstanding": 7756,
      "Ġgreetings": 7757,
      "Ġtriumphs": 7758,
      "Ġfarthest": 7759,
      "Ġfaintly": 7760,
      "Ġdwells": 7761,
      "Ġthroats": 7762,
      "Ġhunger": 7763,
      "Ġgait": 7764,
      "Ġgaol": 7765,
      "Ġgape": 7766,
      "Ġgaoler": 7767,
      "Ġgentler": 7768,
      "Ġchastity": 7769,
      "Ġchastisement": 7770,
      "Ġmiseries": 7771,
      "Ġextremest": 7772,
      "Ġscarcely": 7773,
      "whelm": 7774,
      "Ġfirmly": 7775,
      "Ġholid": 7776,
      "Ġinclination": 7777,
      "Ġrelig": 7778,
      "Ġunborn": 7779,
      "Ġbootless": 7780,
      "Ġconditions": 7781,
      "Ġschoolmaster": 7782,
      "Ġfruitful": 7783,
      "Ġbald": 7784,
      "Ġbachelor": 7785,
      "Ġfeeding": 7786,
      "Ġstooping": 7787,
      "Ġunlawful": 7788,
      "ĠAlas": 7789,
      "therefore": 7790,
      "Ġimportune": 7791,
      "Ġprophecy": 7792,
      "portion": 7793,
      "Ġdecay": 7794,
      "Ġknightly": 7795,
      "Ġknighthood": 7796,
      "Ġshrink": 7797,
      "Ġroundly": 7798,
      "Ġfrighted": 7799,
      "Ġassistance": 7800,
      "Ġdelights": 7801,
      "Ġutterance": 7802,
      "actors": 7803,
      "Ġcreate": 7804,
      "Ġlouder": 7805,
      "Ġstarve": 7806,
      "Ġjealousies": 7807,
      "Ġrascals": 7808,
      "Ġtreachery": 7809,
      "Ġerror": 7810,
      "Ġcalumny": 7811,
      "Ġphysician": 7812,
      "Ġweighty": 7813,
      "Ġsupreme": 7814,
      "runes": 7815,
      "Ġpursued": 7816,
      "Repent": 7817,
      "Shame": 7818,
      "paration": 7819,
      "Ġwolves": 7820,
      "Ġwonders": 7821,
      "Ġbaseness": 7822,
      "Ġbudge": 7823,
      "Ġdiadem": 7824,
      "Ġbeware": 7825,
      "Ġrewards": 7826,
      "Ġpronounced": 7827,
      "Ġambition": 7828,
      "Ġargos": 7829,
      "ĠFlore": 7830,
      "ĠFloriz": 7831,
      "Ġcracking": 7832,
      "Ġpenitence": 7833,
      "Ġpublicly": 7834,
      "Arm": 7835,
      "Arise": 7836,
      "doing": 7837,
      "scap": 7838,
      "Ġmagic": 7839,
      "Ġhazel": 7840,
      "Ġmerely": 7841,
      "ĠCalais": 7842,
      "ĠElizab": 7843,
      "Ġapprehens": 7844,
      "Ġgreyh": 7845,
      "Ġcholeric": 7846,
      "Consider": 7847,
      "glass": 7848,
      "Ġmillions": 7849,
      "regory": 7850,
      "Ġthorns": 7851,
      "Ġbefal": 7852,
      "Ġbefits": 7853,
      "Ġnobler": 7854,
      "ĠSTANLEY": 7855,
      "Ġworthily": 7856,
      "Ġadvertised": 7857,
      "Ġperjury": 7858,
      "Ġwitchcraft": 7859,
      "Ġbrawl": 7860,
      "Ġbrawling": 7861,
      "Ġachieve": 7862,
      "Ġachieved": 7863,
      "Ġsyll": 7864,
      "Ġwinged": 7865,
      "Ġfunction": 7866,
      "Ġhorror": 7867,
      "Ġforsake": 7868,
      "Ġevents": 7869,
      "Ġdissemble": 7870,
      "Ġclimb": 7871,
      "ĠDeath": 7872,
      "Ġrestraint": 7873,
      "Ġafflict": 7874,
      "ĠAntiates": 7875,
      "Ġcircumstances": 7876,
      "Condemn": 7877,
      "Knock": 7878,
      "Small": 7879,
      "mongst": 7880,
      "Ġtimeless": 7881,
      "Ġwidows": 7882,
      "Ġnapkin": 7883,
      "Ġdebase": 7884,
      "Ġsuperfl": 7885,
      "Ġsplit": 7886,
      "Ġvillany": 7887,
      "Ġvolume": 7888,
      "Ġshriek": 7889,
      "Ġdispleasure": 7890,
      "Ġdisguised": 7891,
      "Ġscolding": 7892,
      "Ġcouncil": 7893,
      "Ġcouncils": 7894,
      "Ġcurtain": 7895,
      "Amongst": 7896,
      "Between": 7897,
      "Betwixt": 7898,
      "Pursu": 7899,
      "Seize": 7900,
      "URREY": 7901,
      "Ġbaggage": 7902,
      "Ġhomage": 7903,
      "Ġhigher": 7904,
      "Ġpedlar": 7905,
      "Ġhaughty": 7906,
      "ĠGreece": 7907,
      "ĠScotland": 7908,
      "ĠSpeak": 7909,
      "Ġunfeigned": 7910,
      "Ġappeared": 7911,
      "Ġconsorted": 7912,
      "Ġbankrupt": 7913,
      "Ġdragon": 7914,
      "Ġtransported": 7915,
      "Evermore": 7916,
      "England": 7917,
      "Ġsaucy": 7918,
      "Ġmourning": 7919,
      "Ġcentre": 7920,
      "Ġissued": 7921,
      "Ġsociety": 7922,
      "Ġanchor": 7923,
      "ĠEmilia": 7924,
      "Ġshelter": 7925,
      "ĠWelshmen": 7926,
      "Ġimperial": 7927,
      "Ġlecture": 7928,
      "Ġrestored": 7929,
      "Ġsmiling": 7930,
      "Ġcounsellor": 7931,
      "Ġinferior": 7932,
      "Ġdivorce": 7933,
      "Ġtroublous": 7934,
      "Ġexpedition": 7935,
      "Ġinsolence": 7936,
      "Dispatch": 7937,
      "Ġconcluded": 7938,
      "Ġtestimony": 7939,
      "Ġreckoning": 7940,
      "Affection": 7941,
      "Touching": 7942,
      "posterous": 7943,
      "Ġsands": 7944,
      "Ġcordial": 7945,
      "Ġpestilence": 7946,
      "Ġpupil": 7947,
      "Ġugly": 7948,
      "Ġvulgar": 7949,
      "Ġvassal": 7950,
      "Ġamazement": 7951,
      "Ġcanopy": 7952,
      "Ġrancour": 7953,
      "Ġpocket": 7954,
      "Ġdisobed": 7955,
      "Ġplebeians": 7956,
      "Ġnightingale": 7957,
      "Ġwhistle": 7958,
      "Ġharlot": 7959,
      "Ġmerrily": 7960,
      "Ġterritories": 7961,
      "Ġpuissant": 7962,
      "Ġmedicine": 7963,
      "BONA": 7964,
      "EMILIA": 7965,
      "Gainst": 7966,
      "Grandam": 7967,
      "Harp": 7968,
      "NATHANIEL": 7969,
      "Urge": 7970,
      "iquity": 7971,
      "Ġtonight": 7972,
      "Ġsinew": 7973,
      "Ġwestern": 7974,
      "Ġfemale": 7975,
      "Ġcuckold": 7976,
      "Ġlungs": 7977,
      "Ġobtain": 7978,
      "Ġnotwithstanding": 7979,
      "Ġeloqu": 7980,
      "Ġsolicit": 7981,
      "estival": 7982,
      "Ġvineyard": 7983,
      "ĠLodowick": 7984,
      "ĠBrakenbury": 7985,
      "ĠHercules": 7986,
      "Ġjocund": 7987,
      "ĠPatrician": 7988,
      "ĠPhaethon": 7989,
      "ĠPhoebus": 7990,
      "Ġprecedent": 7991,
      "Ġprerogative": 7992,
      "ĠFrancis": 7993,
      "Ġperemptory": 7994,
      "Ġunderneath": 7995,
      "Ġmerriment": 7996,
      "Ġindifferent": 7997,
      "ĠFlorizel": 7998,
      "ĠElizabeth": 7999
    },
    "merges": [
      [
        "Ġ",
        "t"
      ],
      [
        "h",
        "e"
      ],
      [
        "Ġ",
        "a"
      ],
      [
        "o",
        "u"
      ],
      [
        "Ġ",
        "s"
      ],
      [
        "Ġ",
        "m"
      ],
      [
        "i",
        "n"
      ],
      [
        "Ġ",
        "w"
      ],
      [
        "r",
        "e"
      ],
      [
        "h",
        "a"
      ],
      [
        "n",
        "d"
      ],
      [
        "Ġt",
        "he"
      ],
      [
        "Ġ",
        "b"
      ],
      [
        "i",
        "s"
      ],
      [
        "o",
        "r"
      ],
      [
        "Ġ",
        "f"
      ],
      [
        "e",
        "r"
      ],
      [
        "l",
        "l"
      ],
      [
        "i",
        "t"
      ],
      [
        "o",
        "n"
      ],
      [
        "Ġ",
        "d"
      ],
      [
        "Ġ",
        "c"
      ],
      [
        "e",
        "s"
      ],
      [
        "e",
        "n"
      ],
      [
        "Ġ",
        "n"
      ],
      [
        "Ġ",
        "l"
      ],
      [
        "Ġ",
        "y"
      ],
      [
        "Ġt",
        "h"
      ],
      [
        "a",
        "r"
      ],
      [
        "Ġ",
        "h"
      ],
      [
        "Ġ",
        "o"
      ],
      [
        "Ġt",
        "o"
      ],
      [
        "Ġy",
        "ou"
      ],
      [
        "Ġ",
        "p"
      ],
      [
        "ha",
        "t"
      ],
      [
        "Ġ",
        "I"
      ],
      [
        "Ġ",
        "he"
      ],
      [
        "v",
        "e"
      ],
      [
        "o",
        "t"
      ],
      [
        "s",
        "t"
      ],
      [
        "Ġa",
        "nd"
      ],
      [
        "o",
        "w"
      ],
      [
        "in",
        "g"
      ],
      [
        "a",
        "n"
      ],
      [
        "Ġo",
        "f"
      ],
      [
        "o",
        "m"
      ],
      [
        "Ġ",
        "g"
      ],
      [
        "a",
        "t"
      ],
      [
        "Ġb",
        "e"
      ],
      [
        "s",
        "e"
      ],
      [
        "Ġm",
        "y"
      ],
      [
        "Ġ",
        "in"
      ],
      [
        "c",
        "e"
      ],
      [
        "Ġ",
        "ha"
      ],
      [
        "l",
        "e"
      ],
      [
        "a",
        "y"
      ],
      [
        "l",
        "d"
      ],
      [
        "i",
        "r"
      ],
      [
        "e",
        "t"
      ],
      [
        "e",
        "d"
      ],
      [
        "u",
        "t"
      ],
      [
        "Ġm",
        "e"
      ],
      [
        "i",
        "m"
      ],
      [
        "it",
        "h"
      ],
      [
        "'",
        "s"
      ],
      [
        "Ġn",
        "ot"
      ],
      [
        "c",
        "h"
      ],
      [
        "Ġt",
        "hat"
      ],
      [
        "Ġ",
        "is"
      ],
      [
        "g",
        "h"
      ],
      [
        "A",
        "nd"
      ],
      [
        "Ġf",
        "or"
      ],
      [
        "k",
        "e"
      ],
      [
        "Ġ",
        "u"
      ],
      [
        "ou",
        "r"
      ],
      [
        "Ġw",
        "e"
      ],
      [
        "o",
        "o"
      ],
      [
        "i",
        "ll"
      ],
      [
        "Ġ",
        "e"
      ],
      [
        "he",
        "r"
      ],
      [
        "Ġw",
        "ith"
      ],
      [
        "en",
        "t"
      ],
      [
        "Ġ",
        "it"
      ],
      [
        "Ġyou",
        "r"
      ],
      [
        "a",
        "d"
      ],
      [
        "r",
        "i"
      ],
      [
        "Ġth",
        "ou"
      ],
      [
        "Ġs",
        "t"
      ],
      [
        "'",
        "d"
      ],
      [
        "Ġ",
        "k"
      ],
      [
        "om",
        "e"
      ],
      [
        "Ġh",
        "is"
      ],
      [
        "gh",
        "t"
      ],
      [
        "E",
        "N"
      ],
      [
        "or",
        "d"
      ],
      [
        "i",
        "d"
      ],
      [
        "T",
        "he"
      ],
      [
        "a",
        "s"
      ],
      [
        "Ġ",
        "re"
      ],
      [
        "Ġha",
        "ve"
      ],
      [
        "I",
        "N"
      ],
      [
        "l",
        "y"
      ],
      [
        "r",
        "a"
      ],
      [
        "Ġl",
        "i"
      ],
      [
        "Ġh",
        "im"
      ],
      [
        "u",
        "r"
      ],
      [
        "Ġth",
        "is"
      ],
      [
        "a",
        "l"
      ],
      [
        "I",
        "O"
      ],
      [
        "Ġs",
        "o"
      ],
      [
        "Ġa",
        "s"
      ],
      [
        "Ġd",
        "e"
      ],
      [
        "Ġ",
        "on"
      ],
      [
        "o",
        "re"
      ],
      [
        "r",
        "o"
      ],
      [
        "A",
        "R"
      ],
      [
        "h",
        "i"
      ],
      [
        "ou",
        "ld"
      ],
      [
        "oo",
        "d"
      ],
      [
        "c",
        "k"
      ],
      [
        "a",
        "in"
      ],
      [
        "v",
        "er"
      ],
      [
        "es",
        "t"
      ],
      [
        "Ġth",
        "y"
      ],
      [
        "Ġs",
        "ha"
      ],
      [
        "es",
        "s"
      ],
      [
        "e",
        "a"
      ],
      [
        "Ġd",
        "o"
      ],
      [
        "Ġw",
        "ill"
      ],
      [
        "a",
        "m"
      ],
      [
        "Ġn",
        "o"
      ],
      [
        "Ġb",
        "ut"
      ],
      [
        "u",
        "s"
      ],
      [
        "a",
        "nd"
      ],
      [
        "U",
        "S"
      ],
      [
        "i",
        "f"
      ],
      [
        "Ġs",
        "e"
      ],
      [
        "g",
        "e"
      ],
      [
        "T",
        "h"
      ],
      [
        "Ġa",
        "ll"
      ],
      [
        "a",
        "ke"
      ],
      [
        "Ġs",
        "u"
      ],
      [
        "T",
        "o"
      ],
      [
        "Ġhe",
        "r"
      ],
      [
        "r",
        "u"
      ],
      [
        "i",
        "on"
      ],
      [
        "t",
        "h"
      ],
      [
        "Ġa",
        "n"
      ],
      [
        "t",
        "er"
      ],
      [
        "ar",
        "d"
      ],
      [
        "Ġl",
        "o"
      ],
      [
        "ha",
        "n"
      ],
      [
        "e",
        "ll"
      ],
      [
        "e",
        "ar"
      ],
      [
        "Ġs",
        "p"
      ],
      [
        "Ġthe",
        "e"
      ],
      [
        "Ġ",
        "our"
      ],
      [
        "Ġf",
        "a"
      ],
      [
        "Ġsha",
        "ll"
      ],
      [
        "Ġb",
        "y"
      ],
      [
        "U",
        "C"
      ],
      [
        "i",
        "l"
      ],
      [
        "Ġa",
        "re"
      ],
      [
        "IN",
        "G"
      ],
      [
        "Ġ",
        "C"
      ],
      [
        "r",
        "om"
      ],
      [
        "Ġn",
        "e"
      ],
      [
        "h",
        "o"
      ],
      [
        "Ġk",
        "n"
      ],
      [
        "A",
        "N"
      ],
      [
        "Ġ",
        "R"
      ],
      [
        "T",
        "hat"
      ],
      [
        "Ġ",
        "v"
      ],
      [
        "E",
        "R"
      ],
      [
        "O",
        "R"
      ],
      [
        "a",
        "st"
      ],
      [
        "c",
        "t"
      ],
      [
        "ou",
        "s"
      ],
      [
        "Ġw",
        "hat"
      ],
      [
        "i",
        "ght"
      ],
      [
        "Ġs",
        "h"
      ],
      [
        "u",
        "l"
      ],
      [
        "E",
        "T"
      ],
      [
        "Ġ",
        "'"
      ],
      [
        "an",
        "t"
      ],
      [
        "E",
        "S"
      ],
      [
        "Ġu",
        "p"
      ],
      [
        "se",
        "l"
      ],
      [
        "q",
        "u"
      ],
      [
        "B",
        "ut"
      ],
      [
        "ar",
        "t"
      ],
      [
        "Ġg",
        "ood"
      ],
      [
        "r",
        "ow"
      ],
      [
        "in",
        "e"
      ],
      [
        "at",
        "h"
      ],
      [
        "Ġl",
        "ord"
      ],
      [
        "hi",
        "ch"
      ],
      [
        "n",
        "t"
      ],
      [
        "u",
        "st"
      ],
      [
        "'",
        "ll"
      ],
      [
        "on",
        "e"
      ],
      [
        "Ġp",
        "r"
      ],
      [
        "Ġc",
        "om"
      ],
      [
        "Ġa",
        "t"
      ],
      [
        "Ġm",
        "an"
      ],
      [
        "W",
        "hat"
      ],
      [
        "Ġ",
        "M"
      ],
      [
        "Ġw",
        "he"
      ],
      [
        "Ġ",
        "E"
      ],
      [
        "K",
        "ING"
      ],
      [
        "Ġa",
        "m"
      ],
      [
        "e",
        "nd"
      ],
      [
        "i",
        "c"
      ],
      [
        "Ġc",
        "on"
      ],
      [
        "b",
        "le"
      ],
      [
        "r",
        "y"
      ],
      [
        "on",
        "g"
      ],
      [
        "i",
        "e"
      ],
      [
        "i",
        "ve"
      ],
      [
        "Ġb",
        "l"
      ],
      [
        "Ġf",
        "rom"
      ],
      [
        "v",
        "en"
      ],
      [
        "Ġ",
        "G"
      ],
      [
        "F",
        "or"
      ],
      [
        "Ġs",
        "he"
      ],
      [
        "e",
        "m"
      ],
      [
        "Ġg",
        "o"
      ],
      [
        "a",
        "re"
      ],
      [
        "Ġm",
        "ore"
      ],
      [
        "I",
        "C"
      ],
      [
        "ou",
        "t"
      ],
      [
        "Ġthe",
        "m"
      ],
      [
        "a",
        "u"
      ],
      [
        "Ġw",
        "as"
      ],
      [
        "ot",
        "h"
      ],
      [
        "ot",
        "her"
      ],
      [
        "H",
        "e"
      ],
      [
        "Ġs",
        "ir"
      ],
      [
        "o",
        "l"
      ],
      [
        "Ġn",
        "ow"
      ],
      [
        "Ġ",
        "L"
      ],
      [
        "Ġ",
        "hat"
      ],
      [
        "o",
        "st"
      ],
      [
        "Ġ",
        "if"
      ],
      [
        "L",
        "O"
      ],
      [
        "in",
        "d"
      ],
      [
        "Ġthe",
        "re"
      ],
      [
        "Ġw",
        "ould"
      ],
      [
        "Ġkn",
        "ow"
      ],
      [
        "Ġc",
        "an"
      ],
      [
        "er",
        "s"
      ],
      [
        "I",
        "US"
      ],
      [
        "e",
        "p"
      ],
      [
        "sel",
        "f"
      ],
      [
        "AR",
        "D"
      ],
      [
        "at",
        "her"
      ],
      [
        "f",
        "e"
      ],
      [
        "o",
        "nd"
      ],
      [
        "re",
        "s"
      ],
      [
        "at",
        "e"
      ],
      [
        "Ġs",
        "ay"
      ],
      [
        "Ġhe",
        "re"
      ],
      [
        "Ġlo",
        "ve"
      ],
      [
        "Ġs",
        "w"
      ],
      [
        "Ġthe",
        "ir"
      ],
      [
        "Ġb",
        "r"
      ],
      [
        "p",
        "p"
      ],
      [
        "Ġ",
        "or"
      ],
      [
        "-",
        "-"
      ],
      [
        "a",
        "ll"
      ],
      [
        "Ġ",
        "S"
      ],
      [
        "Ġt",
        "han"
      ],
      [
        "Ġthe",
        "n"
      ],
      [
        "Ġk",
        "ing"
      ],
      [
        "Ġu",
        "s"
      ],
      [
        "Ġ",
        "O"
      ],
      [
        "Ġ",
        "B"
      ],
      [
        "Ġthe",
        "y"
      ],
      [
        "Ġa",
        "r"
      ],
      [
        "o",
        "d"
      ],
      [
        "M",
        "y"
      ],
      [
        "Ġl",
        "et"
      ],
      [
        "Ġu",
        "n"
      ],
      [
        "i",
        "g"
      ],
      [
        "Ġw",
        "or"
      ],
      [
        "u",
        "re"
      ],
      [
        "in",
        "k"
      ],
      [
        "Ġ",
        "H"
      ],
      [
        "or",
        "t"
      ],
      [
        "h",
        "y"
      ],
      [
        "Ġ",
        "V"
      ],
      [
        "am",
        "e"
      ],
      [
        "f",
        "ore"
      ],
      [
        "A",
        "s"
      ],
      [
        "Ġm",
        "ay"
      ],
      [
        "e",
        "l"
      ],
      [
        "Ġ",
        "qu"
      ],
      [
        "Ġc",
        "ome"
      ],
      [
        "oo",
        "k"
      ],
      [
        "W",
        "he"
      ],
      [
        "is",
        "h"
      ],
      [
        "L",
        "I"
      ],
      [
        "Ġwe",
        "ll"
      ],
      [
        "K",
        "E"
      ],
      [
        "v",
        "es"
      ],
      [
        "Ġ",
        "j"
      ],
      [
        "Ġon",
        "e"
      ],
      [
        "Ġhat",
        "h"
      ],
      [
        "ir",
        "st"
      ],
      [
        "Y",
        "ou"
      ],
      [
        "Ġm",
        "ake"
      ],
      [
        "re",
        "at"
      ],
      [
        "a",
        "k"
      ],
      [
        "g",
        "ain"
      ],
      [
        "Ġm",
        "ust"
      ],
      [
        "ou",
        "nd"
      ],
      [
        "n",
        "g"
      ],
      [
        "Ġg",
        "ra"
      ],
      [
        "Ġwe",
        "re"
      ],
      [
        "Ġh",
        "o"
      ],
      [
        "c",
        "i"
      ],
      [
        "Ġse",
        "e"
      ],
      [
        "Ġli",
        "ke"
      ],
      [
        "u",
        "e"
      ],
      [
        "ea",
        "k"
      ],
      [
        "T",
        "IO"
      ],
      [
        "Ġsh",
        "ould"
      ],
      [
        "it",
        "y"
      ],
      [
        "Ġp",
        "ro"
      ],
      [
        "Ġ",
        "P"
      ],
      [
        "Ġs",
        "a"
      ],
      [
        "Ġm",
        "ad"
      ],
      [
        "u",
        "m"
      ],
      [
        "Ġp",
        "l"
      ],
      [
        "Ġf",
        "ather"
      ],
      [
        "R",
        "O"
      ],
      [
        "A",
        "U"
      ],
      [
        "Ġha",
        "d"
      ],
      [
        "Ġd",
        "id"
      ],
      [
        "p",
        "e"
      ],
      [
        "im",
        "e"
      ],
      [
        "Ġup",
        "on"
      ],
      [
        "i",
        "ce"
      ],
      [
        "O",
        "N"
      ],
      [
        "Ġto",
        "o"
      ],
      [
        "en",
        "ce"
      ],
      [
        "Ġ",
        "W"
      ],
      [
        "w",
        "ard"
      ],
      [
        "is",
        "t"
      ],
      [
        "Ġde",
        "ath"
      ],
      [
        "ow",
        "n"
      ],
      [
        "m",
        "an"
      ],
      [
        "o",
        "se"
      ],
      [
        "Ġ",
        "en"
      ],
      [
        "u",
        "n"
      ],
      [
        "I",
        "S"
      ],
      [
        "f",
        "ul"
      ],
      [
        "n",
        "ce"
      ],
      [
        "Ġ",
        "r"
      ],
      [
        "Ġp",
        "o"
      ],
      [
        "Ġsp",
        "eak"
      ],
      [
        "d",
        "e"
      ],
      [
        "ent",
        "le"
      ],
      [
        "i",
        "o"
      ],
      [
        "Ġ",
        "out"
      ],
      [
        "p",
        "t"
      ],
      [
        "Ġw",
        "hich"
      ],
      [
        "IC",
        "H"
      ],
      [
        "Ġf",
        "ri"
      ],
      [
        "O",
        "L"
      ],
      [
        "D",
        "U"
      ],
      [
        "Ġa",
        "gain"
      ],
      [
        "DU",
        "KE"
      ],
      [
        "Ġh",
        "ow"
      ],
      [
        "E",
        "L"
      ],
      [
        "i",
        "ck"
      ],
      [
        "Ġ",
        "A"
      ],
      [
        "Ġt",
        "ru"
      ],
      [
        "Ġhe",
        "art"
      ],
      [
        "Ġy",
        "et"
      ],
      [
        "Ġha",
        "nd"
      ],
      [
        "C",
        "A"
      ],
      [
        "Th",
        "ou"
      ],
      [
        "ver",
        "y"
      ],
      [
        "ICH",
        "ARD"
      ],
      [
        "EN",
        "TIO"
      ],
      [
        "W",
        "ith"
      ],
      [
        "ig",
        "n"
      ],
      [
        "Ġs",
        "ome"
      ],
      [
        "an",
        "ce"
      ],
      [
        "Ġw",
        "ho"
      ],
      [
        "W",
        "hich"
      ],
      [
        "I",
        "f"
      ],
      [
        "Ġwhe",
        "n"
      ],
      [
        "i",
        "es"
      ],
      [
        "Ġm",
        "ar"
      ],
      [
        "i",
        "re"
      ],
      [
        "Ġm",
        "ine"
      ],
      [
        "Ġh",
        "on"
      ],
      [
        "ha",
        "r"
      ],
      [
        "or",
        "n"
      ],
      [
        "Ġof",
        "f"
      ],
      [
        "in",
        "ce"
      ],
      [
        "IN",
        "C"
      ],
      [
        "I",
        "n"
      ],
      [
        "a",
        "ck"
      ],
      [
        "Ġ",
        "Y"
      ],
      [
        "Ġs",
        "on"
      ],
      [
        "Ġd",
        "is"
      ],
      [
        "Ġa",
        "l"
      ],
      [
        "'",
        "t"
      ],
      [
        "W",
        "e"
      ],
      [
        "u",
        "ch"
      ],
      [
        "w",
        "n"
      ],
      [
        "Ġhe",
        "a"
      ],
      [
        "F",
        "irst"
      ],
      [
        "o",
        "y"
      ],
      [
        "Ġt",
        "ime"
      ],
      [
        "Ġhe",
        "ar"
      ],
      [
        "A",
        "B"
      ],
      [
        "e",
        "c"
      ],
      [
        "Ġsu",
        "ch"
      ],
      [
        "n",
        "ess"
      ],
      [
        "L",
        "A"
      ],
      [
        "Ġbr",
        "other"
      ],
      [
        "O",
        "f"
      ],
      [
        "Ġbl",
        "ood"
      ],
      [
        "it",
        "her"
      ],
      [
        "Ġa",
        "b"
      ],
      [
        "U",
        "E"
      ],
      [
        "W",
        "hy"
      ],
      [
        "Ġthe",
        "se"
      ],
      [
        "N",
        "o"
      ],
      [
        "Ġg",
        "ive"
      ],
      [
        "Ġf",
        "o"
      ],
      [
        "Ġd",
        "ay"
      ],
      [
        "ĠI",
        "I"
      ],
      [
        "Ġe",
        "ar"
      ],
      [
        "ĠR",
        "ICHARD"
      ],
      [
        "T",
        "ER"
      ],
      [
        "Ġ",
        "ro"
      ],
      [
        "is",
        "e"
      ],
      [
        "Ġe",
        "x"
      ],
      [
        "Ġli",
        "fe"
      ],
      [
        "Th",
        "is"
      ],
      [
        "e",
        "et"
      ],
      [
        "Ġt",
        "ell"
      ],
      [
        "S",
        "o"
      ],
      [
        "Ġl",
        "ook"
      ],
      [
        "Ġth",
        "ink"
      ],
      [
        "UC",
        "H"
      ],
      [
        "ou",
        "l"
      ],
      [
        "Ġw",
        "ord"
      ],
      [
        "Ġe",
        "y"
      ],
      [
        "Ġwhe",
        "re"
      ],
      [
        "a",
        "g"
      ],
      [
        "a",
        "ge"
      ],
      [
        "e",
        "en"
      ],
      [
        "t",
        "her"
      ],
      [
        "G",
        "LO"
      ],
      [
        "Ġt",
        "ake"
      ],
      [
        "UC",
        "ES"
      ],
      [
        "Ġfri",
        "end"
      ],
      [
        "GLO",
        "UCES"
      ],
      [
        "GLOUCES",
        "TER"
      ],
      [
        "e",
        "f"
      ],
      [
        "er",
        "v"
      ],
      [
        "ad",
        "y"
      ],
      [
        "row",
        "n"
      ],
      [
        "Ġd",
        "es"
      ],
      [
        "ing",
        "s"
      ],
      [
        "a",
        "ve"
      ],
      [
        "n",
        "ot"
      ],
      [
        "Ġg",
        "entle"
      ],
      [
        "ur",
        "se"
      ],
      [
        "H",
        "ow"
      ],
      [
        "R",
        "Y"
      ],
      [
        "Ġ",
        "ri"
      ],
      [
        "a",
        "se"
      ],
      [
        "Q",
        "UE"
      ],
      [
        "w",
        "ay"
      ],
      [
        "INC",
        "ENTIO"
      ],
      [
        "QUE",
        "EN"
      ],
      [
        "Ġl",
        "ea"
      ],
      [
        "t",
        "is"
      ],
      [
        "ĠO",
        "F"
      ],
      [
        "Ġar",
        "t"
      ],
      [
        "Ġm",
        "ost"
      ],
      [
        "Whe",
        "re"
      ],
      [
        "Ġhon",
        "our"
      ],
      [
        "L",
        "AN"
      ],
      [
        "Ġm",
        "uch"
      ],
      [
        "Ġs",
        "l"
      ],
      [
        "Ġw",
        "ar"
      ],
      [
        "Ġf",
        "l"
      ],
      [
        "ur",
        "n"
      ],
      [
        "Ġmad",
        "e"
      ],
      [
        "m",
        "ent"
      ],
      [
        "N",
        "ow"
      ],
      [
        "Ġha",
        "st"
      ],
      [
        "Ġt",
        "w"
      ],
      [
        "Ġf",
        "ear"
      ],
      [
        "Ġ",
        "T"
      ],
      [
        "Ġbe",
        "t"
      ],
      [
        "EN",
        "RY"
      ],
      [
        "au",
        "ght"
      ],
      [
        "I",
        "s"
      ],
      [
        "L",
        "E"
      ],
      [
        "b",
        "er"
      ],
      [
        "f",
        "f"
      ],
      [
        "ĠG",
        "od"
      ],
      [
        "ou",
        "gh"
      ],
      [
        "ve",
        "d"
      ],
      [
        "Ġb",
        "re"
      ],
      [
        "c",
        "c"
      ],
      [
        "ow",
        "er"
      ],
      [
        "Ġne",
        "ver"
      ],
      [
        "ĠV",
        "INCENTIO"
      ],
      [
        "B",
        "e"
      ],
      [
        "a",
        "p"
      ],
      [
        "i",
        "gh"
      ],
      [
        "Ġ",
        "K"
      ],
      [
        "Ġg",
        "reat"
      ],
      [
        "Ġfa",
        "ir"
      ],
      [
        "W",
        "ho"
      ],
      [
        "e",
        "e"
      ],
      [
        "t",
        "le"
      ],
      [
        "Ġm",
        "en"
      ],
      [
        "or",
        "row"
      ],
      [
        "Ġc",
        "ou"
      ],
      [
        "Ġne",
        "w"
      ],
      [
        "ĠR",
        "ome"
      ],
      [
        "ast",
        "er"
      ],
      [
        "u",
        "ke"
      ],
      [
        "i",
        "z"
      ],
      [
        "o",
        "ld"
      ],
      [
        "OR",
        "K"
      ],
      [
        "Ġp",
        "art"
      ],
      [
        "at",
        "ion"
      ],
      [
        "IN",
        "IUS"
      ],
      [
        "s",
        "s"
      ],
      [
        "re",
        "e"
      ],
      [
        "id",
        "e"
      ],
      [
        "O",
        "r"
      ],
      [
        "Ġc",
        "all"
      ],
      [
        "p",
        "le"
      ],
      [
        "Ġan",
        "y"
      ],
      [
        "Ġhea",
        "ven"
      ],
      [
        "Ġa",
        "d"
      ],
      [
        "Ġcom",
        "m"
      ],
      [
        "I",
        "t"
      ],
      [
        "Y",
        "our"
      ],
      [
        "Ġst",
        "and"
      ],
      [
        "Ġcan",
        "not"
      ],
      [
        "Ġtru",
        "e"
      ],
      [
        "D",
        "W"
      ],
      [
        "Ġn",
        "ame"
      ],
      [
        "Ġbe",
        "en"
      ],
      [
        "ear",
        "s"
      ],
      [
        "DW",
        "ARD"
      ],
      [
        "Ġc",
        "l"
      ],
      [
        "Ġp",
        "re"
      ],
      [
        "Ġsw",
        "eet"
      ],
      [
        ",",
        "--"
      ],
      [
        "Ġd",
        "oth"
      ],
      [
        "Ġpr",
        "ay"
      ],
      [
        "h",
        "ing"
      ],
      [
        "P",
        "ET"
      ],
      [
        "U",
        "M"
      ],
      [
        "Ġno",
        "ble"
      ],
      [
        "L",
        "UC"
      ],
      [
        "M",
        "EN"
      ],
      [
        "T",
        "H"
      ],
      [
        "Ġo",
        "wn"
      ],
      [
        "Ġp",
        "le"
      ],
      [
        "as",
        "s"
      ],
      [
        "Ġ",
        "D"
      ],
      [
        "ou",
        "se"
      ],
      [
        "Ġp",
        "er"
      ],
      [
        "A",
        "y"
      ],
      [
        "C",
        "ome"
      ],
      [
        "u",
        "ll"
      ],
      [
        "The",
        "re"
      ],
      [
        "Ġw",
        "r"
      ],
      [
        "Ġd",
        "one"
      ],
      [
        "if",
        "e"
      ],
      [
        "a",
        "w"
      ],
      [
        "Ġt",
        "r"
      ],
      [
        "Ġw",
        "ay"
      ],
      [
        "Ġo",
        "ther"
      ],
      [
        "Ġhe",
        "ad"
      ],
      [
        "Ġme",
        "an"
      ],
      [
        "l",
        "i"
      ],
      [
        "re",
        "d"
      ],
      [
        "Whe",
        "n"
      ],
      [
        "d",
        "ward"
      ],
      [
        "Ġn",
        "or"
      ],
      [
        "E",
        "O"
      ],
      [
        "M",
        "EO"
      ],
      [
        "Ġs",
        "c"
      ],
      [
        "Ġs",
        "oul"
      ],
      [
        "Ġp",
        "res"
      ],
      [
        "RO",
        "MEO"
      ],
      [
        "a",
        "ce"
      ],
      [
        "v",
        "ing"
      ],
      [
        "Ġn",
        "ight"
      ],
      [
        "Ġbe",
        "ar"
      ],
      [
        "EN",
        "IUS"
      ],
      [
        "ain",
        "t"
      ],
      [
        "ĠC",
        "l"
      ],
      [
        "Ġwor",
        "ld"
      ],
      [
        "MEN",
        "ENIUS"
      ],
      [
        "g",
        "er"
      ],
      [
        "Ġbe",
        "fore"
      ],
      [
        "au",
        "se"
      ],
      [
        "Ġb",
        "oth"
      ],
      [
        "Ġqu",
        "een"
      ],
      [
        "p",
        "er"
      ],
      [
        "The",
        "n"
      ],
      [
        "aught",
        "er"
      ],
      [
        "R",
        "UCH"
      ],
      [
        "o",
        "ck"
      ],
      [
        "Ġc",
        "hi"
      ],
      [
        "He",
        "re"
      ],
      [
        "PET",
        "RUCH"
      ],
      [
        "PETRUCH",
        "IO"
      ],
      [
        "O",
        "M"
      ],
      [
        "a",
        "ble"
      ],
      [
        "Ġ",
        "very"
      ],
      [
        "Ġde",
        "ad"
      ],
      [
        "T",
        "ES"
      ],
      [
        "B",
        "y"
      ],
      [
        "Ġ",
        "ra"
      ],
      [
        "it",
        "e"
      ],
      [
        "T",
        "han"
      ],
      [
        "t",
        "he"
      ],
      [
        "Ġ",
        "ke"
      ],
      [
        "a",
        "b"
      ],
      [
        "l",
        "es"
      ],
      [
        "Ġ",
        "F"
      ],
      [
        "Ġd",
        "own"
      ],
      [
        "t",
        "o"
      ],
      [
        "Ġa",
        "pp"
      ],
      [
        "Ġmy",
        "self"
      ],
      [
        "Ġcon",
        "t"
      ],
      [
        "G",
        "R"
      ],
      [
        "H",
        "A"
      ],
      [
        "Ġw",
        "h"
[...]
